#version: 0.2
Ġ t
h e
Ġ a
i n
Ġt he
e r
o n
Ġ ,
r e
Ġ s
Ġ o
Ġ w
e d
u n
Ġ .
a t
n d
o r
Ġ c
i t
Ġ f
e n
i s
Ġo f
e s
Ġ b
Ġ in
a r
un k
a n
Ġ <
a l
Ġa nd
Ġ p
in g
a s
Ġt o
Ġ m
r o
i c
Ġ d
Ġ h
č Ċ
Ġ čĊ
i on
l e
Ġ T
Ġ =
Ġ re
Ġ "
Ġt h
en t
o u
Ġ A
Ġ 1
i l
Ġ S
s t
Ġ l
o m
Ġ e
Ġ n
Ġ @
a m
Ġ C
e l
a d
Ġw as
a c
ĠT he
Ġ on
Ġb e
u r
l y
Ġ M
Ġ '
Ġ I
Ġ g
Ġf or
i v
o l
t er
Ġ B
- @
Ġ@ -@
i m
i d
i r
Ġa s
c t
i g
t h
o w
it h
Ġs t
Ġ H
u s
Ġ 2
a y
Ġth at
Ġw ith
he r
o t
c e
v er
u t
at ion
e t
Ġ is
Ġ P
Ġw h
c h
Ġb y
Ġ R
Ġ )
Ġ (
Ġa l
Ġ F
Ġ D
Ġc on
e m
u l
Ġ W
Ġa t
Ġ it
Ġ1 9
a nd
a in
ro m
o s
Ġ N
Ġa n
Ġ G
Ġ L
er s
Ġ he
es t
a g
a v
0 0
Ġ J
Ġs e
u m
Ġd e
Ġh is
Ġ r
Ġf rom
o d
Ġ O
r i
Ġc om
Ġ E
p e
un d
is t
Ġp ro
i f
l d
i es
er e
or t
Ġ v
re s
Ġs u
o re
Ġw ere
il l
ĠI n
a p
on g
e w
o p
ig h
ic h
Ġo r
at e
ar t
al l
ar d
a k
Ġc h
b er
am e
Ġe x
g h
a b
u d
Ġp l
s e
at ed
an t
it y
Ġa re
Ġ â
o c
iv e
es s
q u
Ġs h
Ġâ Ģ
Ġh ad
Ġ k
ac k
Ġwh ich
u p
Ġ U
re d
Ġ y
Ġ K
Ġ le
o v
ou r
Ġn ot
m ent
as t
i p
ĠS t
r it
or d
e ar
p t
Ġt r
g e
al ly
i an
t her
o st
in e
av e
igh t
o un
el l
Ġ 3
is h
c l
ar y
ĠC h
Ġ2 00
u st
ir st
i a
Ġ ;
p p
t e
Ġcom p
Ġthe ir
Ġb ut
c c
s o
ct ion
f ter
Ġf irst
ou s
u re
Ġit s
ou ld
r a
ĠâĢ ĵ
id e
Ġw he
Ġcon t
Ġa r
u e
ic al
om e
Ġ un
w o
o g
he d
Ġ2 0
Ġ :
i al
u b
i e
Ġ her
Ġal so
it ion
Ġ ro
Ġin t
Ġ V
ow n
Ġc l
at er
ou t
ig n
Ġ us
or m
or k
Ġa b
Ġa d
o k
f f
p er
Ġh ave
ag e
r u
i re
ĠH e
Ġon e
as s
Ġh as
Ġre c
l ow
m er
im e
Ġbe en
Ġt wo
Ġ 4
d u
Ġre s
ĠT h
Ġ1 8
. @
Ġ@ .@
Ġp er
on d
Ġ 5
re e
Ġb o
Ġwh o
en ce
ur ing
ou gh
l and
t ed
Ġth is
a re
Ġbe c
i le
r y
p l
or y
an ce
u gh
e ct
ĠI t
an s
Ġs c
Ġpl ay
ĠA l
Ġthe y
cl ud
Ġy ear
Ġ20 1
Ġp art
Ġa g
ad e
Ġd es
ation s
Ġm an
r ic
Ġo ther
Ġd is
ul t
Ġt e
el y
Ġa fter
ac h
Ġ j
Ġs er
Ġo ver
o ver
Ġof f
Ġ up
, @
Ġ@ ,@
an g
Ġin clud
Ġs p
ion s
Ġ en
it e
ur n
ac t
o und
oun t
Ġ im
ac e
ic e
i z
i b
w n
Ġo ut
k e
res s
Ġ Y
ar k
Ġt ime
Ġn e
Ġint o
Ġf in
Ġp re
Ġe v
c ed
p ort
w e
ĠO n
Ġs pe
c es
Ġw ould
Ġm ore
Ġs he
Ġcom m
as on
Ġat t
w ard
ro ugh
Ġal l
re n
os e
on e
a il
it ed
Ġh im
am p
Ġw e
ter n
i ed
en s
o in
as ed
Ġ 6
ĠU n
Ġc ent
ri b
ĠR e
Ġw ork
ent s
il d
ĠS e
i x
Ġm e
o od
as e
l es
ing s
t s
m an
ro und
Ġ 7
Ġf e
Ġthe m
ab le
i ous
Ġwhe n
Ġbe t
Ġs ong
ak e
or s
Ġse c
at es
al s
v el
ub l
Ġe ar
Ġre m
ĠA n
ol d
is s
er ed
Ġk n
f orm
Ġm ost
Ġd uring
g an
at h
a us
Ġon ly
f er
und er
il m
Ġn ew
Ġg ame
o y
v ed
em ber
v e
or th
ol low
we en
Ġ19 9
re at
ĠA s
w ay
ou th
ĠA r
Ġ 9
Ġ 8
Ġre l
Ġc an
Ġab out
ter s
Ġag ain
Ġse ason
Ġth ree
Ġcon s
Ġth an
ĠE n
ic k
u g
ĠM ar
Ġbet ween
at t
a w
r al
Ġrec ord
Ġs ome
ation al
Ġ under
on s
Ġch ar
ct ed
ul ar
f ore
Ġth rough
in d
ic t
Ġl ater
h ip
i ew
Ġc ol
Ġn um
Ġ 00
ĠC om
f t
is ion
Ġw rit
Ġwh ile
ĠD e
Ġpro du
Ġp os
Ġf ilm
Ġre le
Ġ ver
am es
Ġe nd
Ġin ter
is hed
Ġa p
e y
Ġp e
Ġm ade
Ġp r
Ġfor m
n ing
Ġf l
Ġre g
Ġas s
or ld
Ġwhe re
Ġs o
Ġspe c
ĠN ew
Ġm ov
e ver
mer ic
ĠA meric
ur y
Ġl ar
b um
Ġa c
Ġa pp
Ġre t
r on
Ġf ollow
en er
Ġn o
Ġb u
Ġsu ch
Ġde f
Ġsec ond
iv ed
Ġf our
oc k
a id
Ġm us
Ġ qu
Ġa cc
Ġus ed
Ġsu b
ol og
Ġin c
Ġa ct
i ke
ĠA t
ro p
Ġd ay
ĠTh is
ar s
ĠL e
Ġp ubl
if ic
Ġa m
u al
Ġc all
Ġal bum
Ġin d
he s
Ġ00 0
Ġbe fore
Ġd o
Ġap pe
o b
il y
o h
Ġbe ing
an k
Ġg r
Ġc o
an y
Ġyear s
ĠEn g
Ġthe re
Ġsu pp
Ġg ro
e nd
c k
ow ever
at ing
an e
Ġf ound
Ġ 0
Ġe le
Ġh igh
Ġs et
i el
Ġe p
if e
ic s
or n
he n
Ġs y
ir d
Ġ ent
ot her
iv er
Ġs ur
ain ed
Ġ1 0
Ġser ies
ig in
Ġnum ber
p en
t en
l l
in ce
Ġl oc
aus e
Ġde c
Ġp res
p h
vel op
Ġbo th
od e
Ġse ver
it ies
ce pt
Ġ1 2
Ġthe n
Ġinclud ing
in es
Ġep is
s on
ĠB rit
Ġ /
Ġagain st
Ġw ell
Ġbec ame
Ġkn own
j ect
ĠâĢ Ķ
ro s
is ed
Ġp o
t on
Ġchar ac
Ġad d
Ġper form
Ġdes c
Ġs ing
Ġb l
Ġg o
Ġc ap
Ġ19 8
Ġd ire
ur ch
ĠJ oh
a j
Ġ1 6
al e
Ġb ack
Ġman y
ĠS h
Ġp op
p r
Ġm ain
id ent
th ough
ĠUn ited
Ġin v
Ġst ud
it s
Ġl ong
is e
at her
u res
Ġtr ans
Ġor igin
i o
ĠJoh n
ĠB r
i et
er t
em ent
Ġcent ury
Ġm on
Ġte am
o ber
ĠA fter
o ol
ĠS c
Ġ est
Ġde velop
Ġsh ow
an n
Ġm in
iel d
e k
ow er
Ġe m
i er
el f
Ġ19 4
a ir
ut e
Ġc re
Ġsever al
ĠS he
Ġle ad
u ch
Ġ1 7
a red
Ġbe gan
Ġ19 6
f ul
iv ers
er n
Ġ1 1
Ġ1 5
Ġm ill
Ġd if
Ġcont in
Ġ19 7
over n
Ġs ign
u ally
r am
v iew
Ġs m
i red
at ive
Ġm ay
Ġsh ip
Ġcomp le
Ġb r
Ġc ould
Ġear ly
Ġc rit
Ġd id
Ġcall ed
ain s
Ġar t
Ġepis ode
t il
Ġn ear
Ġo b
ĠI nd
Ġhis t
Ġp ol
Ġdesc rib
l ed
Ġb el
em b
u ed
Ġre ce
op le
i am
un e
Ġal ong
Ġr un
in s
Ġt er
im es
ment s
Ġde p
Ġb ro
cc ess
Ġs aid
le y
ĠW h
Ġfe at
ĠAmeric an
Ġd own
v en
ĠI s
Ġin st
Ġthe se
ak ing
ĠM ay
d er
Ġm il
Ġd ist
ĠA ust
Ġth ough
g est
ĠG er
ros s
Ġdis c
y l
ĠBrit ish
Ġo per
Ġun til
Ġ Z
ov e
t ing
o ot
Ġst art
an c
Ġc ity
Ġs ame
r ap
Ġin f
u red
Ġpre v
Ġrele ased
el s
Ġg ener
t y
an ge
Ġex p
Ġo wn
iz ed
Ġan y
Ġret urn
te nd
am ed
ĠThe y
i ally
ĠW ar
Ġk m
id ed
Ġl and
Ġdes ign
Ġw ar
Ġre p
Ġmus ic
Ġpro v
Ġim p
Ġmill ion
Ġbec ause
Ġare a
Ġus e
aj or
ĠC on
Ġc ar
Ġf am
Ġa ir
a z
ĠA ug
ĠAug ust
om an
Ġl ike
Ġo pen
Ġsu ccess
Ġm at
os ed
Ġs im
ĠF r
ĠCh r
Ġo cc
ers on
in k
e p
en n
Ġcon st
o ok
Ġpe ople
ul l
Ġe ff
h y
i um
Ġin s
Ġp ass
ch ool
Ġoff ic
st em
ib le
x t
Ġs ix
Ġc ount
Ġ19 5
Ġsupp ort
ĠB l
ĠB e
Ġa round
m y
ĠH owever
Ġsm all
a h
Ġw in
Ġ %
ĠSe pt
u c
Ġn orth
Ġad v
Ġd am
Ġgro up
Ġst r
ĠC ar
Ġp oin
Ġe ach
ĠSept ember
u es
on y
Ġcons id
Ġm et
ou se
Ġfollow ing
ĠP l
Ġcharac ter
ĠJ u
er v
ist s
ward s
ĠW orld
Ġl ife
m s
Ġ ed
ĠAust ral
Ġhe ad
Ġ1 3
ain ing
Ġf ive
Ġm od
Ġcont ro
Ġg overn
Ġatt ack
o le
Ġ19 3
ord ing
ĠCom m
i ent
al es
Ġv ar
os s
u th
ĠAl l
Ġw ill
ĠT e
Ġlar ge
Ġe ver
ut ion
et s
Ġ19 1
ĠI I
ĠH er
Ġg u
ĠC ol
Ġan n
Ġre port
ro w
Ġcon c
ag ue
ur al
ĠU S
ĠM e
ĠC l
ro te
l ish
ĠJ une
Ġbo ok
ĠN orth
av ing
ac ed
ĠE u
as h
ĠF or
Ġt it
ĠGer man
d om
Ġs ince
ĠSt ates
i k
Ġp rom
Ġs outh
Ġrece ived
Ġm ajor
Ġfin al
il t
m ed
p ed
Ġn ame
at ely
iv ision
ĠJ an
ĠA d
pe ct
ĠO ct
Ġpart ic
Ġsy stem
ĠS outh
Ġpubl ic
Ġc are
Ġst ate
Ġd r
ĠChr ist
Ġwh at
ĠK ing
iv es
Ġdire ct
u ary
Ġl ast
Ġhe l
Ġdescrib ed
t le
he l
Ġex t
ĠOct ober
ore d
Ġ1 4
Ġl ine
Ġ $
Ġappe ar
Ġre st
ĠC an
Ġb att
Ġwe ek
Ġplay ed
c ess
Ġcl ass
Ġbu ild
Ġinc re
Ġto ok
rop ical
Ġn ow
ĠF e
ĠN ov
ar l
Ġ [
Ġ ]
ĠY ork
g in
Ġw orld
ag ed
ĠJu ly
Ġw rote
Ġl ate
ag es
. .
ĠT r
iv ing
em pt
Ã ©
ion al
b le
Ġw on
Ġspec ies
olog y
ide o
Ġst ru
a im
Ġch ild
Ġ. ..
Ġm uch
Ġ2 5
ĠD uring
Ġd ue
od y
if ied
Ġser v
ĠA pr
Ġsing le
ĠApr il
Ġc amp
Ġal low
at s
i od
m in
ĠG u
Ġsh ort
Ġp ort
Ġde ath
Ġver s
Ġj ust
b all
Ġt y
Ġm ar
Ġan other
Ġinclud ed
ĠEu ro
Ġpos s
ĠJan uary
Ġo ld
il ity
iv ely
Ġst orm
g et
Ġev en
Ġdif fer
Ġg un
Ġwith in
ĠEng land
Ġl ist
iss ion
Ġle ft
Ġres ult
is m
om in
Ġpos ition
Ġn amed
Ġb ased
Ġest ab
Ġ if
Ġcon f
ant s
Ġar r
Ġal though
Ġv is
Ġpro g
Ġatt empt
a x
on t
Ġ3 0
Ġver y
Ġapp ro
in a
Ġth ird
Ġg ames
b y
it al
Ġto p
Ġre f
ĠA nd
ak es
Ġbel ie
Ġtr ack
ction s
ĠMar ch
n er
p le
Ġl it
ĠG r
Ġprev ious
Ġfam ily
ĠM us
ĠP ro
ĠNov ember
Ġp ower
Ġt ri
Ġre view
Ġper iod
Ġev ent
Ġ Q
Ġb est
Ġh ome
ĠG e
m ber
Ġw ay
il ar
ur ric
Ġs chool
Ġres p
ĠR o
ĠEuro pe
Ġw ater
ĠH is
Ġgovern ment
an ces
og rap
ent ly
ce mber
Ġex pl
ĠDe cember
Ġ19 2
Ġm en
re t
Ġth ose
av y
ra ft
ĠThe re
ĠB y
g er
Ġt urn
Ġconst ru
i ence
Ġh um
Ġpl ace
ĠC ity
ul ation
Ġor gan
Ġs l
Ġbu ilt
at ure
Ġb re
pe nd
ard s
ur ther
Ġg reat
ian s
id es
Ġst ory
Ġpro te
Ġcomm and
ac hed
Ġk ill
Ġmon th
ĠW hen
Ġcol le
c hed
he st
Ġs ent
Ġp erson
Ġorigin al
ri pt
ivers ity
it ary
Ġm ake
Ġh and
Ġo pp
ed er
Ġ1 00
Ġ200 9
Ġ201 0
Ġm ed
Ġv ideo
ĠN ational
Ġ Â
Ġ200 8
Ġa uth
Ġre qu
Ġh al
ent ion
Ġpres ent
oc i
a ur
p or
Ġm ark
Ġp h
Ġsu g
h am
Ġcl ub
Ġen g
en ces
ri end
iv en
as ter
el t
en e
Ġv iew
ĠM c
ic ally
s elf
ĠR iver
Ġmov ed
Ġl ed
Ġro le
Ġadd ition
Ġcap t
Ġst and
Ġst ill
Ġc ame
Ġle g
Ġloc al
Ġis s
Ġre pl
ren ch
g y
en se
ĠP r
a ff
Ġof ten
Ġhist ory
urric ane
Ġcomm on
Ġc aus
Ġd est
iv al
ĠW e
Ġc our
a e
is on
ĠM an
Ġd em
ak en
Ġeff ect
er y
Ġf ew
b e
ĠB o
ad y
ĠN o
op s
Ġ200 7
Ġne xt
Ġconsid ered
ĠF l
Ġtr ad
or ies
en g
Ġplay er
Ġsug gest
l ing
le v
Ġst ar
as tern
ĠS p
ĠF rench
Ġex per
s ide
Ġm y
Ġsim ilar
Ġcare er
ĠOn e
Ġrecord ed
ĠEng lish
Ġs ide
us s
Ġr ight
ĠP e
in ed
Ġc r
Ġin it
le t
Ġim port
Ġre al
ĠO r
Ġcl aim
qu e
ĠB att
Ġcomp any
a i
Ġc over
Ġpubl ished
ĠB ro
Ġde b
Ġcontin ued
Ġcont r
re w
ar n
id ge
Ġre fer
Ġy ou
Ġt ake
Ġb as
Ġwith out
Ġs old
Ġm id
ĠP h
tern ational
Ġsong s
Ġdiffer ent
Ġs ay
Ġto wn
Ġfor mer
ĠW ith
Ġan t
i or
Ġw ind
Ġhe ld
ĠCom p
at ter
is ter
ut ed
ĠA cc
Ġam ong
n ess
Ġm emb
Ġle vel
l u
Ġto t
Ġar ch
Ġro ad
Ġt em
Ġpol it
Ġf ield
g ed
Ġwrit ten
ar ch
th ing
ĠSt ate
b s
Ġpl an
Ġever y
p s
Ġ es
ĠP ort
Ġhal f
al k
Ġ2 1
ĠD ivision
amp ions
Ġt w
Ġ201 1
Ġrele ase
res ent
v es
es tern
im ent
ĠW ill
e ad
Ġbec ome
Ġa v
Ġf urther
Ġm ag
Ġ200 6
Ġcomm un
tend ed
ĠAcc ording
ĠAl though
ens ive
Ġw est
Ġh owever
Ġch urch
Ġ2 3
Ġday s
Ġstr ong
ĠCan ad
y le
it ar
Ġe ast
Ġfin d
Ġvers ion
ro y
le ar
Ġj oin
un g
b r
b ru
Ġ &
ot t
ri ed
ĠCh urch
Ġcomp et
Ġtit le
ĠC ount
Ġpartic ular
n e
p ite
m p
Ġl ow
Ġmil itary
Ġp ar
Ġd el
p ar
Ġbe h
ro du
ĠR oman
Ġor der
ĠLe ague
Ġauth or
Ġpro p
ĠM in
Ġdef e
Ġcontro l
Ġf oot
al y
ou ther
ĠS ong
ĠFe bru
outher n
ĠFebru ary
ĠP er
ĠG ener
Ġt imes
f ric
Ġg ave
Ġ2 2
Ġl ess
Ġ !
Ġs it
Ġ2 6
Ġreport ed
Ġmemb ers
Ġf r
Ġb and
ĠD yl
Ġv ict
ra w
ĠDyl an
Ġ2 4
ot s
Ġch ang
ĠGe or
Ġf ore
ĠA b
Ġn ort
Ġprodu ced
c hes
Ġ201 2
lev ision
Ġpro f
Ġe l
Ġtot al
a ugh
ic es
ĠP ark
ĠO ld
ail ed
er ing
ur s
Ġst at
ĠW est
l ine
ac es
Ġprodu ction
Ġpop ular
iet y
Ġf re
Ġde cl
cept ion
Ġt ropical
ĠB ar
Ġn ov
ron t
her n
oun g
Ġpro ject
Ġs ol
Ġfor ces
ĠJ ap
ition s
Ġpoin t
Ġchild ren
ĠJap an
Ġc ur
Ġc ult
Ġh aving
ĠP ar
Ġinclud e
re en
Ġcrit ic
Ġob s
Ġhist or
pe c
l er
Ġ2 8
Ġinv ol
Ġ X
al ion
Ġl ost
Ġinf lu
Ġg iven
Ġw ant
ĠAs s
in c
ress ion
Ġcount ry
s h
Ġt ro
Ġf ire
Ġsign ific
Ġrep resent
Ġman ag
a pe
om en
iz e
Ġ201 3
ĠS im
ch n
Ġs ite
om et
Ġse en
os p
Ġe ight
ĠD es
Ġprog ram
Ġm aking
ĠA m
ver s
Ġne ver
Ġf ar
ĠM iss
Ġst ated
Ġestab l
Ġp ress
Ġd et
ĠA fric
Ġcom b
ĠE d
ĠGener al
Ġb ody
Ġsh ould
Ġa ff
ĠC ent
ĠWh ile
Ġmat ch
it her
Ġf act
pl oy
Ġreturn ed
re et
is ing
Ġp at
ĠD av
ĠUn iversity
ren t
c raft
Ġf em
en c
Ġor d
Ġf t
Ġp ost
ĠP ol
our s
ĠThe se
Ġ19 0
ĠAmeric a
ĠE ar
Ġship s
Ġestabl ished
Ġs ound
Ġh ow
Ġis land
se qu
Ġear l
ampions hip
Ġpop ulation
Ġann oun
Ġre ached
Ġe qu
ĠSt e
Ġstru ct
ĠJ ack
Ġch art
Ġ5 0
Ġa way
re land
Ġs oc
ad es
ĠI reland
ab ly
Ġnot ed
ĠA ir
ig ade
ĠH a
Ġto o
pl ay
a ul
o pe
Ġf riend
Ġg od
Ġg round
Ġthrough out
Ġac ross
Ġdevelop ed
Ġthough t
Ġl ight
ĠE v
f ic
o x
Ġse ven
m e
Ġg en
Ġ2 7
ĠL ond
Ġint rodu
ĠLond on
Ġd iv
Ġus ing
Ġhim self
g round
Ġdevelop ment
ĠN e
ĠWill iam
Ġg ood
Ġdest roy
Ġl a
ĠF eder
f ord
Ġh ig
Ġl im
ain t
um ent
m ost
Ġf elt
es e
ĠM ich
Ġsignific ant
us ed
ree k
ĠAustral ia
y n
id ence
ct or
olog ical
Ġperform ed
Ġimport ant
a u
Ġc ast
w ork
Ġp ra
am b
Ġwrit ing
ĠAt l
Ġmil es
Ġc ou
Ġf ather
ar r
ord s
Ġte levision
o on
Ġ ide
in t
re am
Ġinter est
ĠBl ack
Ġvar ious
at ic
iv il
Ġare as
Ġhum an
im ately
Ġto ur
Ġn ight
Ġbl ack
on es
Ġf ull
Ġd ied
Ġty p
Ġw ent
Ġl ook
ut es
Ġpro t
Ġw at
Ġwh ite
ĠR ich
Ġr ad
ĠCh ar
are n
Ġact iv
Ġdo es
Ġsuccess ful
a ign
ĠR ober
Ġev ents
Ġne ed
ĠRe g
Ġs k
Ġl aw
ie f
ĠRo ad
Ġplay ers
Ġstart ed
g es
ĠR oy
ĠJ ames
Ġmod ern
Ġt en
as k
Ġm m
Ġdisc over
Ġse e
Ġfe et
Ġform ed
Ġc or
it ive
Ġpo em
t ain
Ġr ange
ant ic
Ġcon v
Ġperform ance
ĠCount y
Ġm ix
Ġh ouse
Ġst yle
ric k
Ġrel ations
Ġbuild ing
Ġb all
Ġcaus ed
Ġc at
Ġfor ce
n a
Ġa ge
Ġre ad
Ġpr im
Ġp ut
al d
st er
r ation
ĠE l
Ġv ill
Ġtr av
Ġte chn
ĠY ou
Ġc y
al th
Ġcre ated
a f
a el
ic o
ĠP al
Ġ18 9
Ġoffic ial
Ġnov el
c on
Ġ200 4
Ġsu ff
Ġ200 5
ubl ic
Ġent ire
is c
ĠT o
us h
Ġk e
og n
Ġab le
Ġpolit ical
e c
Ġf un
our n
Ġcharac ters
Ġs um
Ġg et
Ġother s
Ġrel ig
Ġco ast
ĠM ag
ĠH igh
Ġconstru ction
om b
Ġb ird
Ġbe gin
av es
ab or
in ess
ol l
Ġocc ur
r ing
Ġs on
Ġp it
Ġp ri
e pend
Ġc ert
ĠT own
ĠâĢ Ļ
d ay
y ing
Ġre d
ĠG l
ress ed
Ġon ce
amp le
Ġrem ained
ĠAn g
Ġloc ated
in ation
re st
it ing
as ing
ĠC are
Ġst e
ist ed
Ġbec om
Ġsur v
Ġprom ot
Ġbatt le
f all
Ġl ik
Ġn ational
ĠC or
Ġsc ored
Ġwork s
Ġdif fic
ĠKing dom
Ġdiffic ult
ĠH ist
ect ed
Ġprodu c
Ġme et
Ġcomple ted
ĠIs land
ĠAustral ian
Ġcamp aign
Ġtrad ition
Ġannoun ced
ĠS om
ĠC al
Ġr ank
ĠSe c
u ck
Ġst ars
Ġreg ion
at or
Ġf ig
Ġh old
Ġro ck
Ġgun s
ĠC up
ĠM or
ĠComp any
i ers
ri e
Ġpro cess
Ġlit tle
he m
Ġf av
Ġf ight
ĠRe c
Ġhigh way
Ġgo al
Ġinst ead
Ġhel p
Ġt re
iv id
ir c
Ġp red
ĠC ro
Ġv al
Ġgro w
Ġadd ed
it ted
am ent
Ġg l
rough t
Ġc ross
ĠO l
Ġle t
Ġle ast
Ġfollow ed
Ġf ac
Ġf ront
Ġre du
oun c
Ġ3 1
Ġpe ak
Ġappe ared
Ġb orn
Ġre v
qu ad
ĠK e
Ġkn ow
Ġkill ed
le et
Ġorigin ally
Ġmonth s
Ġ er
re g
Ġw ife
Ġcom ment
ell ing
ĠAr my
Ġs outhern
or se
ĠDav id
o ice
Ġc as
Ġl oss
ĠB ill
ĠGr and
Ġf if
en ced
al ity
Ġh urricane
ent h
Ġn uc
ĠH am
ri es
Ġw omen
Ġass oci
Ġ ident
Ġe astern
Ġag re
ĠMus ic
b o
Ġ2 9
ang u
Ġrelations hip
Ã ¡
Ã Ń
Ġm ass
Ġ200 3
Ġcrit ics
o ff
Ġm other
ĠS ome
Ġacc om
ĠFr ance
Ġevent ually
Ġa ward
ĠS up
ac y
Ġ4 0
Ġ18 5
Ġfeat ures
g r
Ġb us
le ct
id d
ĠO ther
Ġ201 5
f ield
Ġl ive
Ġbro ad
c om
Ġa ud
Ġcon d
Ġan im
Ġy oung
r ay
Ġt aken
Ġc ell
Ġst ri
ap p
Ġro ute
Ġrec ogn
Ġapp oin
Ġfour th
ĠT wo
Ġser ved
he re
Ġb ar
ul ly
ĠE x
Ä ģ
ot a
em y
Ġest im
Ġdam age
Ġprof ess
Ġl ack
Ġhe avy
ant ry
arl iam
i que
in al
Ġs w
Ġb ase
Ġe ither
Ġse x
Ġdec ided
ĠBatt alion
Ġa ver
os aur
ĠL ove
Ġpro ble
Ġv oc
ĠS w
ol ution
Ġcon dom
Ġcom mer
Ġbeh ind
Ġto get
ap er
az ine
Ġbelie ved
Ġtoget her
Ġm or
Ġse par
ĠRober t
ch ie
Ġsu per
Ġar g
il le
ĠG od
ough t
Ġplay ing
ount ain
Ġind ivid
ĠCare y
arliam ent
Ġv e
Ġimp ro
ign ed
iz ation
l o
Ġc reat
Ġex ample
Ġspec ial
ĠRoy al
ounc il
ĠM on
Ġal most
Ġcl os
Ġcl ose
Ġ18 8
Ġmov e
Ġac cept
em ents
Ġqu ar
Ġlead ing
hy s
ĠMe x
ĠEurope an
c ial
m ar
Ġb urn
Ġl angu
Ġas k
Ġgener ally
Ġserv ice
ĠFeder er
Ġto wards
Ġm ater
Ġro und
ach ing
Ġele ments
Ġopen ed
Ġf all
Ġh y
Ġar m
Ġs our
Ġb rought
Ġd ou
ĠS er
ur b
ĠB er
ĠBr igade
Ġweek s
Ġm iss
Ġn on
ĠIn ternational
Ġfin ished
ict ion
Ġc e
Ġc irc
ĠC r
ĠI r
ĠW ales
Ġr a
ill a
ric t
Ġla un
Ġs aw
ic ated
ce ed
Ġstud y
Ġfeat ured
Ġh ost
ĠV iet
Ġres pect
Ġair craft
i ation
Ġreg ular
ĠFl or
Ġd raw
id a
Ġen c
ir on
est s
Ġv ol
ĠWh ite
Ġgener al
Ġpoin ts
n ed
re ad
Ġre se
st on
ĠH en
et work
ĠP art
way s
Ġele ct
Ġdire cted
u ter
z e
oun ted
ĠCh ampionship
Ġcent ral
Ġprov ided
h ic
Ġa ction
ord an
Ġme as
v al
Ġf und
Ġin form
ĠA ct
ĠS y
ĠH ar
Ġ3 5
Ġup on
ĠPl ay
Ġdirect or
ograp hy
i ol
Ġw all
ĠG ame
Ġme an
Ġappear ance
e um
Ġw id
ĠF ollow
ĠJ ordan
um b
ĠE ast
Ġ18 6
Ġcol l
Ġearl ier
Ġm i
ĠF rom
od es
Ġy ard
ĠTh om
enc y
ĠP res
Ġse qu
Ġr ather
Ġk ing
Ġ201 4
Ġfl ood
Ġfem ale
ĠAtl antic
b it
in o
ir l
Ġind ust
med i
Ġcur rent
Ġtro ops
Ġlar gest
Ġvict ory
ĠFollow ing
or ing
Ġre n
Ġre ve
ĠJ ew
Ġde v
Ġsub sequ
Ġem ploy
Ġoper ations
ĠChrist ian
Ġparticular ly
ĠGeor ge
Ġmanag er
m ing
Ġa chie
Ġc ost
ĠM ad
ĠH ouse
ĠD ay
ĠHer o
c her
o id
ĠM ary
ud e
ĠRe p
Ġopen ing
Ġwant ed
st it
Ġbe g
ĠD u
Ġcon du
m b
el er
ĠR ed
ort s
Ġy ards
Ġev idence
i ber
Ġc ut
Ġre ason
ou ri
Ġr iver
Ġpro b
Ġex c
oun ter
ĠComm and
Ġnort hern
ĠFlor ida
Ġm ember
Ġst age
Ġins p
c ast
Ġl eng
ĠR ock
ĠSt reet
Ġ5 00
Ġout side
Ġcre w
Ġallow ed
Ġposs ible
Ġeng ine
o o
Ġf oc
Ġb i
Ġst ren
act ion
Ġsay ing
s el
Ġ ill
ĠM ed
ell ow
ĠOl iv
c ript
er ous
at ural
an ia
Ġh it
Ġh ours
Ġwh om
w est
Ġc ase
an ch
ent ial
Ġn omin
con om
at ors
Ġfor t
Ġde ter
Ġex ist
Ġ200 1
Ġwork ed
Ġreg ard
ĠMiss ouri
al t
ĠM ost
ĠO d
Ġpr act
Ġstren g
e al
at in
Ġm ot
am a
ĠB ra
Ġwork ing
Ġter rit
Ġresp ons
Ġleng th
c ent
nd er
ĠM y
Ġnew s
Ġre b
os ition
ĠG al
art ment
Ġdef end
bo ard
Ġmater ial
at a
Ġb ur
Ġm ach
Ġg old
Ġpo or
Ġdesign ed
Ġf ree
Ġl ove
ĠB ay
ĠP aul
Ġse em
um p
Ġr ul
Ġne g
ĠTe ch
th od
Ġst ay
ĠW al
and ing
Ġpra ised
u el
ĠC o
ĠM ark
Ġfor ced
ĠF irst
ight s
ish ing
Ġrem ains
ĠInd ian
Ġav ail
Ġfoot ball
o res
ĠB est
Ġ18 7
Ġ197 0
ĠPh il
Ġb ill
an a
Ġth ink
Ġst ation
Ġwind s
ĠMich ael
l ess
Ġt reat
Ġc op
ĠW il
Ġqu ick
Ġgo als
Ġincre ased
Ġcontr act
he ast
en ed
Ġp ast
Ġd i
ap s
Ġprevious ly
ĠÂ £
i us
v est
ic a
Ġg re
ag o
ĠE gy
Ġab ove
Ġrepl aced
ĠEgy pt
g g
u le
x as
ĠC ap
ĠB ut
ver t
Ġso on
Ġinv est
ĠRich ard
Ġc ivil
Ġl y
ĠB us
Ġv iol
ĠDes pite
Ġbus iness
Ġh on
Ġinter view
Ġm er
Ġth reat
ess ion
Ġ200 0
rib uted
Ġwrit er
ĠÂ °
Ġcommer cial
ĠHen ry
er ved
as ion
Ġm ph
ir th
ĠH ill
Ġun its
hen s
ĠCanad a
Ġestim ated
Ġc lear
ar a
ĠS an
Ġ199 0
Ġacc ount
ann ed
ĠQ ue
Ġes c
Ġquar ter
Ġs omet
Ġp ain
ĠK h
Ġclaim ed
Ġjoin ed
ĠJapan ese
Ġhig hest
u ation
Ġt rib
ut ive
Ġpl aced
Ġspec ific
Ġsur f
ĠBro wn
ĠOld ham
Ġinvol ved
w h
y e
Ġ z
Ġm ust
ĠT imes
Ġl o
Ġsign ed
Ġdisc uss
Ġsuggest ed
ĠPres ident
ĠT or
ĠV ir
Ġpart s
ĠDe p
Ġcour t
Ġw estern
om s
et t
Ġint ens
Ġ18 3
ĠOliv ier
B C
it er
Ġpro per
Ġle ague
cl us
Ġits elf
Ġpr iv
ĠCar ol
ĠViet n
l ic
Ġp ers
ĠD r
ĠW he
ĠL ater
ist ic
wo od
Ġob ject
ĠInd ia
Ġaver age
ĠMex ico
t t
Ġt aking
th let
Ġch ange
Ġsh ot
ĠAr ab
Ġavail able
ing ton
ĠS chool
ol ic
os ing
ĠG overn
Ġcom e
Ġsc ene
ĠMc C
Ġintrodu ced
Ġcy cl
v ing
Ġf ly
ĠI m
Ġwh ose
Ġrecord ing
Ġtrans port
Ġter m
Ġvill age
n ow
it a
Ġin j
Ġh ous
ĠC ong
ac hel
Ġhe av
ĠV al
Ġtrans fer
Ġbro ther
ĠThom as
b or
n es
x imately
ĠH all
ĠV ar
Ġrelig ious
ĠIr ish
re ady
Ġp en
le cted
Ġr ace
qu ar
ib ility
Ġbre ak
por ary
Ġtrav el
A F
b and
on st
Ġs low
Ġto ld
Ġd on
Ġn etwork
ac ing
ĠP ac
Ġ3 6
ĠBrit ain
Ġshow s
Ġ196 0
Ġdam aged
r ated
Ġ -
Ġn ames
ĠC ard
Ġst op
ĠH el
Ġr ail
pe cted
Ġex ec
ab it
Ġrem ov
Ġincre asing
Ġturn ed
ĠRep ublic
Ġm ult
Ġl ines
Ġg ive
ĠH urricane
ĠTh at
Ġsub ject
Ġn ine
ĠM any
ĠG reat
Ġdes pite
ĠSc ient
Ġnear ly
ĠGu itar
Ġappoin ted
Ġs ize
Ġp ie
ĠS m
ĠN ot
one y
Ġfe el
Ġcomple t
ĠZ eal
Ġcommun ity
Ġstruct ure
ĠZeal and
Ġ ?
Ġo p
Ġp hys
Ġd ate
Ġh ard
ĠS un
Ġe conom
ell ed
Ġdis s
Ġind epend
Ġsur round
Ġpass ed
Ġed uc
a ult
Ġin ternational
Ġp ur
ĠM ac
id ing
ĠN Y
ĠG old
ru ction
ĠUn ion
ron ic
Ġestab lish
Ġlit er
Ġinit ially
pec ially
Ġcert ain
he ad
Ġwith d
Ġal ready
Ġ18 4
Ġim medi
Ġgr ad
Ġgo ing
Ġsoc ial
Ġf ailed
Ġm ight
ĠA c
ĠR ou
um e
Ġde al
Ġr ap
Ġch ap
ĠCh ines
Ġdis play
Ġ6 0
Ġass ist
ann a
Ġwin ning
Ġarch ae
ĠEar ly
ĠChines e
Ġst ates
ĠE ver
Ġtr aining
hed ral
Ġ4 5
Ġsc ore
Ġacc ording
Ġcap ital
Ġocc up
Ġty pe
Ġes pecially
Ġlangu age
Ġprob ably
ĠPac ific
Ġf ood
ar ily
Ġd oc
ĠM ont
ĠE m
if f
Ġ200 2
Ġmin or
ĠCol le
Ġiss ue
Ġdeb ut
Ġfore st
f or
Ġt est
Ġw ood
Ġf ut
al ed
Ġm ale
Ġd augh
ur t
ĠP re
Ġstud io
ĠII I
t ies
Ġto w
ĠM os
Ġcon n
ĠO s
Ġinclud es
Ġsp ent
Ġarr ived
Ġord ered
ĠHist ory
ĠWhe eler
Ġ Ã
ĠA g
ĠA wards
ĠS l
ĠF ilm
ĠJ in
Ġar my
Ġen ough
Ġrem aining
Ġpartic ip
Ġvis it
ĠCanad ian
on se
Ġf ail
Ġm em
ĠC ath
Ġfor ward
ĠN avy
od ies
Ġmix ed
Ġsomet imes
at ory
Ġc ru
ul a
ĠU K
Ġcomple te
Ġappro ximately
Ġreview s
Ġrequ ired
ĠPe ter
f ect
n el
ar ies
Ġp ot
Ġl atter
ĠC reek
ay s
ĠR es
ul ated
il ities
ĠS ing
ĠR ose
ĠD on
Ġr ain
Ġab s
Ġcent er
Ġrem ain
fer ence
ĠAss oci
ĠAfric a
Ġbegin ning
h ib
ul f
ĠL aw
Ġbl ock
ĠAng el
e th
t ation
Ġl ower
ate g
Ġdec ision
Ġant i
Ġlim ited
en es
Ġd ro
st e
ch ol
Ġus ually
ĠAr t
Ġaddition al
Ġchang es
ĠReg iment
it es
Ġd en
ĠM o
ĠR achel
ĠJ er
ri an
Ġj ourn
Ġbet ter
Ġind ic
Ġpres ident
Ġrun ning
Ġresp onse
ĠVir gin
it z
ĠS oc
Ġk ey
Ġpos itive
Ġend ed
Ġlar ger
Ġstud ents
ĠSup er
Ġw oman
Ġm ention
ĠN ort
Ġde ad
Ġsupport ed
Ġmag azine
quad ron
Ġto uch
ĠA ward
ly mp
ĠP enn
ĠO lymp
Ġnot es
ĠSt ud
ric s
ĠSc ott
Ġpol ice
Ġdep ression
Ġpress ure
Ġw ide
Ġc al
av al
ĠV er
Ġpo et
ĠChar les
Ġbird s
g l
t r
ed y
ent y
Ġsh own
Ġ199 5
Ġqu est
Ġprev ent
ĠBill board
as es
ap h
ak er
Ġsp ace
Ġrel ated
Ġfut ure
b ack
Ġ3 8
Ġ198 0
Ġprov ide
Ġdefe ated
Ġfif th
g o
r d
u f
Ġf ace
ar m
Ġh om
ĠT V
ĠT om
st ant
ĠP ri
um ents
Ġdiscover ed
i h
le g
ĠT er
ow l
Ġst aff
ĠF ort
Ġsy n
Ġfeat ure
Ġtem per
ĠRou te
m en
s s
Ġan c
Ġ8 0
Ġpri or
Ġbecom ing
c o
u als
Ġa ut
Ġb irth
Ġd oll
id s
ir t
and s
if a
m itted
Ġc m
ĠW estern
Ġse ction
ĠO ff
ri age
Ġex am
Ġsmall er
Ġfre qu
g ely
in ct
on c
Ġin tended
ĠA pp
id ents
ber t
ab y
Ġsc reen
Ġdis p
Ġgroup s
Ġide a
ĠScient ology
ar ing
Ġcon clud
ĠIn f
ish op
Ġper cent
Ġthem sel
Ġmost ly
ĠFr ank
Ġmet res
ĠHa ifa
ste in
Ġthemsel ves
a ut
n ey
or ial
Ġf leet
an ies
ĠT ur
ĠH ot
ag on
qu are
ĠSt ar
Ġ201 6
ĠY ear
Ġmin utes
Ġcapt ured
Ġrefer red
Ġlik ely
Ġrese arch
Ġsurf ace
Ġw ord
Ġf ir
en on
Ġd omin
ĠS ince
ch ing
ĠL a
if orn
Ġoff ice
Ġlar gely
Ġmus ical
rie f
ĠCro at
Ġprofess ional
Ġproble ms
ĠAssoci ation
d own
Ġf low
ĠP arliament
ĠF I
ĠL ight
ra el
Ġ7 5
Ġent ered
Ġmed ia
e e
g ar
Ġs em
Ġm akes
Ġcont em
Ġmov ing
Ġam ount
Ġbroad cast
n ers
Ġc er
Ġd er
ĠS ov
om m
Ġle arn
Ġcont ains
Ġem b
Ġconstru cted
ĠPort ug
Ġrad io
quar ters
g u
u k
Ã ³
ou l
Ġl ink
ĠO per
se c
Ġen s
Ġ199 9
Ġke ep
Ġsum mer
ĠCal iforn
b ers
is es
Ġp air
Ġm oney
ac ted
ĠR uss
ĠJ e
pp ed
pl es
Ġgu itar
Ġeffect s
Ġce le
i os
t o
v ille
er gy
it te
is ions
an ish
Ġn ature
ĠC ouncil
Ġst ories
ĠH ow
ce an
Ġse a
Ġv oice
Ġgr ant
ĠIs rael
Ġ195 0
Ġmajor ity
Ġlist ed
Ġobs erv
ĠEar th
Ġrank ed
ĠJew ish
u z
Ġs elf
Ġp aren
Ġl ay
Ġad op
Ġcre ate
Ġarr ang
Ġexper ience
ĠGal vest
ĠGalvest on
d en
u ing
ed ing
ĠM et
ĠW ood
ĠO tt
Ġle aving
Ġcrit ical
Ġth us
ĠCh ic
Ġprim ary
Ġfav or
i res
l or
Ġs chol
Ġl ived
ur ity
ow ler
Ġal ways
ĠAn other
Ġcons ist
Ġloc ation
yl v
min ist
Ġgod s
Ġagre ed
Ġly rics
i est
re ak
Ġb rief
Ġp ay
Ġl ab
im ate
ĠF in
ĠG o
av en
Ġr are
te en
Ġcomp l
Ġfilm s
Ġrun s
Ġoffic ers
Ġcontro ll
Ġlaun ched
ĠCaliforn ia
p ing
p ool
t ar
Ġc oin
ĠS erv
ĠC amp
ĠB ey
Ġcol on
Ġset t
Ġteam s
Ġcult ure
Ġfriend s
osaur us
Ġquick ly
ĠCath olic
ĠH ol
ch ange
Ġme ant
Ġepis odes
ĠBr ad
Ġmin ute
hest er
Ġprop osed
Ġoccur red
o or
p an
r or
ĠA le
ur g
ĠI f
art s
ĠU p
Ġwhe ther
ok e
ke y
Ġpre m
Ġatt r
Ġass igned
Ġacc ess
Ġset tle
Ġincre ase
Ġequ ip
k an
z y
Ġs at
at ively
Ġf ans
Ġp ian
ĠS aint
Ġv ot
ill ery
Ġtr aff
Ġad ap
Ġform s
ific ation
Ġappe ars
Ġdefe at
Ġchang ed
Ġdestroy ed
Ġtraff ic
Ġt ons
ĠM r
im um
ĠN ic
ĠN ix
ab ility
Ġ4 00
Ġsc ript
Ġcomm ission
Ġear th
Ġlong er
osp ital
ĠCent ral
Ġmean ing
ĠChic ago
r up
as y
ĠR oss
Ġj ob
Ġ7 0
Ġthem e
Ġnum bers
Ġ194 0
Ġconc ern
ĠBatt le
Ġsold iers
Ġcompet ition
s is
Ġm om
Ġre ach
ad ed
ĠH aw
and on
Ġle ave
Ġtr ade
ru it
Ġbo und
ĠAl ice
ve y
Ġcar ried
ony m
Ġaward ed
Ġfoc us
ĠNort hern
Ġcele br
Ġh op
Ġg irl
ĠL atin
und red
Ġ3 3
Ġ199 8
ĠEn ter
ĠQ u
Ġcondu cted
Ġpriv ate
Ġdaugh ter
Ġs il
Ġc red
Ġn atural
ĠL ou
Ġde ep
ĠO ver
ber y
Ġrecord s
Ġunder st
Ġsubsequ ently
Ġnews p
Ġc ause
Ġto urn
ĠM ey
Ġan aly
Ġr an
ort un
Ġpl ans
Ġ3 00
Ġun c
ĠV illa
ĠSc ot
Ġconsid er
Ġ193 0
Ġfight ing
o ir
Ġt akes
it ect
Ġb ord
ar i
Ġd ed
ĠM er
iv a
ĠD j
Ġsh oot
ĠAl kan
Ġover all
Ġ199 3
Ġinflu ence
ĠPol ish
ĠSec ond
Ġcomment ed
Ġindust ry
Ġ +
Ġc le
Ġb omb
ĠM a
us band
ĠP at
ĠF ore
ĠL iver
ru ct
ĠIt al
Ġser ious
Ġfin ally
Ġele ction
Ġbr ing
Ġconc ert
Ġask ed
ĠNix on
ĠLiver pool
t ained
ĠT ay
Ġe mer
ĠF orm
Ġde g
Ġk il
Ġ3 2
Ġcomp ared
Ġwho le
Ġim m
Ġme thod
Ġend ing
Ġgre ater
h ou
o ly
s en
Ġd one
ĠB C
ĠG ro
Ġun able
ĠIt s
ĠSe ver
ĠTe xas
ĠChrist m
Ġmar ried
Ġposition s
Ġdou ble
stit ute
w ell
in ent
Ġo ur
Ġin n
an ced
ĠT re
ĠT our
ac hes
ĠL ady
ers et
Ġup per
Ġcan n
Ġbuild ings
ĠSom erset
g ian
Ġt ar
Ġs us
Ġc he
Ġd ram
ĠT ropical
Ġth ick
ĠM art
Ġg ot
um n
ill s
Ġy et
Ġcent re
Ġear ned
Ġfl ight
ank s
ĠMos ley
un t
Ġc ounter
Ġb ig
Ġl iving
ĠC our
ĠM il
ĠTh ree
Ġpart y
Ġen v
ail y
Ġ199 6
Ġ9 0
Ġac qu
Ġperson al
Ġstand ard
Ġiss ued
Ġnuc le
Ġbeg ins
ĠBus ch
Ġrap id
g en
Ġp urch
ĠT enn
Ġth row
Ġl og
ĠM ount
Ġk ind
ĠSt r
Ġbo x
Ġter ms
Ġdirect ly
Ġmark ed
Ġmark et
itte e
d le
Ġ ult
ĠS k
am er
ĠB el
ul ted
ĠL ake
Ġhe ro
Ġhe alth
Ġsc enes
ail s
Ġmov ement
Ġbook s
Ġmar riage
ĠSp anish
Ġstat us
ĠTay lor
ĠChristm as
Ġd om
ĠB ack
ĠF owler
Ġcon cept
Ġhel ped
Ġport ray
Ġsl ight
ĠSever al
Ġ und
Ġt ell
Ġb atter
ĠJ o
um ed
ist ics
Ġpl anned
Ġsc hed
Ġstart ing
Ġattack s
Ġschool s
Ġexper i
ĠAfric an
Ġsuff ered
Ġtradition al
Ġinform ation
Ġo pt
it or
is er
Ġd ig
Ġd ark
Ġg iving
ĠP it
all ed
ĠSt orm
Ġj ud
Ġspe ed
Ġperform ances
Ġfig ure
Ġassoci ated
Ġinsp ired
ĠInf antry
A S
m a
Ġ x
it ude
Ġd ivision
Ġh usband
ĠT w
ĠS am
ĠJ ane
Ġcl osed
Ġab andon
ath an
ĠAr ch
Ġlead ers
emb ly
Ġpresent ed
Ġcondom s
Ġsour ce
ĠPart y
Ġmach ine
ĠSov iet
a wn
Ġm ur
ĠF oot
Ġv ia
Ġpres ence
Ġgreat est
Ġinit ial
ĠSer ies
Ġra ised
Ġdeter min
I I
i ant
m ium
Ġw ound
ĠC ross
ĠB ob
Ġex cept
Ġun it
Ġro om
ĠV ict
Ġus es
Ġwrit ers
Ġcontin ue
Ġnear by
augh t
ĠPar is
ĠCarol ina
Ġeduc ation
Ġdoc ument
ĠRose bery
ĠVirgin ia
Ã³ n
ylv ania
k s
it ation
Ġn orm
ĠB oy
ĠL ive
Ġpl ot
ra f
Ġun s
Ġdis m
Ġim age
iam i
Ġcolle ction
Ġcover ed
Ġcycl one
ĠPenn s
c ing
or ation
Ġh undred
Ġre in
ol k
ĠB en
ĠJ am
ĠJ ust
Ġch all
Ġcomp osed
Ġwe ap
ĠAn t
Ġcomple x
Ġann ual
Ġserv ices
inc ip
ĠQue en
ĠColle ge
er ve
at re
Ġb odies
Ġre ally
ĠC er
ĠR ob
ew ay
Ġex tended
Ġ199 7
Ġnum erous
Ġpol ic
Ġcommand er
Ġcat hedral
Ġproduc er
Ġfig ures
Ġterrit ory
onc Ã©
ĠBey oncÃ©
b ar
j oy
k en
Ġt or
Ġf ell
Ġp ark
Ġp ath
ic ted
Ġth ings
ĠS ix
ĠM iami
et ic
ag ing
Ġde pend
ĠO pen
ess a
Ġen joy
ĠGerman y
ĠMus eum
Ġprote ins
Ġvoc als
r ical
er be
and ed
ĠN ations
Ġse v
if t
Ġ3 9
ous ly
Ġpre p
Ġsome thing
Ġoper ation
ĠCl ub
Ġwat ers
an z
an as
ĠThe ir
est ival
Ġcomp anies
ĠTh rough
Ġhigh ly
Ġattack ed
Ġattempt s
Ġrequ est
Ġmor ning
Ġstreng th
Ġinvest ig
ĠServ ice
n y
Ġt alk
Ġre ject
ad mium
ĠI ll
Ġas pect
and er
ĠIn n
Ġdis e
Ġfin anc
Ġtrans l
Ġmet al
Ġconf ir
ĠPr ince
Ġer a
Ġindivid ual
Ġimmedi ately
ĠPenns ylvania
l im
Ġp il
ĠS ur
ĠS quadron
ad emy
ur ies
Ġst one
ĠG ames
ĠIn ter
ap o
Ġne cess
Ġinter se
Ġinc or
Ġart ist
Ġdist ance
Ġallow ing
Ġpower ful
Ġsit uation
Ġnuc lear
Ġremov ed
Ġpian o
N A
m on
p ly
v ement
Ġh abit
ol f
ĠH um
ĠW ater
Ġse lected
ip p
Ġrec over
land s
Ġoff ered
ib ly
Ġstud ies
Ġart illery
Ġins ide
Ġadv ance
Ġvar iety
ĠJack son
Ġneed ed
Ġpeak ed
ĠScot land
T V
Ġh ot
Ġn ative
ch an
Ġat tend
ĠJ ose
Ġr ate
ĠU nder
Ġ4 2
Ġ18 2
Ġme ans
Ġ199 1
ĠChr is
Ġcount ries
Ġhead quarters
Ġattempt ed
ĠSom al
Ġcop ies
p ole
Ġs af
ro l
ĠA I
ad ium
im ony
et her
ĠL os
Ġse arch
ri a
ant a
Ġk ick
ĠCh ina
Ġsc oring
rib ution
Ġpr incip
Ġco ach
Ġtrack s
Ġhand s
Ġarch itect
Ġcas ual
Ġrespect ively
Ġrespons ible
Ġpur p
tr ack
e en
Ġp urs
Ġm ole
ĠM ajor
Ġr ule
ĠO ut
Ġ4 7
Ġsy mb
Ġdescrib es
Ġimp act
Ġadv ant
Ġappear ances
ĠAnd erson
ĠBo th
Ġgen us
Ġhig her
Ġwid ely
ĠDep artment
Ġtouch down
c er
h a
ĠC rit
ce nd
ĠD an
and id
ĠN or
Ġte xt
ang er
Ġsp ir
ors hip
Ġ199 2
Ġset s
Ġcontro vers
Ġcour se
Ġobs erved
ĠCor ps
Ġsex ual
ĠBra at
Ġheav ily
ĠFoot ball
o f
re y
re me
Ġp ick
ou d
ĠA re
Ġad ult
Ġ4 4
port s
Ġ199 4
Ġrel ief
Ġam b
Ġbel ow
Ġph ot
Ġmid dle
Ġmeet ing
Ġredu ced
ĠAle x
Ġx enon
in y
Ġin tern
ic ient
Ġan g
ĠL i
ĠL ike
Ġpl at
Ġad minist
Ġres ulted
Ġbo y
Ġsec ret
Ġact ive
Ġsing er
Ġmat ches
Ġsix th
ĠMin nes
rick et
Ġaud ience
Ġconclud ed
ĠMinnes ota
a en
c ar
g a
l ict
s hip
Ġs al
ĠT em
ĠT ime
il s
ak apo
Ġtr ue
Ġland s
ĠFr anc
ink el
Ġactiv ity
Ġactiv ities
Ġcomplet ely
ĠVict or
Ġ ess
is her
ĠS outhern
ct s
Ġst ating
ĠD el
se nd
Ġman aged
Ġopp ortun
ĠCent er
ĠTown send
Ġreve aled
Ġcontem porary
l ike
at ives
Ġf ill
Ġh our
em s
oc r
ĠSe a
Ġqu ality
Ġgr aph
ĠCol on
Ġref used
Ġlevel s
Ġdecl ared
Ġtre es
Ġsepar ate
ĠItal ian
c ause
i ated
Ġb ad
ic ation
ĠS ir
ĠM idd
ĠF inkel
ĠL ong
olog ist
Ġbl ue
ann el
Ġconst it
ĠBe cause
row d
ĠFor ce
Ġdr um
ĠWal pole
Ġquest ion
ĠHaw ai
ĠMey erbe
ĠFinkel stein
ĠMeyerbe er
M S
i qu
in ing
Ġto day
le ment
ĠT essa
ĠS ol
if y
ap ed
Ġun iversity
per or
Ġrec ent
Ġshe ll
ath us
Ġbl ood
Ġback ground
ĠSh iva
Ġfeat uring
Ġinst it
Ġcar ry
Ġmod el
Ġappro ach
Ġcontr ast
Ġhistor ical
Ġtyp ically
Ġparen ts
a res
Ġ iron
Ġa ctions
Ġp aper
ĠC ast
Ġr is
op h
Ġex pected
Ġ5 1
ĠY ue
Ġ7 6
Ġdesc ript
Ġiss ues
Ġcond itions
Ġmult ip
ĠSm ith
ĠSoc iety
ĠOtt oman
ĠNic ole
u ff
Ġt ax
he w
Ġw ing
al ty
ic an
Ġre ception
ĠM ill
ĠB et
ut ch
ĠW ild
ĠL it
Ġr hy
Ġcomp os
ra wn
Ġplay s
Ġatt ention
Ġwe aken
oin t
Ġpe ace
Ġent r
Ġmain ly
Ġeff orts
Ġbecom es
Ġhous es
for ce
c le
Ġw it
Ġp ow
Ġn ation
ĠB alt
ĠJ im
ĠE mp
Ġ3 7
Ġres idents
Ġoff er
ound s
Ġwe bs
Ġspec im
Ġsub s
Ġgr and
Ġem ot
Ġbro wn
erv ation
Ġstru gg
sh ire
ĠHigh way
Ġve hic
ĠBraat hens
g ing
r ate
Ġs ense
is l
Ġl ot
Ġn arr
ad o
ĠD am
Ġcon sec
Ġact ually
Ġcall ing
Ġtit les
Ġmag n
Ġsound track
ĠHa it
uf act
b ed
w are
Ġt ask
he t
ed s
Ġh air
ĠD ire
ĠN es
ell ig
Ġro y
Ġro les
Ġseason s
Ġwrit e
ĠJohn son
ĠBl ue
ĠAd am
Ġstru ck
Ġdem onst
Ġaccept ed
Ġachie ved
Ġcann ot
ĠCour t
ĠIll ino
u ated
Ġa thlet
Ġw ear
Ġb ene
ic ip
Ġl if
im in
ĠD em
ĠCh arl
Ġrec omm
Ġres c
Ġinst r
Ġfam il
ues e
Ġresp ond
Ġprote in
Ġview ers
aren t
Ġvoc al
Ġpract ice
ĠVietn am
ĠPortug uese
h ood
on ents
Ġc orn
Ġc rowd
Ġf iction
Ġth ous
Ġbe at
ĠF ey
ain e
ĠJ ul
ri al
ap pen
Ġ4 8
ĠTh under
Ġ18 1
Ġsc ient
Ġele v
Ġav oid
Ġprim arily
Ġsequ ence
ĠGovern ment
ĠAc ademy
Ġc hem
it ual
ĠT y
ĠT od
Ġl b
ĠC ivil
ĠG ar
ĠO f
ĠE r
ess ions
Ġ5 2
Ġbo ard
Ġsp read
ĠRe v
Ġele cted
Ġ198 6
ven ue
Ġinf antry
Ġown ed
ĠCol umb
Ġtw enty
Ġcomb at
Ġtyp es
Ġslight ly
d ing
h old
w rit
Ġs ales
Ġs ister
an es
Ġm ax
Ġn in
ac her
ĠR am
Ġal tern
ul ations
ĠL and
Ġpl ant
ĠK r
Ġsc ale
Ġoff ensive
Ġsp ort
ĠNew s
Ġinc hes
ĠEng ine
Ġ15 0
Ġexp ressed
Ġconc ent
ĠSp ain
Ġright s
Ġnort heast
Ġaff ected
ĠCap tain
Ġw ords
Ġh orse
ĠM og
ĠH orse
ul pt
est ic
Ġ3 4
Ġro ugh
Ġ18 0
Ġsc ulpt
Ġne igh
ĠRe view
Ġshow ed
Ġoffic er
ah a
ograp h
Äģ d
ceed ed
cript ion
ĠLou is
ĠGro up
b ury
u it
v in
Ġs out
Ġs pl
Ġw alk
Ġp up
ro ad
ĠT int
ĠM al
us hed
ĠW els
ĠG reen
Ġsu c
Ġab ility
ĠY oung
Ġthem es
led ge
ĠZ hou
Ġcount y
Ġbatt alion
Ġwind ow
Ġcomb ined
ĠSec ret
ĠVar anas
ĠLit tle
ĠEmp ire
ĠTint in
ĠWels h
ĠVaranas i
F A
h ouse
l ight
n h
Ġf ruit
ar row
Ġp un
ing u
Ġre ar
Ġsu st
ĠTh ough
Ġpre c
Ġtit led
Ġprog ress
ĠAnd rew
Ġcult ural
bit t
onym ous
Ġincor por
Ġcasual ties
ĠNes bitt
B A
m un
Ġs quare
Ġm ountain
ĠM anc
ĠB urn
ĠD ist
em ic
um ber
Ġrem ark
Ġprodu ce
Ġcontin ues
Ġsay s
Ġearl iest
ĠEv a
iron ment
Ġexc av
ĠOd aen
ĠAngel es
Ġmention ed
Ġanc ient
Ġnewsp aper
Ġmur der
ĠCer es
Ġrecomm end
ĠOdaen athus
M ont
e ter
Ġf ully
Ġin h
Ġd yn
Ġh ol
ĠT urn
ĠS arn
ĠS pec
om er
ĠB ook
ĠH ome
et ts
os es
Ġch ampionship
Ġman ufact
Ġact or
Ġart ists
Ġdist inct
ĠCon f
ĠComm un
ped o
ĠTr ans
Ġresult ing
Ġ192 0
Ġauthor ities
Ġinflu enced
ĠRec ords
Ġflood ing
ĠDu Mont
ĠOlymp ic
Ġcer em
Ġadop ted
Ġdise ase
ĠSarn ia
e v
g al
en ant
Ġm ission
ut ions
ĠR ad
Ġreport s
ĠAd d
ĠOr igin
Ġbas is
ĠPer Ã³n
Ġrepresent ed
wh ile
Ġadvant age
ĠIllino is
b ird
n own
Ġto ward
Ġh ar
Ġre pe
ĠB ol
Ġal one
ĠJ os
ĠO m
Ġcom ing
ov ic
ĠAr g
Ġass ault
Ġapp arent
Ġdef ense
Ġqu al
Ġgr ass
ĠCon t
hel m
Ġlet ters
Ġtow er
ĠApp le
Ġtourn ament
ĠThunder bird
ĠMog ad
ĠManc hester
Ġs ides
nd s
or us
Ġre ign
Ġre act
ĠS R
ĠS al
im b
ĠF red
ĠW ash
Ġex hib
Ġk akapo
Ġar med
Ġwork ers
Ġrel atively
ĠDe f
ock s
Ġfound ed
Ġbr idge
Ġalong side
Ġocc asion
Ġnorth west
Ġenc our
Ġwithd raw
Ġtor pedo
ĠWash ington
l in
m ir
Ġc admium
Ġf a
ro om
Ġl osing
Ġn est
Ġn arrow
ĠP ost
ĠF our
ĠD ou
Ġat tended
ĠO cean
Ġy ellow
Ġcont ain
Ġme chan
Ġ198 8
Ġdire ction
Ġter min
Ġoffic ially
Ġed ition
Ġtri ed
Ġorgan ized
Ġcapt ure
Ġleg al
Ġindivid uals
Ġill ust
Ġtransfer red
Ġm ess
Ġm ile
ĠA v
ĠW ay
os en
Ġpro ved
ab ama
ell er
og ue
Ġper man
ĠAl abama
ens ion
Ġact ing
Ġeff ort
ĠCl ark
ĠPro du
Ġrequ ire
Ġofficial s
Ġmeas ure
Ġphys ical
Ġsurround ing
Ġded icated
ĠMidd le
ĠOm aha
A A
m es
Ġc andid
Ġd u
Ġth ir
Ġl ives
Ġe ye
ĠM D
Ġst arl
us ion
Ġr ang
ric ult
Ġen ergy
Ġpr in
Ġdo ing
pr ise
Ġem ph
Ġed ge
Ġext r
Ġconf lict
Ġcou ple
Ġrain fall
i en
r ight
w en
ad ing
ad el
im ore
ish u
Ġpre par
ĠRe ception
Ġfollow s
Ġdesign ated
ĠMe an
Ġshort ly
Ġposs ibly
Ġpat tern
Ġdiv ided
Ġintens ity
ĠHel ms
Ġfinanc ial
ĠMogad ishu
m ond
Ġ ir
Ġf aced
Ġp aid
Ġh un
ĠS ch
ol s
ĠH al
ĠF am
ĠF ant
ĠL ord
Ġv o
Ġv en
Ġsh ape
Ġy our
Ġy oun
Ġ4 9
Ġim ages
Ġ6 5
Ġalbum s
Ġ196 4
Ġsim ply
Ġwin ter
Ġold er
ĠEd ward
Ġsoc iety
Ġsour ces
ĠWil helm
Ġdetermin ed
ĠInn is
Ġmax imum
l ied
m it
r ane
Ġa id
Ġp le
ĠC ons
Ġon to
ĠM ax
ĠB re
Ġst ep
ĠN C
Ġr at
Ġr aid
Ġcom edy
Ġch ief
Ġpl aces
ĠK ent
ors es
ug by
ĠInd epend
Ġbro ken
Ġport ion
Ġbeh av
ĠAss embly
Ġke pt
Ġfun ction
ĠHist or
Ġpie ce
Ġdiss ip
Ġpot ential
Ġjourn al
uz z
Ġbord er
ĠJose ph
Ġemph as
on na
Ġs ac
Ġc ities
ent al
ig an
us e
ĠF leet
ĠJ up
ĠJ ourn
Ġun ivers
Ġad vert
Ġchar ge
Ġmov ie
ĠComm ission
Ġprote ct
Ġarg ued
ĠMcC all
S tation
r id
Ġw ild
Ġf eder
Ġf olk
Ġm ind
Ġth r
ad a
Ġg rew
ĠR ih
ĠF er
Ġhe art
op er
Ġcont ent
ĠV an
Ġcol or
Ġdep th
Ġsuggest s
Ġauthor ity
Ġsit es
Ġproject s
Ġmanag ement
ĠHam els
ĠPlay Station
Ġdom estic
ĠBalt imore
ĠArg ent
ĠRih anna
Ġw or
Ġw ave
ed ar
at ops
Ġp aint
ro wn
Ġd ut
le ction
il ed
ac ement
Ġg ained
ĠB owl
ĠR h
ĠD est
ĠG reek
Ġro ll
Ġsc ience
Ġwe ak
Ġ6 4
Ġpr ison
Ġmus eum
Ġbel ong
Ġdep art
ĠComm on
Ġleg isl
Ġcaus ing
Ġtw ice
Ġcritic ized
Ġstruct ures
Ġlet ter
ĠVal ley
Ġtar get
Ġult imately
Ġsched ul
Ġentr ance
Ġwebs ite
Ġroy al
e x
j e
k are
l ies
Ġ unk
ed kare
Ġf it
Ġf ung
en ing
an i
ĠT ru
ent ed
ent ure
ĠC ra
Ġv ess
Ġsh are
Ġcont aining
Ġne ut
Ġform ation
Ġext ra
Ġresult s
ĠWe ek
Ġdeb uted
ĠPal est
Ġdou b
Ġhom es
ĠDj edkare
ĠJup iter
m ission
w ide
Ġh ospital
ĠM ass
ĠW rit
ĠG all
Ġde ploy
Ġch osen
Ġk g
ast y
cl aim
ĠV en
Ġag g
Ġdef ence
Ġdef ensive
Ġ194 7
Ġart ic
ĠCon stant
Ġbatt les
Ġfore ign
ĠTor res
Ġop in
Ġlab el
V D
b our
Ġc ore
Ġin ch
Ġm outh
Ġm aster
ĠS en
ĠS ar
ĠH ib
ĠH orn
ĠD VD
ĠN ight
ĠL is
ĠL ew
um es
ĠE astern
res h
ack s
ĠK ore
Ġsec urity
Ġbr igade
Ġprom inent
Ġstand ing
Ġrefer ence
Ġfr ag
Ġgrow ing
Ġanim al
Ġbur ied
Ġgrant ed
Ġabandon ed
Ġdism iss
Ġreject ed
Ġconsec utive
in ary
ĠS il
ĠF A
ĠOn ce
ĠAn n
Ġcol ony
Ġthere fore
Ġ194 1
Ġvis ited
Ġorgan ization
Ġclaim s
Ġtem ple
Ġord ers
Ġcell s
wh ite
ĠScott ish
ĠFore st
Ġris k
ĠApple white
m et
Ġ rom
nd ing
Ġm el
ro ll
st one
ĠL o
Ġse ek
ian a
ĠCh ap
Ġj ump
Ġsp ot
Ġrem ix
Ġreg ions
Ġsecond s
ph ia
Ġsing les
Ġ198 7
ĠSh ort
Ġstud ent
Ġmin er
Ġbro ke
ĠAir port
Ġcond ition
Ġindepend ent
Ġwound ed
adel phia
M L
m ark
Ġa head
Ġf ix
is ters
ĠT ri
Ġre aching
ĠA p
ĠC am
ĠB ig
ĠP op
ĠIn stitute
ĠCh ild
Ġint ellig
Ġad j
Ġen emy
ĠAt t
Ġent er
ert ain
anc y
Ġvers ions
Ġcolle ct
Ġplan et
Ġsol o
Ġcas es
Ġident ified
Ġcoll abor
Ġnomin ated
Ġseem s
ĠEgypt ian
Ġtemper ature
Ġequip ment
Ġmom ent
ĠBack ground
e ch
Ġa ired
Ġb ott
Ġm ales
ĠS AF
ĠB BC
im s
ĠF urther
ĠD ue
Ġcon ver
Ġhe ight
ĠU s
Ġun ique
Ġ5 3
Ġnew ly
Ġele ment
Ġ12 0
Ġ198 4
Ġ198 9
Ġ197 2
Ġreturn ing
Ġsupport ing
ĠBe fore
Ġcamp us
Ġopp osed
Ġknow ledge
Ġproble m
ĠCroat ia
ĠSAF E
u ous
Ġt ur
re te
Ġw a
Ġf le
Ġf ear
Ġf ired
Ġd ress
il es
ĠM ike
ĠB ir
et y
ĠG ood
ĠL ock
ĠE ach
oc ated
ast ic
Ġte acher
Ġwe ight
Ġinter p
Ġ198 5
ĠInd ust
Ġoper ated
Ġlook ing
Ġincreasing ly
Ġliter ature
Ġconn ect
ĠOper ation
Ġanaly sis
Ġunk nown
b on
i ate
Ġt un
Ġthe ory
Ġc ouncil
as ters
ig g
ĠH MS
ĠP o
ĠF ield
ĠL ar
Ġhe re
Ġsh r
Ġcomp r
Ġwrit es
Ġdef in
Ġbelie ve
Ġexpl ained
Ġbre eding
Ġcommon ly
ĠBar row
Ġhistor ian
Ġide as
Ġburn s
ĠCard iff
Ġsettle ment
Ġenv ironment
Ġconfir med
m osp
Ġo x
Ġo il
at ch
or ter
Ġc ricket
Ġb ud
ĠS um
ĠM ore
Ġst ations
ĠP ublic
ĠR A
Ġal ter
Ġat mosp
ĠO x
ort al
Ġar rest
Ġher self
Ġper fect
Ġ5 5
ib r
ĠOn ly
Ġcons isted
hip s
Ġsing ing
Ġ194 4
Ġadv anced
Ġsystem s
Ġph il
Ġfem ales
ĠMich igan
ĠPhil adelphia
Ġproper ty
Ġeconom ic
Ġschol ars
Ġcontroll ed
ĠEnter tain
Ġmole c
y es
Ġf ast
Ġf ox
al ions
Ġp arliament
Ġm ount
Ġh appen
ĠM ounted
ĠN orm
ĠN ever
ĠJ on
Ġde ities
od on
ĠE ven
Ġmain tained
Ġgrow th
ĠKe ats
app y
ĠSw ed
Ġdev ot
Ġstreng t
Ġpie ces
Ġfail ure
Ġdro pped
Ġkil omet
ĠMean while
t av
Ġa wards
Ġs ens
is ation
Ġp an
ĠB on
ĠD utch
ist ry
Ġcomp ar
ĠAl bum
ĠAr m
Ġfilm ed
Ġcre ation
Ġland fall
ĠCar l
ĠCl ass
Ġkill ing
Ġfre eway
ĠWilliam s
Ġpit ched
ĠMor r
Ġstri ke
Ġhon or
Ġfly ing
Ġinj ury
ĠAdd ition
al ing
Ġm ounted
Ġh orses
ĠB an
Ġcon ne
ĠN athan
ag an
ĠJ ur
igh th
Ġex tend
Ġtr y
ie val
Ġ4 3
Ġres emb
Ġbo ats
ĠIt aly
Ġser ve
Ġspe ak
Ġ6 00
Ġret ired
Ġact ress
air s
Ġexp ed
ĠAnd y
Ġbelie f
Ġhum ans
ĠSte ve
Ġpromot ed
Ġval ue
urb an
ĠCong ress
ĠPre m
Ġrapid ly
Ġbatter y
Ġweap ons
l ers
s w
Ġs elling
Ġb id
Ġp ict
st ream
Ġst ra
Ġ5 6
Ġim ag
Ġwe ather
ĠAmeric ans
Ġinv asion
ĠCon ference
Ġpass es
Ġpass ing
Ġpublic ation
ĠMin ister
ĠAb u
Ġsignificant ly
Ġcou gar
Ġrelig ion
Ġpromot ion
Ġrecogn ized
Ġcreat ing
Ġconn ected
Ġsem i
Ġprem i
Ġprep ared
Ġdescript ion
Ġmultip le
Ġfeder al
Ġstra ight
L e
h aps
m ore
p ass
u ge
Ġa st
Ġs ought
it ch
Ġb ats
as ure
Ġd ata
ou red
ĠS or
ot y
ĠF inal
ĠG ord
Ġch ose
ĠV ideo
amp ion
Ġcol umn
ĠDe velop
Ġlead er
Ġfam ous
Ġmat ter
Ġrest aur
ĠGu ard
Ġdel iver
Ġpopular ity
arr ison
Ġprot est
Ġproduc ers
Ġvol ume
Ġwall s
Ġregard ed
Ġsev enth
Ġaspect s
Ġnecess ary
Ġschedul ed
g n
u ild
Ġs and
Ġc ust
an o
Ġre action
Ġl aid
ĠM att
ĠP et
ĠR og
Ġcon vers
ers ey
ag ement
Ġr ise
ell a
Ġ4 6
Ġag ricult
Ġspe ct
ick s
ames e
Ġfl ank
Ġ198 1
Ġstart s
Ġland ing
Ġgu est
hel ess
Ġaccom pan
ĠVietn amese
ĠJe ff
Ġnucle us
Ġsust ained
e er
Ġt im
Ġt act
Ġf ought
is y
Ġd ated
ĠC amb
Ġbe aut
Ġg e
ĠB ost
ĠH art
ĠH aven
ul ate
ĠG ulf
Ġr ival
ĠSt an
ie ut
iz ing
ograp her
Ġdel ay
ĠAm ong
Ġcast le
Ġstri k
Ġcurrent ly
Ġemploy ed
clus ion
Ġfamil ies
ĠThunderbird s
Ġphil os
ĠCamb od
c he
c rib
e es
he astern
in ity
Ġo uter
ĠA thlet
om y
ad s
ĠL ine
Ġr ating
Ġv irt
ap t
ap pe
Ġtr ain
Ġcont ained
Ġar ms
Ġ4 1
ans ion
Ġ7 00
Ġunder ground
Ġend s
Ġsupp ly
Ġ193 9
Ġprom pt
Ġdr ive
Ġtri al
Ġph ase
Ġfac ilities
ĠSl am
Ġfrequ ently
Ġbud get
R A
l ines
r ain
Ġt ree
Ġs ave
it able
Ġf ict
Ġb ank
Ġd rop
Ġre form
ĠS at
ĠC he
ir ing
ĠF estival
ĠN az
ĠG i
ĠG irl
ĠL es
ĠO p
ĠU l
Ġcont act
Ġcont ributed
Ġun us
Ġsp ring
ĠAn th
Ġact ors
orn ey
Ġ194 2
ins ula
Ġallow s
Ġref lect
Ġcolle cted
ĠPh o
Ġfind s
Ġneg ative
Ġexec utive
rup t
Ġsil ver
Ġcle an
Ġdeg ree
ĠRev olution
Ġbott om
ĠOx ford
ĠGord on
y ond
on ent
Ġs en
Ġc ited
Ġf resh
st anding
am ic
Ġbe yond
ol ved
ĠF riend
ĠD en
ĠN BA
av ed
ĠE nd
ill o
Ġsh aped
Ġcomp uter
ang ers
ĠSh a
Ġoper a
Ġ13 0
Ġ191 8
ĠUS A
Ġeffect ive
Ġentire ly
Ġanim als
Ġimpro ved
Ġsubsequ ent
ĠCo ast
ĠStud ios
ĠBet ween
ĠTurn er
ĠCra zy
ĠEntertain ment
ĠPrem ier
ieut enant
u ccess
Ġb ow
al le
as c
Ġm ob
Ġd raft
Ġg ain
Ġg ives
th ur
ĠW ork
ĠO bs
Ġnot able
Ġrec ently
Ġ5 4
ans as
ĠMar io
rop ium
Ġ196 8
Ġ196 9
Ġexp ress
Ġsim ple
ash ion
Ġext ensive
ĠMus lim
Ġmed ical
ĠBo ise
Ġfind ing
ush ing
Ġgrad ually
ĠTod ay
ĠLew is
Ġkilomet res
ĠBost on
c y
Ġd ates
Ġe gg
ĠC old
ĠC hel
im ents
Ġst ages
ĠP en
ĠD er
ĠG ard
ĠJ ain
se a
Ġ5 7
Ġfin als
Ġsecond ary
ock ed
ĠLe g
Ġsever e
Ġ17 9
Ġ197 5
Ġexp anded
az z
Ġserv ing
ĠPe ople
Ġant imony
Ġprogram s
ĠRuss ian
ĠMart in
c el
k i
r ong
Ġt ail
un te
Ġc amer
is hes
Ġb it
Ġh am
ĠS o
st ead
ĠC re
ĠC ole
ĠR ail
Ġit ems
ĠG reg
ĠJ es
Ġcom es
ĠK ey
Ġcomp osition
Ġbo at
we et
Ġcent uries
Ġ8 00
Ġ196 5
Ġ197 4
Ġocc as
ĠEv ita
Ġcor re
ĠMag azine
ĠSy stem
Ġoccup ied
ĠTur k
ĠUp on
ĠDem ocr
i ations
er o
Ġw ed
un ction
un icip
Ġm o
Ġm ig
ic c
Ġd aily
ĠS und
Ġn aval
ur a
ur ches
ĠI d
ĠD omin
Ġch air
ber g
ud d
ren ce
oy s
Ġfl oor
Ġso le
Ġmus h
hes s
Ġdec ades
anc ing
ĠJu an
Ġdeath s
Ġcritic ism
Ġfar m
Ġsuccessful ly
Ġloss es
Ã¡ nh
ĠCommand er
Ġtreat ment
ĠKh Ã¡nh
Ġslow ly
Ġindepend ence
Ġcommission ed
Ġexperi enced
Äģd a
Ġfict ional
k in
k et
u x
in em
Ġs quad
Ġo d
Ġd ial
ĠA venue
am ing
ĠR y
ĠR ome
ĠF ox
ul i
ĠK ir
ĠSt one
Ġro w
ĠBr idge
ann y
Ġdid n
Ġvis ual
Ġsent ence
Ġperson nel
Ġeng aged
Ġmy th
ĠSong s
ĠCro wn
ĠMac Le
Ġpurch ased
ĠJam al
Ġpolic y
ĠDan iel
Ġfa ith
ĠJur c
T C
h at
y son
Ġb ass
ic ed
Ġe c
ly wood
ly ss
ĠB art
ĠB rian
ĠD o
ĠL l
Ġch orus
Ġun p
ĠAl f
Ġsp orts
Ġpre fer
Ġ9 6
Ġco al
Ġco ol
Ġ16 4
ĠSc ience
Ġ194 6
ĠIs ab
Ġconc rete
Ġsouth west
Ġworld wide
ĠPro v
Ġcapt ain
Ġprop os
Ġdecl ined
Ġprot agon
Ġbeg un
Ġreason s
Ġneg ot
bor ough
ateg ory
Ġbrief ly
Ġattr act
ĠTenn yson
Ġchall eng
ĠThrough out
ĠDist rict
b l
f ort
p et
Ġf at
Ġd rawn
Ġe as
Ġbe ach
ĠM ic
ĠD ubl
ĠN H
Ġex clus
ĠU N
ĠK n
Ġnot e
ĠV ill
per ial
ĠAl so
Ġ7 3
Ġ9 5
Ġfl ag
Ġmov es
Ġno thing
Ġinc ident
Ġconc er
ĠPro ject
Ġorgan iz
Ġimport ance
Ġroad s
Ġel imin
ĠBar b
ĠSim one
Ġesc ape
ĠLi u
uccess ful
ĠDubl in
i ro
i ences
r ang
Ġ #
Ġw orship
Ġf ur
Ġh ired
Ġre nd
Ġn or
ĠC y
ĠC ub
ĠI gu
ĠB ru
Ġst reet
ĠH y
ĠD un
ĠL iber
qu ake
ĠK a
ĠK ang
Ġar c
ĠHe ad
are t
Ġte nd
Ġ6 1
Ġfound ation
Ġdec ade
Ġlong est
Ġ196 6
Ġ195 2
Ġ191 9
Ġposs ibility
Ġarr ival
ĠPro t
Ġfav our
Ġhy d
cher s
Ġbill ion
Ġchap ter
Ġparticip ated
Ġcal c
Ġfir m
Ġenjoy ed
ĠAre a
ĠTem ple
Ġwit ness
Ġrespond ed
ĠProdu ction
ĠFam ily
Ġpaint ings
Ġaccompan ied
Ġt all
Ġthe at
Ġw ides
Ġp ul
Ġm ist
Ġl abor
ĠM em
Ġg as
ĠB as
Ġst ret
ay er
ĠR et
ĠF ive
ĠG A
Ġhe ard
ĠE ll
ap es
ĠU lyss
ian ce
ĠCh art
ĠCh ains
ĠAl i
iz es
Ġne ck
Ġ9 7
ĠMar ia
Ġapp lic
Ġset ting
Ġsur re
Ġdevelop ing
Ġ17 7
Ġown ers
Ġ193 6
Ġgu ard
Ġold est
Ġgl ob
Ġagre ement
ĠGovern or
Ġdoll ar
Ġnorm al
Ġplat form
Ġrough ly
ĠDevelop ment
Ġsen ior
ĠMacLe od
ĠUlyss es
c hest
i able
l s
p read
Ġh or
ĠA er
ĠC D
ĠM ur
Ġg reen
ĠB and
ĠB aby
ĠR on
ĠF all
ĠE s
ist an
ĠIn stead
Ġch oice
Ġrem n
Ġcons ists
Ġver t
Ġac ad
Ġacc ident
Ġadd ing
Ġpop ulations
Ġ197 3
ĠIs l
ĠAd mir
Ġlast ed
Ġtri p
ĠBo ard
Ġcomb ination
Ġsk in
Ġtechn ology
Ġexist ence
Ġregard ing
Ġviol ence
Ġpoet ry
Ġdomin ated
ĠFranc isc
Ġathlet es
ĠDou gl
ĠAnth ony
ĠTurk ish
i ot
re m
Ġs n
ed a
ĠS us
Ġe th
ad ow
ĠThe atre
ĠM at
ĠM od
id ay
us al
Ġis ol
ag er
um pt
Ġcom ic
ant ly
ge nd
Ġres erv
Ġsp ons
Ġcomm ittee
Ġfilm ing
Ġac res
Ġapp lied
Ġsub mar
Ġcall s
Ġperform ing
Ġ196 7
ĠTe am
Ġcolle ge
Ġclub s
Ġcompet itions
Ġassoci ation
Ġclos ely
Ġrese ar
Ġexist ing
Ġuns uccessful
Ġhabit at
Ġweaken ed
ĠIgu an
c ome
r um
Ġa er
er a
at on
is ers
as er
ĠA ston
ĠM ov
ĠM ountain
Ġal tar
res p
Ġper haps
Ġover l
Ġne ither
Ġ6 2
ĠMar l
Ġunder t
Ġinter act
Ġappe al
Ġdec re
Ġcap able
Ġtrans it
Ġ11 0
Ġdist ingu
Ġprov ides
Ġ191 4
Ġbatt alions
Ġserv es
Ġgreat ly
ĠPh ill
Ġdet ails
Ġpain ting
Ġarchae ological
Ġder ived
Ġlearn ed
Ġtell s
Ġrein force
Ġpil ot
Ġpurp ose
Ġadminist ration
Ġopportun ity
Ġbene f
Ġcerem ony
Ġoccasion ally
a ver
e ction
s et
Ġs ort
Ġf ellow
Ġb ought
Ġd ance
Ġth ing
ĠA ri
ĠA ML
Ġon es
ĠM en
ĠB ishop
ĠD ota
ĠG ab
Ġse at
op es
ich ol
Ġch urches
Ġcont rib
Ġrec onst
ĠAl bert
Ġdes cend
ib be
Ġspe aking
ĠAn onymous
Ġ8 5
Ġsupp osed
Ġsur vey
pr ing
Ġinv ited
Ġrece iving
ĠCar ibbe
Ġed itor
Ġhead ed
ĠAd v
Ġstory line
Ġbas ket
Ġtown s
Ġpar alle
Ġtechn ique
Ġsuff icient
Ġenc ounter
ĠOd e
ĠBra z
Ġinn ings
Ġfill ed
Ġvehic les
Ġdissip ated
ĠHorn ung
ĠChel sea
ĠDougl as
ĠCaribbe an
u ate
Ġ ut
Ġt on
in ner
er c
Ġs om
at o
Ġf ashion
Ġd rew
am y
ly ing
ul es
ĠL ife
ĠL ieutenant
Ġse g
ĠE RA
Ġpl um
ĠK enn
ĠSt ew
ĠSt ep
Ġ7 1
ĠAs ia
ĠLe on
Ġdo or
Ġgo es
Ġ194 5
Ġ197 1
Ġbr anch
Ġrece ive
Ġdep ict
Ġany thing
pect ive
Ġclass ified
ograp hic
Ġview ed
ĠPer ry
ĠGeor g
ĠAb out
Ġisland s
Ġtyp ical
Ġsurv ived
ÃŃ a
Ġmass ive
Ġaccom pl
ĠCard inal
Ġstop ped
ĠMa eda
ruct ure
Ġdram a
Ġsymb ol
ĠConstant ine
ĠHib ari
ĠSum mer
Ġast ron
Ġwides pread
h u
p son
r uli
w in
Ġa im
Ġs ail
Ġc rop
ar ian
al a
ic ations
ĠA ge
ĠM TV
ut ing
Ġwh y
ĠR ol
ĠR od
ag le
Ġr ing
Ġr if
Ġsh ared
Ġtr uth
Ġtr ying
ust ed
ra it
Ġ5 9
Ġfl ights
Ġass ass
Ġac id
Ġqu ot
Ġpo ly
Ġ198 2
ĠWh at
Ġdist rict
ĠCon st
ĠQ edar
Ġprote ction
Ġauth ors
ĠBro ok
ĠRoman i
ĠGeor gian
ĠSim on
ĠSte v
Ġhouse hold
Ġmiss ing
Ġmot ion
ĠGold en
gl ades
Ġsyn t
Ġsett lers
Ġacqu ired
Ġdig ital
Ġsaf ety
Ġsout heast
Ġrepe ated
ĠFant asy
Ġconver ted
ibr ary
at i
Ġh a
ĠT ra
ent ially
ĠB ond
ĠB ull
id ges
ut ation
ĠR io
ĠF re
ĠJ ud
ist on
ĠIn g
ess ed
ĠU r
ip s
ĠSt adium
ub le
Ġro utes
Ġro of
Ġsp acing
Ġfin ish
Ġev ac
iss ance
Ġsub stant
ck i
Ġloc ations
Ġ16 0
Ġ197 6
Ġdep icted
Ġ195 6
Ġ191 3
Ġ191 6
Ġturn s
Ġexper iment
Ġplan ning
Ġwat ched
Ġhold ing
Ġbase ball
Ġfund ing
Ġfoc used
ĠOs lo
ĠMo z
Ġarrang ed
ĠHait i
Ġsuc ceeded
ĠRad io
ĠFred er
Ġperman ent
Ġopin ion
ĠShort ly
Ġatmosp here
Ġwed ding
V N
t ure
t ty
Ġ i
Ġ ign
in n
Ġf uel
Ġb ul
Ġb owl
Ġin du
Ġd ub
ĠT im
ĠC a
ac ity
ĠR ow
ĠJ ones
ĠO h
Ġch o
Ġch ance
Ġch annel
Ġex act
ie ge
Ġres ident
Ġ7 2
Ġkn ew
Ġ8 1
Ġdef ined
ific ations
Ġ194 3
Ġ17 5
Ġprov iding
ĠAll ied
Ġinit i
Ġreal ity
br idge
Ġdecl ine
Ġcor resp
idd en
Ġcreat or
Ġpen alty
Ġearth quake
Ġcred ited
het ic
ĠVen us
ĠIguan odon
ĠBraz il
Ġcorresp ond
G N
e ed
k y
u an
Ġt ied
in du
Ġw ins
Ġin ner
Ġm ic
Ġd ating
ĠA st
st ances
Ġe u
ĠI GN
iv ered
ĠH indu
ĠR angers
ĠD ream
ĠG ully
ĠL enn
ag re
Ġr ich
ok es
Ġj ack
Ġpre gn
ĠAr ts
Ġ9 4
aw a
Ġchar ter
Ġfl u
Ġass emb
Ġgr av
Ġsupp lies
Ġ196 3
Ġ11 2
Ġdown lo
Ġair port
Ġhead s
Ġ25 0
Ġway s
Ġexpl os
Ġdel ivered
Ġlaw s
Ġgl ass
Ġsepar ated
Ġren amed
ĠEver glades
Ġthous ands
ĠSecret ary
ĠMorr ison
ĠAddition ally
uild ing
ĠPho en
ĠStev ens
Å ¡
Ġ ice
in ated
Ġw ick
Ġc it
it an
is f
Ġe yes
ĠB h
ĠH omer
ĠR un
and a
ĠG re
ĠG ram
ĠL uc
est one
Ġr ac
Ġr ural
se y
ĠU TC
ie ce
Ġro se
out s
Ġte aching
Ġover se
Ġsec ure
Ġreg ime
Ġem peror
Ġ17 6
ĠAustral ians
ĠComm ittee
Ġturn ing
Ġcommand ed
Ġopp osition
ĠBro ad
ĠSim ilar
Ġcert ified
Ġinsp ir
Ġremain der
Ġindic ate
ĠOff ice
Ġconsist ing
ĠHol lywood
ĠBrad ford
ĠArch ae
ĠAlex ander
Ġinstr ument
ĠColumb ia
Ġspl it
ĠFriend s
ĠSund ay
B S
R E
g Ã©
j illo
p any
r ons
Ġ urban
Ġa ware
Ġd og
Ġd ru
ĠS ap
Ġe ld
ĠC le
ig ation
ĠH oly
ĠP ers
ĠP att
ĠN ative
ĠG ang
ĠL y
Ġatt ached
Ġ7 7
ĠMar ine
Ġcol our
Ġno isy
Ġqu ite
olog ists
Ġhigh light
Ġadd ress
Ġ197 8
Ġocc urs
Ġ195 3
Ġcour ts
Ġrefer ences
Ġaff ect
Ġtechn ical
Ġval ley
Ġrev olution
ĠMary land
Ġeconom y
Ġestablish ment
Ġassist ance
ĠMont ana
Ġjourn ey
ĠCroat ian
ĠCrit ical
Ġpow ers
ĠDire ctor
ĠTru jillo
Ġdru g
l ik
Ī Ĵ
Ġt able
in osaur
Ġp et
Ġd ry
il ton
Ġl in
el a
ĠB ern
id er
ĠH an
ĠD own
ap ers
ew here
igh ter
ak ed
Ġâ ĪĴ
Ġle aves
ĠCh ronic
Ġres ist
ĠAl an
ress ive
Ġfin ishing
iss ipp
ĠAr thur
Ġinter ior
Ġstud ied
Ġlead s
Ġdist urb
Ġdist ribution
Ġrep utation
Ġsuccess or
ĠRo xas
Ġview s
ival ent
ĠMiss issipp
Ġsurv iv
Ġproduc ing
Ġmiss ions
ĠWal ter
Ġden ied
Ġadap ted
Ġshoot ing
Ġmethod s
Ġportray ed
ĠCharl ie
ĠEngine er
Ġstrengt hen
ĠMississipp i
y ch
Ġs le
Ġh all
ĠS ub
Ġl ane
ur ation
ĠB ur
ĠR el
ĠW ind
and y
ĠL ow
ag ues
Ġr ub
ri er
if ying
Ġsu d
ard o
Ġk its
ĠK il
Ġro b
Ġoff ense
Ġup d
Ġpre y
Ġgame play
Ġent ry
Ġent ering
Ġmain tain
Ġcharacter istics
Ġ191 5
Ġcamp s
Ġprote cted
Ġcr ime
ĠWith in
Ġpolit ics
Ġget ting
ĠRec ording
ĠAct ivision
ĠHow ard
Ġimm ig
sen al
ĠSam uel
Ġwor st
Ġdismiss ed
Ġintellig ence
O T
S B
b orn
h i
k ins
Ġc rown
Ġp uzz
ĠS now
ad or
ĠM ul
Ġst ones
ĠH on
ĠH ug
et te
ĠR idge
os a
ĠL u
ĠJ ac
ĠJ ay
ĠE du
Ġv on
Ġex erc
Ġnot ing
ip l
ell s
Ġatt ributed
Ġkn ots
Ġ9 8
ĠMar sh
Ġchar ges
rop ri
Ġcap acity
Ġmon arch
Ġmon ument
ĠPl unk
Ġclass es
Ġrepl ace
Ġbas in
Ġfr anch
Ġnov els
ĠSte f
Ġchart s
Ġintrodu ction
Ġinterest ed
ĠCal vert
Ġhold s
off man
Ġdiscuss ed
Ġdoll ars
Ġmush room
ĠIsab ella
e cess
h ost
t own
v ar
er og
Ġw orth
Ġc ab
en ge
Ġb aby
Ġp al
Ġp ound
Ġm ort
ic ial
Ġd ie
ĠS ound
Ġl ic
el ve
ĠM L
iv ity
ĠP ope
ĠF ar
ĠD ar
ĠD NA
ĠD anny
ĠW all
ĠN BC
ĠJ ersey
Ġse ctor
ri en
Ġv ic
Ġv ary
Ġv ision
op her
ame ter
our ces
Ġag ent
Ġoff ers
ang erous
Ġ6 6
Ġpubl isher
ob a
aj ev
Ġ194 8
Ġdescrib ing
Ġgener ation
Ġmod er
Ġ191 7
Ġappear ing
Ġmed ieval
Ġfield s
Ġstat ement
Ġhistor ic
Ġ189 0
Ġcoast al
Ġpred ecess
Ġelect ric
Ġrul ed
Ġrul es
Ġaccount s
Ġyoun ger
ĠWeek ly
ĠSar ajev
ĠLis a
ĠIndust ry
ĠSarajev o
c an
m ans
Ã ¨
in tend
er ted
or ough
Ġc aught
Ġc inem
it ors
en a
Ġto mb
ĠH o
ĠH ard
ĠR ay
ĠD aily
ĠL ess
if ul
Ġex pect
Ġex ception
Ġpl ants
Ġar ts
ub e
ĠV ol
Ġdes ire
ĠY e
ĠY ank
form ation
att le
Ġsome one
Ġap art
Ġso il
Ġret ire
Ġ197 9
Ġ195 1
Ġbas ic
Ġevery thing
Ġdiscover y
Ġdifficult y
Ġrecogn ition
Ġtrib es
Ġz one
Ġforest s
Ġrare ly
Ġconsider able
ĠStr and
ĠVictor ia
Ġemot ional
Ġnin th
ĠDest iny
Ġartic le
Ġrestaur ant
crib ed
ĠStep hen
ĠFreder ick
ĠYank ovic
O C
c op
i ents
v is
Ġt aught
or er
it age
Ġb ond
ĠT op
ĠA round
ig ades
Ġst ore
ĠH ell
ot hes
ĠP ress
Ġcon ve
ĠG il
ĠE arl
ĠIn it
Ġsh ore
Ġk ings
Ġcont est
Ġman ner
Ġdis appe
Ġen l
Ġshe l
Ġdo ct
Ġ196 1
Ġland ed
Ġ195 4
ĠTe levision
Ġeven ing
Ġopp onents
Ġrepl acement
ĠAb b
Ġinvol vement
Ġpit ch
gr aded
com ing
Ġnomin ation
Ġspecific ally
Ġchap el
Ġwood en
ĠRes ear
Ġcolon ial
ĠJo e
Ġhot el
ĠSomal i
Ġrhy th
ĠClark son
Ġthir ty
ĠRol ling
ĠMoz amb
Ġsud den
B rien
a ire
c ation
n est
r in
y m
y s
Ã ¶
Ġf an
Ġf air
ing ale
Ġm ine
Ġh ope
ĠS anta
ĠF ame
ĠF low
ĠD om
ĠD et
Ġcon sequ
ĠN ether
ĠL ords
ĠJ if
ate ur
Ġim pr
Ġwe alth
Ġ6 9
Ġsec ured
ĠAn ton
Ġ8 7
Ġso ft
Ġacc ur
ĠLe e
Ġ193 7
Ġbelie ves
ĠOr der
ps ons
Ġcommun ities
ĠSim psons
Ġdiv ine
ĠRober ts
ask a
Ġpoem s
ĠDu ke
ĠSing les
ĠJer usal
ĠCamp b
ĠSk ye
Ġinterse ction
Ġcontrovers y
Ġpick ed
ĠColon el
ĠCast le
ĠWild e
Ġrecommend ed
Ġfung us
ĠBon o
ĠFrancisc o
ĠJif na
ĠJerusal em
L I
a o
e enth
n ell
n amed
r ations
t heless
re ts
re ets
it led
Ġf aces
Ġm unicip
ĠT el
Ġl ov
ĠM aster
ĠR Ã©
ĠF ish
ĠD is
Ġcon te
ĠW ars
av a
Ġpro s
Ġv an
ult ane
Ġrele g
Ġwhere as
Ġsign ing
Ġ195 5
Ġext rem
ĠTr ack
Ġstand ards
Ġleg s
Ġjoin t
ĠEl iz
ĠHam ilton
Ġappoin t
Ġmiss ed
Ġlaun ch
Ġdraw ing
Ġvol unte
ĠÃ Ĺ
ĠOlymp ics
Ġschol ar
Ġconcern s
ĠMil itary
Ġleaders hip
Ġprincip al
Ġspecim ens
ĠAdam s
ĠTrans port
ĠIndepend ent
ĠArgent ina
Ġorganiz ations
Ġextrem ely
3 0
Ġs ession
at ures
Ġc ard
am ber
ĠC at
ĠC op
ĠC ory
Ġg al
ĠB i
Ġst ream
ĠH ere
ce ived
ĠR if
ĠF ire
Ġcon ference
ĠW i
ĠW alk
Ġ19 00
os ure
av ia
um a
ist ol
Ġex isted
Ġy outh
pt on
Ġpart ies
Ġpart ners
Ġte eth
Ġj azz
we alth
Ġspe ech
Ġcomm it
ĠMar c
Ġshow ing
Ġdist ributed
Ġ195 8
ĠBe ach
ĠFor ces
Ġappro ached
Ġtri es
ĠPr ime
eng ers
Ġrelationship s
Äģ n
Ġtreat y
Ġdi ameter
Ġthreat ened
Ġsurround ed
Ġemer ged
Ġchem ical
rane an
ĠWrit ing
ĠBan ai
Ġconne ction
Ġeu ropium
e z
g ie
i pe
w ise
Ġw ants
Ġw rong
ed om
al ent
Ġp ack
Ġp age
Ġh ill
ĠS pring
ad d
ac ent
ĠM ot
Ġst em
ĠH u
Ġal ien
ĠF el
ĠW y
Ġsh ark
Ġle uk
ide os
Ġdis app
ĠY an
Ġ7 9
Ġprodu ct
Ġ194 9
Ġ197 7
Ġdisc ip
Ġstr ateg
ĠCar ter
ĠPl ot
Ã© t
Ġsol id
Ġhistor ians
Ġsee ing
Ġcross ed
Ġfac ing
Ġregular ly
Ġcondu ct
ĠDep ression
Ġrail way
Ġimmedi ate
Ġfir ing
Ġfavor ite
Ġhop ed
Ġdocument ary
Ġinstit utions
Ġlb w
Ġaltern ative
Ġrat ings
ĠNorm an
Ġexped ition
ĠRog er
Ġunus ual
ĠMod ern
Ġisol ated
Ġsynt hes
ĠLenn on
d al
in als
Ġs oul
un ion
at us
Ġc old
Ġb es
Ġin land
ent ions
ow ie
us ad
ĠD A
ĠW W
ĠW at
ĠG offman
ab eth
Ġad mitted
ok ed
Ġsc rap
Ġpart ial
ĠUn like
Ġreg ional
Ġass umed
Ġind ig
Ġsy m
Ġ12 1
ivers ary
Ġbr ight
Ġexp ansion
Ġown er
Ġdesign ation
Ġwar m
Ġpoin ted
oss ible
ĠHer gÃ©
Ġann iversary
Ġreview er
Ġbre aking
Ġdem ol
Ġstrong ly
Ġchang ing
Ġdet ail
Ġdestroy ers
Ġprot ests
omb at
Ġtre ated
ÃŃ var
Ġve get
Ġlangu ages
Ġsequ el
oo th
Ġmot or
Ġliter ary
Ġexam ples
Ġbring ing
ĠJane iro
Ġwaters hed
ĠHum an
ĠBol ÃŃvar
Ġmess age
Ġdut ies
ĠRy an
Ġprotagon ist
ĠSap rang
ĠKil mer
Ġfranch ise
f riend
g as
r ab
w ar
Ã ¼
Ġt ie
on ica
Ġs ke
or ters
Ġf ish
ing ly
Ġh arm
ĠT rib
ĠT ower
ĠA R
Ġe ighth
ĠI ron
im et
Ġst adium
ĠF ern
ĠW imb
os ite
ĠN ap
Ġse ctions
Ġor chest
Ġch ampion
ĠK at
ĠK el
Ġtr a
ĠCh ief
Ġint ention
ĠHe arts
Ġag ed
Ġover w
ib l
Ġout f
Ġme ets
aw s
Ġret reat
Ġind icated
Ġ198 3
Ġmin ister
led on
Ġdep artment
Ġair line
Ġwin ner
Ġappro ved
Ġmark s
Ġdet ailed
Ġgen re
Ġcou p
Ġimpro ve
Ġcirc um
Ġengine ering
Ġcomplet ion
Ġabs or
ĠLaw ton
Ġanc est
Ġattr acted
ĠBC E
Ġspecim en
Ġwear ing
Ġresc ue
ĠBurn s
Ġegg s
Ġeas ily
Ġacad emic
ĠGeorg ia
ĠResear ch
ĠWimb ledon
a ug
e or
i our
k now
n ie
o ch
Ġ ur
Ġ ib
on a
Ġs un
or ous
ar p
ic ian
Ġh appy
ĠA D
ĠS quare
Ġl ap
am ents
ĠM id
ĠI V
Ġg ather
ĠB ul
ĠB ase
ĠB ank
ĠH ung
ĠP erson
ĠW in
Ġr u
all ow
oc key
ĠSt ation
Ġtr ail
pp ing
og ether
ok ing
ĠTh ird
ens us
ĠDe v
Ġac know
Ġmus car
Ġacc used
Ġco ord
Ġem p
ĠGer ard
Ġcar bon
ĠCol or
Ġattempt ing
Ġeffect ively
ister ed
Ġlook ed
Ġread ing
Ġsurv iving
Ġpract ices
Ġterrit ories
ĠRichard son
Ġcivil ian
Ġtravel ed
Ġfeel ing
Ġassist ant
ĠTer rit
ĠJe an
Ġsett led
Ġchall enge
ĠSomal ia
Ġconstit ution
Ġencour aged
Ġtermin us
Ġstarl ing
ĠRh odes
ĠCam bridge
Ġadj acent
Ġcit iz
b an
b ur
b ody
b reak
c ape
m od
Ġs ell
Ġf er
Ġb al
Ġm ut
Ġd ock
Ġth in
ĠS a
ĠS i
ĠS av
Ġn ick
am m
ĠM ortal
th y
Ġst reak
ĠR os
Ġr aces
Ġv ideos
ill ing
ew hat
Ġsh ots
ĠK ombat
Ġcomp ounds
Ġrec re
Ġrec alled
Ġpart ly
Ġpre ced
Ġev il
ĠAn iston
Ġ9 1
Ġ9 9
Ġ8 8
Ġunder w
Ġinter change
Ġdec or
Ġcre st
Ġob tained
Ġ191 0
Ġext reme
Ġposs ession
Ġvis ible
Ġstand s
Ġ190 9
Ġconv oy
ĠKe amy
Ġident ity
Ġ188 0
Ġarm or
Ġseem ed
Ġgre y
Ġpain ted
Ġbrother s
Ġmult i
Ġtow ers
Ġarrang ement
ĠForm ula
Ġrecover ed
Ġscient ific
ĠGar c
Ġinh abit
Ġcandid ate
ĠJourn al
ĠCommon wealth
Ġrom antic
ĠAtt orney
Ġagricult ural
ĠJes us
ĠAdmir al
Ġsom ewhat
Ġinspir ation
b ie
d ess
Ġt one
Ġthe atre
Ġs an
Ġo cean
is is
Ġh its
ĠT est
am in
Ġg all
iv als
th osaurus
ĠP ine
ĠP ower
em ia
ĠW olf
ĠL anc
Ġhe ar
Ġse lect
um ps
Ġpro ceed
Ġsh if
Ġcl oud
Ġte ach
ach us
Ġsp aces
ĠAn c
Ġrel ative
ĠMar ines
Ġver se
Ġfl ed
Ġact s
rop ol
Ġpres erved
Ġ12 2
Ġmain t
ĠJohn ston
Ġest ate
ek Äģn
ĠGer mans
Ġimp lement
ĠFr aser
enn is
Ġpass age
Ġ193 1
Ġ193 5
Ġ191 2
ĠGu y
Ġfoot age
ĠPol and
Ġequ al
Ġconv in
Ġcat ch
Ġcy cle
Ġsuff ering
ĠIsland s
Ġredu ce
Ġhost ed
Ġfund s
Ġindust rial
ĠArab ic
ĠEver y
Ġlink ed
Ġspir it
ĠTy pe
Ġsculpt ure
Ġbasket ball
ĠPlunk etts
ĠCory thosaurus
b ishop
h ow
i ary
r ast
s ewhere
v ious
Ã ¤
Ġ ere
Ġt ailed
Ġa u
Ġs essions
Ġs iege
Ġw ars
un ior
it als
ar ning
Ġp s
Ġm is
Ġm ap
Ġh ip
il ly
st a
Ġl ob
ĠC E
ĠB os
us ing
ĠP rote
Ġcon qu
ĠN ick
ĠN intend
ĠL oc
Ġde ck
ĠE c
pe are
ĠIn c
Ġch ronic
ab led
Ġle gend
Ġle arning
Ġun f
Ġdis pl
Ġser ial
ĠY our
ĠRe le
aw are
Ġfl o
Ġinc ome
ĠLe v
ific ial
ĠSh akes
Ġcontin uing
Ġexp ensive
Ġprov ince
Ġattack ing
Ġ193 2
ĠAll ah
Ġreview ers
Ġopp osite
Ġmed ium
Ġdest ruction
Ġdeb ate
atter ed
Ġtw elve
ĠEx p
Ġcirc ulation
Ġrespons ibility
Ġdefend ed
Ġstay ed
Ġblock s
go ing
ĠHot el
ĠFI A
Ġequip ped
Ġconcern ed
Ġcontrovers ial
Ġadult s
Ġcompos er
Ġincorpor ated
ĠPen insula
Ġcorre ct
ĠMarl borough
Ġdownlo ad
erog ative
ĠNintend o
ĠShakes peare
h m
k a
x ts
y cl
y les
Ġ ic
on ic
or ious
Ġb le
Ġb ay
Ġin aug
Ġp ric
Ġp ushed
ic ts
Ġn one
ur i
Ġg one
ĠP ul
ĠF air
ag as
Ġr itual
ĠO wen
Ġpro port
ĠK ar
Ġres erve
Ġsp in
Ġsong writ
Ġpo ol
iam ond
Ġdep os
ink ing
Ġpass engers
Ġwill ing
Ġ191 1
Ġdr iving
ĠFe i
Ġ192 1
Ġ192 9
ĠFl ight
Ġlow est
Ġvict ims
Ġpat rol
ĠPal ace
ĠPal my
Ġpromot e
Ġmeet ings
Ġcross ing
Ġaccom mod
Ġfall ing
Ġmeas ures
stit ution
Ġreb els
ĠLaw rence
Ġobserv ations
Ġvot ed
ĠPat rick
Ġthrow ing
hew s
ĠStan ley
Ġremn ants
Ġparalle l
ĠConst ruction
Ġiniti ative
Ġkits une
ĠNether lands
b urg
r ant
s es
y ard
z i
z en
in je
Ġs ight
Ġc raft
it ated
Ġin te
an ning
Ġh at
ĠS weet
ĠC hen
ĠC ook
ol ay
ĠB ert
im inal
ĠH ospital
us cript
em eter
ag n
Ġcom ments
Ġex ha
Ġpl ain
oc a
ĠSt ory
ĠSt ock
og en
ond er
ark ed
form ed
Ġ8 2
Ġfl at
Ġac claim
Ġret ained
Ġdef ences
Ġgro ss
Ġ16 2
Ġ196 2
Ġreturn s
Ġmusic ians
Ġ195 9
Ġgovern or
Ġ193 8
Ġclass ical
ĠGe off
ĠOr gan
Ġinvol ving
Ġrepresent ing
Ġpat ron
Ġequ ivalent
Ġgod dess
Ġpra ise
ĠAtl anta
Ġwat ch
Ġvill ages
Ġpit cher
Ġdifficult ies
Ġsuper ior
Ġra ise
ĠPlay er
Ġbi ography
ĠQue ens
Ġintens ified
Ġobject s
ĠEm peror
Ġabs ol
Ġunderst and
ĠPit man
Ġcarry ing
Ġvess els
ĠKore an
Ġfix ed
Ġbats man
ĠGuard ian
ĠCambod ia
Ġoccas ions
Ġhyd ro
Ġglob al
Ġeth n
ĠStef ani
ĠEliz abeth
ĠGarc ÃŃa
emeter y
d e
u ct
w ich
er r
Ġs am
Ġs ulf
Ġo w
Ġc ry
Ġf al
Ġf ine
Ġm art
Ġd ivers
ent ures
ĠC ru
Ġon line
Ġg end
ter bury
ĠB ass
ĠH un
Ġal leg
Ġan sw
ĠL ab
ĠJ oy
Ġse es
Ġr ay
ĠO ur
Ġpro hib
Ġor n
Ġex change
ĠCh annel
Ġres ources
Ġj u
Ġcomm itted
Ġ7 4
Ġsim ultane
ĠMe ga
ĠCan terbury
Ġperiod s
ĠSp ace
Ġcover s
Ġdefe ating
pec ies
Ġinflu ences
ĠDes ign
Ġdiv isions
Ġlim it
Ġneed s
Ġaccom pany
Ġmor al
Ġcoll aps
Ġren ew
Ġreve als
ĠMed iter
Ġesc ort
ĠEnter prise
Ġpurch ase
Ġnarr ative
Ġvo iced
Ġbehav iour
ĠPalest ine
ĠAthlet ic
Ġcamer a
Ġprefer red
Ġconcer ts
ĠProt est
ĠAer ith
ĠPhill ies
Ġsurviv ors
Ġconte xt
ĠMediter ranean
f are
g raf
m ine
r ig
u ilt
Ġt ick
re l
Ġc ul
Ġf old
es c
es i
ĠC orn
ĠM u
ĠM other
ĠB ark
Ġas h
ĠR aff
ĠR ugby
ĠF urt
ĠD C
ĠD i
ĠW icc
ĠN ow
ĠL ate
ĠL ink
ĠL abor
Ġr ugby
res ents
ap ped
op hy
ate ch
Ġex it
ud a
ĠSt op
ell i
ure au
Ġcl o
Ġag ree
Ġfe ather
Ġprodu cts
Ġform ally
Ġfollow ers
Ġinc om
Ġ0 6
Ġ0 7
Ġ16 1
ann ah
Ġoper ating
rap h
Ġrep resents
ook ing
ah l
Ġconsid ers
ĠUS D
Ġref ers
Ġcover ing
Ġel se
Ġel abor
Ġcritic ised
Ġdet ect
Ġdoes n
Ġste el
Ġclos er
ĠChampionship s
ĠMark graf
Ġtrib ut
Ġfeel ings
Ġvisit ors
Ġabs ence
Ġnorm ally
Ġhundred s
Ġpup ils
ĠSpec ial
Ġlegisl ation
Ġdeploy ed
Ġarrest ed
Ġdial ogue
Ġpropos al
ĠGram my
Ġrhyth m
Ġmunicip al
ĠCat hedral
ĠColor ado
ĠRaff les
ĠFurt ado
a fter
e ke
m ath
or gan
is ms
es se
Ġb one
Ġb rick
Ġp ure
Ġd im
Ġd ens
Ġd iet
Ġe t
ĠC ab
ur day
ĠM el
id ers
Ġst able
ot ic
ĠP A
ĠD ark
ĠG ib
ag u
Ġde em
ĠU sta
Ġrec onna
ĠAl ong
Ġman uscript
ĠRe al
Ġfe ed
Ġ9 3
Ġpr erogative
Ġform ing
Ġam ino
Ġsur pr
Ġ16 6
ĠSh olay
Ġinf rast
ull en
ĠTe chn
Ġext ent
Ġclass ic
Ġtrad ing
Ġsk ull
Ã¡ r
Ġhy p
Ġbi ographer
Ġpoor ly
Ġstation ed
ĠIm perial
Ġdisplay s
ĠPri or
Ġens ure
Ġmom ents
Ġopt ion
Ġintern al
Ġdrum s
ĠKr ak
Ġinterp ret
ĠSat urday
ĠDomin ican
ĠNH L
Ġsubmar ine
Ġresear chers
Ġreconst ruction
Ġconve ction
ĠFern and
Ġmuscar ia
ĠUsta Å¡
Ġreconna issance
e per
i as
v ention
Ġs unk
Ġs we
Ġs aves
Ġw ings
Ġc reek
Ġb at
Ġb low
ĠT ig
ĠT reat
ĠS her
st ate
Ġl ose
Ġl ists
ĠC ape
ĠB ed
Ġst reets
ĠH ou
ĠH ob
ĠF ree
ĠD ur
em an
Ġor bit
ĠK it
Ġint ense
Ġ8 9
ĠMar g
Ġver te
Ġapp ropri
Ġ0 5
Ġent itled
Ġtrans ition
Ġuse ful
ĠBl ood
Ġmod ified
Ġann ually
Ġdr iven
Ġext ension
Ġconstru ct
Ġinflu ential
enc ies
Ġpost ed
ĠMag gie
ĠRec ord
ĠMex ican
ĠMed ia
Ġinj uries
Ġwithd rew
Ġmem ory
Ġcru iser
ĠFI FA
Ġunderst anding
Ġdram atic
Ġpurp oses
iqu es
Ġdyn asty
ĠDA G
Ġoverw hel
C A
d s
r ine
s ch
v ements
v ati
Å į
Ġt ight
Ġt ank
Ġt ests
in et
on omy
re al
re ll
Ġs aved
at en
or a
or al
Ġc hess
ic op
Ġd inosaur
Ġh ang
le te
Ġre pr
Ġl oy
ĠC ult
ĠM ah
ĠB ron
ĠH ud
ĠH ok
ĠH ind
ĠF ront
Ġcon g
ul s
ĠN ichol
ĠJ enn
Ġr ated
Ġr ates
Ġr idge
ri f
Ġv ac
Ġor b
Ġch oir
Ġex cess
Ġpl ane
pt y
ĠV II
Ġcl ock
Ġag o
Ġother wise
Ġsp oke
Ġ6 3
man n
Ġ9 00
Ġwrit ings
Ġact ual
Ġam mun
Ġsever ely
Ġorigin ated
Ġship ping
Ġinst alled
Ġgener ated
Ġexp osure
Ġhel icop
Ġrest rict
Ġ192 8
Ġeng ines
Ġdem and
Ġsuggest ing
Ġfr ame
ĠPar vati
Ġfact ors
Ġinterest s
Ġwat ching
Ġread ers
ĠTown ship
rest ling
Ġcross es
Ġburn ed
Ġinform ed
Ġking dom
Ġmaterial s
ĠIsrael i
Ġsat isf
ĠNor way
Ġess ential
Ġsubs pecies
Ġapparent ly
Ġjournal ist
Ġdoub t
ĠMass achus
Ġhappen ed
Ġpan el
Ġpict ure
Ġcust om
Ġchair man
Ġjack rab
ĠEdu cation
ĠRÃ© union
Ġcircum stances
ĠBark er
Ġammun ition
ĠMassachus etts
g ency
m n
n i
r ants
á »
Ġ ille
he era
Ġc art
Ġc iting
Ġf estival
ĠT on
Ġre ady
ĠA ld
il st
ĠS ports
ĠC ec
ac le
ĠH amp
ĠH aving
ut z
ĠF ound
ĠG ary
ĠG wen
ag a
ĠE aton
ĠIn t
ate au
ab les
ĠK ann
ov en
ra ham
Ġcl imate
Ġrec ur
Ġpart ially
Ġdis aster
Ġear n
Ġrel ie
Ġcan cer
Ġmov ements
Ġele ven
ĠBr anch
Ġbel t
Ġoper ate
Ġgener als
Ġimp ossible
Ġcar ved
Ġlate x
ĠGu ide
Ġlist en
urric anes
Ġ192 7
Ġcaus es
ĠPe ters
Ġpar ish
ĠMin istry
Ġvict ories
ĠX e
ĠFeder al
ĠRich mond
Ġmix ture
Ġsurv ive
ĠCor por
Ġburn ing
ĠWil son
Ġtransport ation
ĠPortug al
Ġlay er
Ġbomb ard
Ġadminist r
Ġshell s
Ġinstr uments
Ġstarl ings
Ġbehav ior
ĠHistor ic
Ġdepart ure
ĠRA AF
ĠSwed ish
tav Äģda
Ġsubstant ial
Ġoverse as
ĠPatt y
Ġresist ance
ekÄģn tavÄģda
ĠUstaÅ¡ e
ĠKann ada
O K
l ife
p es
p ent
y ria
z ac
Ê »
Ġs quadron
Ġw ine
Ġd angerous
le ts
il ing
ĠS is
Ġl over
Ġl iber
ĠC BS
Ġwas n
Ġbe aring
ur se
ĠM and
ĠM idge
ĠM asters
ĠM Ã¡r
ĠB all
ĠB aker
ĠB ureau
ith ic
ĠP ass
ĠP ict
ch ang
and oba
os l
os m
ĠE lect
ĠE agle
Ġsh ut
ast e
te enth
Ġun like
Ġro oms
Ġab und
Ġres igned
ric ted
Ġafter wards
Ġsp ores
ĠY ug
Ġspe nd
Ġcomm em
Ġcons c
Ġam ateur
Ġsupp orters
Ġinst ance
Ġmusic ian
Ġmod els
Ġ193 3
Ġrest ored
Ġmar ry
Ġlist ing
Ġph r
que z
Ġtem ples
Ġcompet e
ĠSim pson
ĠPol ice
Ġinterest ing
Ġlook s
Ġtechn iques
Ġelect ronic
Ġ186 0
Ġsequ ences
Ġengine ers
Ġthink ing
ĠKh andoba
Ġtrib ute
Ġlo an
Ġpers u
Ġestablish ing
Ġdoc uments
for ced
itz er
ĠVer onica
ĠHow e
ror ist
AS A
Ġopportun ities
Ġstrugg le
Ġwindow s
Ġpremi ered
Ġbeaut iful
ĠStew art
ĠYan ke
ĠMÃ¡r quez
ĠYug osl
D H
H g
M O
n al
p us
s p
u v
w estern
Ġt ip
Ġs ale
Ġf ram
Ġin Hg
Ġp ale
Ġm ode
ro it
le ph
ĠT am
ent ional
ĠA P
ĠS oon
om ura
ĠThe n
Ġg ard
Ġfor cing
ĠB ath
ot ton
ĠR oc
ĠF RE
ĠW right
os is
ĠN ad
ĠN iel
ĠL ith
ĠL ast
Ġhe at
ĠJ r
Ġpro ve
Ġâ Ĥ
Ġnot ably
ip ed
ish ment
Ġun ion
Ġrec ru
ry ce
Ġout l
ren e
Ġ6 8
Ġrem ember
Ġinter action
Ġsub st
ros cop
Ġmin imum
Ġart work
Ġart ificial
ĠWh o
Ġdesign s
Ġoffic es
Ġ195 7
Ġadv is
Ġadv enture
Ġstorm s
ont o
Ġcr iminal
Ġsit uated
Ġel sewhere
Ġdiv or
Ġpred omin
Ġrecogn ised
Ġachie ve
ĠPhil ip
Ġmer ch
ĠTor onto
Ġproper ties
Ġmem orial
Ġcoin s
Ġexperi ences
ĠJust ice
Ġweap on
ĠRob in
Ġspir itual
ĠMill er
Ġthous and
Ġneigh bor
Ġvess el
ĠGirl s
ĠJurc hen
ĠPhoen ix
ĠMul der
Ġretire ment
ĠMozamb ique
ĠDet roit
LI MO
Ġacknow led
atech ism
ĠFRE LIMO
c ru
i ar
Å Ľ
á ĥ
Ġ áĥ
Ġt iss
Ġt anks
he me
Ġs ons
or row
Ġf ountain
Ġm ask
ic ide
ĠT s
Ġre ct
ĠS b
ĠS ans
om atic
ĠC ob
ĠC elt
ĠI ra
Ġg iant
ĠB ell
ĠB ang
ĠB enn
ĠP oint
ĠR est
ĠR aj
Ġcon j
ĠN etwork
Ġse lection
Ġv ast
ak a
Ġsh op
ĠK im
ĠK ansas
ord er
ear s
Ġtr ained
ĠV ice
Ġres ign
Ġag ents
Ġatt rib
Ġ6 7
ĠSe e
ĠSe ason
ĠDe ath
Ġform at
Ġfound er
ather ine
ĠSc ully
Ġob st
Ġdep icts
Ġinst ru
Ġcount ies
Ġcharacter ized
ĠPro g
pend ed
Ġeng age
ĠMan agement
Ġstar red
Ġformer ly
Ġwest ward
ĠMin or
ĠPer fect
Ġfr ig
Ġstat istics
ĠBar ry
Ġprogram me
Ġrad iation
ĠKe vin
Ġ185 0
Ġfall en
Ġmeas ured
Ġcost s
Ġbur ial
Ġcop y
Ġobject ive
Ġnetwork s
ĠMo ore
ĠRuss ia
Ġcle ared
Ġche ck
Ġbig gest
Ġdepend ing
Ġphot ograph
Ġinstit ution
Ġvehic le
Ġremark ed
Ġexcav ation
Ġhol iday
ĠJourn ey
ĠAlbum s
Ġdelay ed
ĠCole man
umpt ion
ĠBull s
ĠGil bert
ĠWi ÅĽ
owie cki
Ġconvin ced
Ġps ych
Ġinfrast ructure
ĠHud son
ni owiecki
ĠWiÅĽ niowiecki
h ist
m el
n ce
o e
u able
Ä ĩ
he im
he red
er atops
Ġs ed
Ġm amm
Ġd ream
Ġh orn
ĠS id
ĠS uch
ĠB udd
Ġst yles
ot al
ĠG ate
Ġr um
Ġr ivers
ate gy
ak ota
ĠSt ories
Ġcomp ound
ru z
ass ador
Ġres idence
Ġplay off
Ġim pl
amp s
ĠAn zac
oy age
ĠAr senal
Ġ8 4
Ġ8 6
Ġcons ervation
Ġform al
Ġdec ides
Ġdescrib e
ĠWar ren
Ġins cription
Ġhel met
Ġ14 0
Ġrest oration
ĠCan al
Ġdiffer ences
ĠGr ay
ĠRo th
Ġ192 6
Ġopp onent
Ġcr ake
Ġclaim ing
Ġsk ills
ĠMag dal
Ġpred ators
Ġaud iences
Ġclos est
cript ions
Ġdeter mine
Ġclear ly
Ġhous ing
Ġrail road
ĠRepublic an
Ġdisplay ed
ĠOs car
aval ry
Ġvot e
ĠMr s
ĠTre k
Ġsaf e
ĠOrigin ally
Ġrang ing
Ġhun ting
ĠSil ver
ĠNever theless
ĠMem orial
Ġreserv oir
Ġreinforce ments
Ġbenef it
Ġcrop s
ĠPers ian
Ġpredecess or
ĠInit ially
ĠTerrit ory
Ġcitiz ens
ĠOrgan ization
Ġfeather s
ĠHok ies
M al
b oy
e f
l ie
p iece
r ates
r ating
t ic
w ald
on ia
re es
Ġs ung
it t
Ġto ll
ic ate
Ġd ipl
le ged
ĠA z
om ing
ĠC ategory
ĠI SB
ĠR ain
Ġal leged
ĠD iv
ain ts
Ġpro l
if orm
ab il
ĠCh agas
ĠV alk
Ġad m
Ġte en
Ġatt ained
ĠUn til
ĠCom b
Ġreg iment
Ġco oper
Ġthere after
Ġgro wn
Ġele ctions
Ġent h
ros aur
Ġteam m
Ġinst all
yl ine
Ġany one
Ġcar go
ĠBe h
Ġprom ised
Ġrest ricted
Ġchild hood
Ġposs ess
Ġarr ive
Ġsl ide
Ġcommand ment
iven ess
Ġtem porary
ĠAb by
sh ore
Ġrepresent ative
Ġ190 5
sequ ently
Ġannoun ce
Ġground s
Ġfun er
Ġrank ing
uck y
Ġer r
Ġarg ues
ĠRock y
Ġdefend ing
Ġrul ing
Ġpers pective
ĠTur ks
Ġadap tation
Ġdeg rees
ĠVictor ian
Ġbad ly
Ġmagn itude
Ġscient ists
ĠConf eder
ĠCommun ist
Ġrang es
Ġprepar ation
Ġthr one
ĠChap el
Ġtun nel
ĠJon athan
Ġprompt ed
ĠLes lie
ĠLeg acy
Ġexclus ively
ĠMat hews
Ġastron om
Ġmoder ate
Ġimpr ison
ĠKel ly
ĠExp ress
ĠProtest ant
Mal ley
ĠISB N
ĠValk yria
A T
C C
D S
E FA
a un
b urn
f ess
p ut
y er
in ery
Ġthe ater
re c
Ġs ad
Ġs ter
Ġs isters
Ġc ake
Ġc aves
Ġb ed
Ġb ones
ing er
Ġm oon
ic it
ic ia
Ġd war
Ġh uge
ĠS le
Ġe asy
Ġn av
Ġn urse
el ine
ad heera
Ġbe ar
Ġg ates
ol a
ol en
ow a
ĠH ope
us es
ĠD ave
ĠD yn
ĠG un
ĠL over
Ġde ity
Ġde leg
Ġex ists
ĠâĢ ľ
ĠU EFA
ĠSt al
ish n
ĠV ul
Ġcl im
Ġres umed
Ġ5 8
Ġdes ert
Ġman ga
Ġen h
Ġout break
tern al
Ġ7 8
ĠAs h
Ġrel ation
Ġcons ol
Ġchar ged
Ġpr ime
Ġ0 8
Ġdec ay
Ġpo ison
ĠSh ow
Ġ17 8
Ġrep rodu
Ġnorth ward
ĠPl at
ĠAll en
ĠPro fess
Ġexpl ains
ger y
Ġhand led
ĠMc L
Ġmy st
Ġevery one
Ġtw in
br aska
aly mp
Ġband s
ĠPar alymp
ĠEv ent
ĠNe braska
Ġsk y
ĠMag adheera
Ġste am
Ġengine er
Ġinj ured
Ġamount s
Ġcolon ies
rup ted
Ġbound ary
Ġcelebr ated
ĠWater fall
Ġarchitect ure
ĠOut standing
Ġcorn er
Ġadvert ising
ĠChe val
ĠDemocr atic
Ġut il
Ġrif le
ĠBrook s
Ġbul k
Ġstrengthen ed
Ġinhabit ants
Ġere cted
ĠBert in
Ġethn ic
Ġdeem ed
ĠTreat y
ĠIra q
Ġdwar f
S A
g ov
k h
n ight
r is
Ġt ack
Ġt urb
Ġa w
Ġw et
Ġc ars
Ġf ate
Ġf ant
Ġb ell
Ġb ind
Ġb anned
Ġin se
Ġd raf
ĠT ro
Ġre ver
Ġl ake
om tav
ĠC atechism
ur rent
ĠM uch
Ġg arrison
ĠH or
ĠP ryce
ĠR em
em ies
os om
ĠN ash
Ġan th
ĠL ang
Ġr ib
if ies
ill ed
ap se
ue z
ok ovic
ĠHe aven
ĠTh us
Ġsc attered
Ġpart ner
Ġte xts
we ight
ĠUn ivers
ĠAs omtav
ĠAr k
Ġcan c
Ġrecord ings
Ġprodu ctions
Ġsub stitute
rop hy
Ġent ers
Ġ16 5
Ġmon uments
Ġ11 3
Ġexp osed
Ġland ings
Ġdesign er
Ġwar ning
Ġins criptions
ĠBe et
Ġstr ategy
ĠHer ze
row s
Ġdr iver
ĠTr acy
Ġdiffer ence
ple te
Ġ192 4
Ġ192 5
Ġbre ed
Ġdem ands
Ġprof ile
ĠDav is
Ġpri est
Ġste ep
Ġcond em
app ing
Ġsuper n
Ġfund ament
ĠHar old
ĠMad rid
ĠBus iness
Ġexec uted
ĠEm my
Ġprevent ed
Ġdomin ant
Ġsettle ments
Ġunc ertain
ĠDj okovic
Ġjud ge
AS P
Ġpurs ue
Ġgraph ics
Ġdemonst rated
Ġexcav ations
Ġdistinct ive
Ġtur rets
igg s
oty pe
Ġtact ics
ĠRail way
Ġapplic ation
Ġdistingu ished
ĠRif les
eor ological
ĠYanke es
ĠNiel sen
gov ina
ĠAsomtav ruli
ĠHerze govina
A C
E C
i j
m outh
n oon
r us
u en
Ġt enth
Ġa ster
in ian
Ġp ine
Ġp ounds
Ġm bar
Ġre vers
ou x
il ation
Ġfor ty
ol i
ĠB ible
im al
Ġst ood
ot ten
ĠW omen
ĠN L
ĠL ower
av el
ri or
Ġcom ed
if er
Ġsu re
art e
ud es
ĠK ong
Ġtr ust
ĠV e
ĠV eer
ign ment
Ġus age
ĠTh ose
Ġsc heme
Ġafter noon
Ġoff s
Ġcent ers
Ġfe e
Ġfe els
Ġcons ult
Ġchar ity
ĠDe an
Ġrele ases
Ġass isted
ĠShe l
ful ly
Ġsm ooth
Ġdown town
az ines
Ġconsid ering
Ġed ges
Ġ193 4
ĠCl in
Ġdr ain
Ġport rait
Ġappro val
Ġtri ple
ĠMc G
Ġinit iated
Ġamong st
Ġmag azines
Ġfr ust
Ġsound s
ĠGl ob
ĠAng lo
Ġlik ed
ĠBer lin
ĠJew s
ĠMad ison
Ġdefend ers
ĠCong o
Ġsubject s
Ġarchae ologist
Ġindic ating
Ġcer atops
Ġsat ell
ĠOver all
Ġtourn aments
Ġemer gency
Ġinn ov
Ġsus pended
ĠTenn esse
Ġbox ing
Ġtransl ation
Ġsuc ceed
ĠOrigin al
ĠIndepend ence
Ġsac red
Ġdut y
ĠGall ery
Ġcollabor ation
Ġalter ed
Ġpremi ere
Ġstrik ing
Ġphilos ophy
che ll
ĠAlf red
ĠMur ray
Ġresident ial
Ġeld er
born e
Ġfal se
Ġmart ial
ĠHou ston
Ġcong reg
ĠCorpor ation
Ġcommem or
ĠCelt ic
Ġaster oid
ĠTennesse e
c ake
o is
p ic
Ġt ale
Ġc ous
Ġf ert
Ġb od
Ġb ishop
Ġto ured
ĠA man
ĠA uth
il ty
ĠS AS
Ġl am
Ġn ations
am ount
ĠM ach
ĠB at
ot e
ut or
Ġcon clusion
ĠW ag
ĠN aval
ĠN DH
ag ine
ĠE sh
Ġch amber
se x
ĠK en
ĠK urt
ell ar
Ġro ots
ok o
ff ield
ĠOn tar
Ġ9 2
ĠMar iana
Ġfl ash
olog ies
Ġ0 9
Ġ10 1
ĠShe ffield
Ġob l
Ġpol l
Ġrece ives
Ġimp ressed
ĠFr an
erv ative
Ġvar iation
Ġgu ilty
ĠGr ade
Ġexpl o
Ġcolle agues
Ġ100 0
Ġcr isis
Ġreal ized
Ġcommun ication
Ġdel iber
ĠRoman ian
Ġorder ing
Ġnort heastern
ĠX enon
enc ing
Ġ190 8
ĠNe xt
Ġbattle cru
Ġredu cing
Ġfif ty
ĠSw iss
Ġrespect ive
Ġreve al
Ġcrew s
Ġreb uilt
Ġ187 0
Ġviol ent
Ġquarter back
ĠIm agine
Ġoccup ation
Ġtest ing
ĠAg ain
ĠPri est
Ġfrequ ent
Ġadop t
ĠFin als
ĠMount ains
ĠBel g
Ġsched ule
Ġrequest ed
Ġtalk ing
ĠHawai i
Ġmanufact ur
ĠCons ervation
Ġdefin ition
Ġdeliver y
ĠGi ants
Ġfat al
ĠVill age
Ġelimin ated
ĠCub s
bur gh
ĠRele ase
Ġsimultane ously
ĠWicc a
ĠCheval iers
ĠWag ner
ĠEsh mun
ĠOntar io
a it
d on
g ars
j amin
o es
t ah
y o
Ã §
nd a
Ġc up
Ġp ull
ro g
ĠA ce
ĠA BC
Ġn et
Ġn urs
ĠC P
el lect
ad ier
ĠM ant
Ġg ets
ĠB ah
Ġst rict
ĠH arrison
ĠP le
ĠR hys
ĠD ig
ĠD og
ĠD akota
ĠN S
ĠG host
ag anda
Ġse nd
ĠO reg
ĠO mar
Ġv ul
op les
Ġy ield
ĠSt av
Ġtr ick
Ġcomp onents
Ġint ellect
Ġcl in
Ġup set
Ġsp ur
ĠAn ne
ĠAs ian
Ġpe aking
ĠLe igh
Ġ0 2
Ġ12 3
Ġ15 5
Ġob vious
Ġrun ners
Ġoper ates
rap ped
Ġimp ression
Ġcar ri
Ġmat hem
ĠCar re
Ġmet re
ĠChrist ine
Ġhel ium
Ġvis iting
Ġref uge
Ġ192 3
Ġorgan ised
Ġsent ences
ĠPe ach
Ġshould er
ĠEv ans
ask i
Ġfif teen
Ġask s
Ġround s
Ġemploy ees
ĠHill s
Ġpot entially
Ġjob s
Ġnewsp apers
Ġkil ome
ĠBen jamin
ĠHawai ian
Ġrhy me
Ġwithdraw al
Ġmechan ical
Ġven ues
Ġinterp re
Ġmolec ules
Ġassass ination
ĠCa es
ĠAnc ient
ĠPul aski
ĠQueens land
ĠLab our
Ġcollaps ed
Ġcul min
Ġelabor ate
ĠEvent ually
ĠOreg on
P a
b a
x ual
Å Ĥ
Ġs ang
Ġo ri
Ġw el
at ropical
Ġd ies
ĠS S
ĠS n
ĠS em
ĠS and
ĠC ase
ĠC any
el ess
ĠM it
Ġg ust
ol n
ĠB anks
Ġst ores
ut y
Ġis ot
ĠP ow
ĠP rest
ĠR ace
ĠW ing
ĠN ar
ĠN ob
ĠL inc
ag od
um in
Ġr ide
ĠE ric
Ġv ice
Ġsu itable
ill iant
ap ore
ak u
ack ed
ine y
ĠCh arts
ra ia
Ġcont ribution
og y
Ġcl ust
Ġab ol
ang ular
ĠSe ction
Ġear ning
Ġrem ove
Ġac ids
ob ile
oh l
Ġsur gery
Ġ16 3
iet ies
ern on
Ġart istic
Ġexp ression
Ġconst ant
Ġadv ancing
Ġdam s
ĠPl an
ĠComm ons
ĠUS S
ĠChrist opher
Ġdirect ors
Ġclass ification
ĠTr ust
Ġconf lic
Ġkill s
Ġsent iment
Ġperson ality
ĠWe b
Ġrefer ring
Ġpar as
Ġpar ody
Ġtro uble
Ġfact ory
Ġstruct ural
Ġput ting
Ġsum m
ĠCor b
uck s
Ġval id
ĠSup reme
Ġcreat ive
Ġask ing
Ġren ov
atin um
Ġmach ines
Ġdi agn
Ġ183 0
ĠVal ve
ĠSing apore
Ġdro ve
Ġspace craft
Ġdisp ute
ĠWood house
Ġcompl iment
Ġbound aries
Ġdocument ed
Ġtransl ated
Ġinh ab
Ġextr atropical
Ġyoun gest
ĠKore a
Ġseek ing
ĠChild ren
Ġenvironment al
Ġcompar ison
ĠSor raia
Ġcolumn s
Ġtheat rical
ĠIsl amic
ĠSimilar ly
Ã¶ n
imet res
eke nd
ĠFound ation
ĠSis ler
ĠProg ram
ĠCany on
ĠLinc oln
G rom
I A
N C
N L
d ney
k rit
m ont
o ard
Ã ¸
Ġs ample
un es
Ġc ave
Ġf ishing
en ic
Ġin clusion
ing e
as hed
Ġto pped
Ġh ull
ĠT ogether
ĠS ant
Ġl at
Ġl ies
Ġl ibrary
ĠC red
ĠC ress
ĠC ullen
ac ruz
Ġbe am
ĠB ad
ĠB ab
ĠB idd
ĠH ans
et ime
ĠP f
ĠP ubl
Ġal t
ĠF ace
ĠD D
ĠD ie
ĠW here
ĠW ASP
ĠN ear
ĠN atural
ĠN ett
Ġan ekÄģntavÄģda
ĠL ud
ĠL ost
ĠJ ard
ĠJ ason
Ġr ising
od ore
Ġpl us
Ġk it
ĠK now
Ġnot ice
ĠCh ampions
Ġdis agre
Ġen zy
Ġspe nding
ug u
ind er
Ġprodu ces
Ġpr int
Ġsub mitted
Ġgr ay
Ġco ff
end en
ĠBr iggs
Ġcomple ting
Ġbr idges
ĠCon c
enn ium
by ter
Ġref lected
Ġtri als
Ġexpl ain
Ġorgan isation
Ġperson ally
por arily
Ġexper t
Ġbas es
Ġant hem
Ġtem porarily
Ġtw ent
Ġcommun ications
Ġsol ar
Ġrepresent ation
Ġprogram ming
Ġ190 7
Ġrev ised
Ġprofess or
Ġsw im
Ġsuper v
Ġfall s
Ġarm ament
ĠSy m
Ġcoll apse
ĠCo oper
Ġhon our
Ġremov al
Ġarchae ology
ĠVer acruz
Ġquest ions
ĠPri x
ĠPri ze
Ġbirth day
Ġsem if
Ġfavor able
Ġprep are
Ġ76 6
Ġpow ered
Ġsculpt ures
ĠLouis iana
ĠSpec ies
Ġbattles hips
ĠFurther more
ĠObs er
Ġvert ical
Ġencounter ed
Ġseg ment
ĠIng res
ĠChronic les
ĠTel ugu
ĠSans krit
Ġsatell ite
ĠBelg ium
ĠCress well
ĠBidd enden
ĠNett les
ĠJard ine
e ign
g ets
r act
t a
Ġ ï
Ġ ump
Ġs ailed
Ġw ives
Ġw ishes
Ġc hest
it ively
Ġf oss
Ġf itted
Ġb om
Ġb arr
Ġp hen
Ġh idden
ĠT ok
ĠS ony
el le
ur ally
ĠM ir
ĠB ald
ir ates
ĠD ers
ĠD ud
ul u
Ġhe m
ag ogue
ĠJ un
ew ise
Ġsh ares
ĠâĢ Ŀ
Ġtr u
ĠCh ron
Ġun iform
ie th
ans field
Ġj unior
over eign
Ġup graded
ĠY o
ĠY outh
Ġpre fect
Ġpre tty
Ġev ident
ens es
Ġme ters
Ġcan al
Ġpubl ishing
Ġind eed
Ġ0 3
Ġsur ge
ph oon
Ġmain land
Ġorigin s
ert o
Ġgener a
Ġrep air
Ġweek ly
min ster
Ġarr iving
Ġ192 2
Ġsl ip
Ġtrad ed
ves inje
Ġjoin ing
ĠWest minster
ĠX II
inc ial
Ġchart ed
ĠNe vesinje
ĠReg ister
Ġconv ention
ĠMag n
Ġhighway s
Ġarm ored
Ġbi ological
Ġnomin ations
Ġdiscuss ion
Ġobject ives
ĠSoc ial
Ġkeep ing
Ġcoin c
ĠAnt i
Ġinvestig ation
Ġboy s
Ġstrugg led
ĠEr nest
Ġple asure
Ġemphas is
Ġneut ral
Ġbelief s
ĠMic hel
Ġpul led
Ġaccompl ish
Ġcho ose
Ġassemb led
Ġupd ated
ĠJac ob
ĠCampb ell
Ġdemol ished
ĠAR VN
Ġemp ire
ĠSi oux
Ġunderw ent
how itz
Ġille gal
ĠPatty cake
Ġphr ase
ĠBenn ett
ĠClin ton
ĠAman ita
ĠDig ital
ĠDers howitz
ĠDud ley
ĠChron o
S P
b les
n els
r ich
t ropical
Ġa x
in ations
or able
Ġc ateg
Ġf usion
Ġf asc
Ġb are
Ġp ion
Ġp ace
Ġp ages
Ġd ict
ĠT ony
Ġth rew
Ġl anes
ĠC ater
ac re
ac les
Ġbe ings
ĠI an
iv ated
ol ithic
ĠB or
ĠB uilding
ot te
ĠP ohl
Ġwh ilst
Ġal ph
ĠW ander
ĠL et
ers ed
Ġse ct
Ġsu it
Ġch rom
Ġex port
Ġsh ift
Ġsh orter
ĠU nd
Ġun lik
Ġun named
Ġro tation
Ġcl ay
Ġab ilities
Ġres olution
ĠAl b
Ġdis band
Ġfin ale
Ġfe eding
Ġpe oples
Ġass ess
Ġqu ant
Ġ17 0
ĠInd ones
ĠZ anz
Ġwar n
Ġcar ries
ah o
Ġadv ice
ĠEu rop
Ġpublic ations
ĠCan ning
Ġmar gin
Ġevent ual
Ġpresent ation
ĠWe ir
Ġstar ring
ĠWith out
br ace
ĠCount ry
Ġprof it
ĠPark s
ĠJack ets
Ġtour ist
ĠMag ic
Ġfac ility
Ġredu ction
ĠKe ith
Ġstri p
ĠSw itzer
Ġelect ron
Ġ186 1
Ġmer ely
Ġ36 0
Ġcertain ly
Ġdaugh ters
Ġpercent age
Ġcontroll er
Ġrecover y
Ġarchitect ural
ĠCharl otte
ĠColumb us
Ġneigh b
Ġsout heastern
Ġpun ishment
ĠDef ense
Ġillust rated
Ġmeasure ments
Ġadvert is
ĠArgent ine
Ġagg reg
ĠUs her
ĠSwed en
Ġconvers ation
Ġreform s
ĠId aho
ĠKir k
Ġnegot iations
Ġsurre nder
Ġcinem a
ĠAbb ey
Ġappoint ment
ĠWW F
Ġib is
ropol itan
ĠâĤ ¹
Ġneighbor hood
Ġenth us
ĠCaes ar
ĠMit chell
ĠPrest on
ĠWander ers
Ġunlik ely
ĠZanz ib
ĠSwitzer land
T ube
a ired
f ather
h ang
u art
v ant
y ram
Ġt ub
Ġt elling
in ction
in Ã¡
Ġs q
at ically
Ġc otton
ar ant
Ġm ines
Ġd uration
Ġh osp
le ton
ĠT ales
ou st
ĠS ab
ĠS ign
ac ter
Ġon wards
Ġon going
ur st
ĠM ain
Ġg ap
Ġfor th
ĠB ird
ĠB ush
Ġst ellar
us ic
ot es
ĠP ak
ĠF le
ĠF reak
ĠD over
ĠD ahl
ĠW N
ĠN on
ĠN el
Ġan ime
ĠJ en
od rom
Ġv s
Ġsu icide
ore n
op l
art ney
Ġch ain
Ġch icks
ĠU pp
ĠK y
ĠSt uart
ish ops
ia o
so ft
ĠHe alth
Ġrec all
Ġoff ering
Ġen emies
ĠY ellow
ose xual
ens ions
Ġthem ed
Ġac ute
Ġbu y
Ġsupp lement
Ġent ertain
Ġdec isions
Ġ11 7
Ġsign s
Ġbr igades
emb ers
ĠIs esi
Ġadv oc
Ġstr ing
ĠCar mel
ĠHer ald
ĠHer itage
Ġgu id
ĠChrist ians
ĠFe el
Ġconf ront
Ġcontr ad
Ġcontrol s
ĠPar amount
Ġhistor ically
Ġsignific ance
osp el
ĠAm b
Ġtoo th
Ġgen etic
Ġread er
Ġtrav elled
ĠYou Tube
Ġhelp ing
Ġfac il
Ġprofess ion
Ġclos ure
Ġcirc le
Ġ35 0
Ġwid er
Ġdev ast
ĠMad ero
Ġill ness
Ġreb ell
ĠMcC artney
ĠIm m
ĠEver ton
Ġadap t
ĠBel gian
Ġbatter ies
ĠTw enty
ĠInter change
ĠDel aware
Ġmagn etic
Ġelev ation
Ġcerem on
Ġpattern s
Ġagg ressive
Ġwa iting
ĠNaz i
Ġmob ile
ĠGard ner
ĠProv ince
ĠAlbert a
Ġdepict ing
Ġpregn ancy
Ġgrav ity
ĠHo over
ĠLess ing
ĠWalk er
Ġdisapp oin
Ġaccompany ing
ĠTon inÃ¡
ĠNad al
ĠCred its
ĠUpp er
b ra
e an
f ace
i y
w ater
w ick
w here
Ġw ish
Ġc ategory
Ġto m
Ġd iver
Ġh ook
ĠT ax
ĠA T
ĠS in
st ar
Ġl iqu
ĠM k
ĠM un
ol ia
ter ed
ĠB ow
Ġst ock
Ġst ead
her ry
ĠR om
ĠR ivers
ĠF em
ĠF if
ĠD isc
ĠL as
ĠL ane
Ġr iding
ri k
Ġsu p
ard ed
Ġex clud
Ġsh irt
ĠK ate
Ġtr apped
ĠHe art
ime ter
Ġper mission
Ġj ury
Ġsp ots
Ġen cl
Ġshe ar
ĠSe attle
Ġac ycl
rop h
ars h
Ġgr ave
Ġsy mp
ern e
Ġsign al
Ġter rain
ĠAll osaurus
Ġprom in
ĠAd ela
ĠAnd re
ret t
Ġcommand s
Ġcommand ers
Ġrequ ires
ĠMc E
ĠPr iv
Ġsimilar ly
itar ian
ĠPer form
Ġfre edom
ĠCent re
Ġ190 2
Ġdestroy er
Ġ189 5
Ġval ues
Ġclos ing
Ġhy g
ĠCr usad
Ġra ising
ĠSy dney
ĠMad onna
ĠKh an
Ġdon ated
Ġexec ution
Ġindic ates
Ġemb arked
Ġpair s
Ġparen t
Ġgirl s
Ġpolic ies
Ġsearch ing
ĠCrit ics
Ġplat oon
Ġconcent rated
Ġprin ted
Ġprepar ing
Ġunivers ities
Ġconnect ing
Ġconvers ion
ĠObs erv
Ġfarm ers
ĠHead quarters
ĠLeon ard
Ġaim ed
Ġdub bed
Ġexact ly
Ġdoct rine
Ġaccur ate
Ġdecor ated
Ġhydro gen
pent er
ĠArk ansas
Ġcanc elled
Ġfundament al
ĠStav anger
Ġconflic ts
Ġphen omen
Ġacycl ic
ĠAdela ide
b ound
c our
d ream
h an
l ock
o om
x ic
Ã £
Ġw ore
Ġf les
is le
Ġb ore
Ġin fer
Ġin ning
an ag
Ġto uring
Ġm ental
ro se
Ġd ense
Ġd anger
Ġh Pa
le e
Ġre op
Ġre aches
Ġn ave
Ġbe ars
Ġbe ating
Ġbe ats
ĠM aur
Ġg ift
ĠH ugh
ĠH NC
ĠP anz
ĠR ick
ĠF ood
ĠN av
Ġan ch
Ġse ats
Ġr ushing
ĠE ight
Ġpro sec
ĠIn tern
ate ver
ip es
ian g
ĠV ic
Ġab road
ok en
ff ling
pl ed
Ġj ew
Ġover t
act ive
Ġev olved
oy d
ĠMar s
Ġpos itively
Ġinter cept
Ġapp rec
ĠLe eds
Ġ0 1
Ġ12 5
Ġcap s
Ġback ing
Ġtrans mission
Ġcontin ental
Ġoper as
Ġcharacter istic
ĠChrist i
Ġph one
ĠMc D
Ġfew er
Ġcr ash
Ġstrong est
ĠAb d
Ġsol ution
ĠDes cription
Ġdet ected
Ġaff il
ĠPol it
Ġfriend ly
Ġsk et
Ġten ure
Ġball ad
Ġfun ctions
ĠCor pus
Ġrank s
ĠMor gan
gr ad
Ġanim ated
ĠSer bs
ĠHar ry
ĠDay dream
thod on
Ġcivil ians
Ġwithd rawn
Ġ184 0
Ġfail ing
ĠDon ald
ĠAngel ou
ĠJer emy
Ġtemper atures
Ġcred it
Ġcred its
Ġunc lear
Ġcounter p
Ġlog ic
ĠBoy s
Ġsev ent
Ġpil ots
ĠSur vey
Ġpurs uit
Ġintern ation
ĠFranc is
ĠHawai Ê»
Ġcompos itions
Ġnin et
ĠBook s
Ġhar bour
Ġqual ified
Ġstep s
Ġprison ers
ĠNight ingale
Ġmel ody
Ġmolec ular
Ġmount ains
ĠDer ffling
Ġsole ly
ĠFall s
Ġinteract ions
Ġwick ets
ĠBroad way
Ġsle ep
Ġwealth y
ĠWy oming
Ġleuk emia
ĠWat son
Ġsym pt
Ġveget ation
ĠBul gar
ĠHung arian
Ġmaint aining
ĠEc cl
Ġash ore
ĠFernand ez
ĠTig ers
Ġverte x
Ġtiss ue
ĠDyn asty
Ġcous in
Ġfles h
ĠPanz er
ĠIntern et
ĠHawaiÊ» i
ĠDerffling er
b ing
e qu
f ra
h ire
i ac
p o
p ower
y gen
z ong
Ġ id
Ġa cted
re hens
en ger
es ters
Ġin her
al f
ing ray
Ġd ual
ent le
ĠA ctor
st reet
om ic
ĠC O
ĠC ricket
Ġg aining
ĠB orn
ĠB arn
ĠB atter
ow s
ĠH op
ay a
ĠP oly
ĠR ap
ĠD ub
ĠW elling
ĠW itch
ĠG ot
ĠG ael
ĠL iving
ĠL ibrary
est yle
Ġch ampions
Ġpl atinum
ĠU tah
ĠK ody
Ġcomp ens
Ġcl othes
ĠHe avy
Ġper mitted
ect or
ect ive
ĠAl most
Ġdis rupt
ult an
Ġev olution
oy le
Ġass embly
Ġam ph
Ġsur prise
Ġ10 5
Ġnumber ed
ten ance
Ġ12 7
Ġ16 8
Ġ11 4
Ġbr ain
Ġob tain
ĠMay a
ĠZ oo
az a
Ġsuccess ion
Ġsuccess ive
ĠAd minist
Ġrest ore
Ġincre ases
Ġreview ed
Ġhand ed
elt own
Ġstar ter
Ġcover age
Ġant icip
ĠRoman ia
Ġ190 3
ĠNe il
Ġgood s
Ġcou gars
Ġide al
Ġcy t
Ġoccur ring
Ġrev ival
Ġident ify
Ġanim ation
Ġ188 9
Ġmeas uring
ĠArab s
Ġheav ier
Ġcru isers
ĠYear s
Ġobserv ation
Ġconsist ent
ĠBrad street
Ġserious ly
ĠTre es
Ġtar gets
Ġrein forced
ĠAnt imony
Ġgrand father
Ġlif etime
Ġwalk ing
Ġox ygen
Ġparliament ary
ĠSor a
Ġbeaut y
Ġvirt ually
Ġbow ling
ĠJurc hens
ĠCy rus
Ġowners hip
Ġpregn ant
Ġreleg ated
ĠTransport ation
ĠBase ball
ĠBed ell
Ġappropri ate
sch ild
ĠHamp shire
Ġadministr ative
Ġphotograph s
ĠRoth schild
ĠAuth or
ĠMant ell
Ġinterpre ted
ĠXII I
yram id
fra id
ĠWelling ton
ĠGael ic
C U
j o
r as
w orth
in us
Ġthe rap
Ġs ings
Ġs ized
un ch
or i
Ġc ode
it ia
Ġf ame
Ġf ault
en ous
Ġb on
Ġb an
ar ation
Ġto urs
Ġto ler
Ġm ir
ro us
ic ul
Ġh ills
ĠS on
ĠS et
st al
Ġl augh
Ġl oud
Ġn aming
ĠC as
ĠM ix
ĠI OC
Ġg ar
Ġg ang
ol ve
ĠP C
ĠP ot
ĠD S
ĠD ot
ĠD ram
ĠD ata
ĠN at
ĠL ooking
Ġse ized
Ġr id
Ġr ains
ĠO ak
ĠE g
ĠE conom
ĠE tty
ud o
ĠK au
ĠK Åį
ost er
orm al
Ġad min
Ġper ceived
Ġag ency
Ġman ip
Ġj et
act s
Ġatt itude
Ġfe ud
Ġ8 3
Ġcan cel
Ġreg istered
Ġdo ctor
Ġgr ade
Ġback ed
Ġdif f
Ġcontin uous
Ġrun way
Ġdep iction
Ġdown stream
Ġdist rib
Ġinf ection
Ġsix teen
Ġvar ied
Ġgu ides
Ġhel ps
ĠTr istan
ission ed
Ġbelie ving
ĠGr ace
ĠRo om
Ġexpl icit
Ġeng agement
Ġcapt uring
ĠMan uel
Ġ23 0
Ġauthor ized
Ġsit ting
Ġrepresent atives
Ġball s
Ġpit ching
Ġpromot ional
Ġrev ived
reg ular
Ġcomment ing
Ġaud ition
Ġarm ies
Ġflood ed
ĠChristian ity
Ġexc ell
Ġgold en
ĠIm port
Ġhous ed
Ġ184 9
ĠColle ction
Ġparticip ate
Ġblock ed
ĠStud ies
leg raph
Ġsyn agogue
Ġaut om
Ġdisp at
Ġvot es
Ġunderst ood
Ġhero es
Ġhabit ats
Ġsecret ary
Ġconstit u
Ġquestion ed
Ġsubs id
Ġtask ed
Ġsport ing
Ġchampionship s
ĠCont em
Ġreact ions
Ġir regular
ĠHal o
Ġdepart ed
ĠPalest inian
Ġresemb le
ĠUl t
ĠCold rum
Ġham per
ĠOh io
Ġpuzz les
Ġpound er
ĠML B
Ġsudden ly
ĠRhodes ian
Ġbal ance
Ġdispl aced
Ġproport ion
ĠJoy ful
Ġclo thing
Ġmanuscript s
ĠMarg aret
Ġannounce ment
Ġbod yline
Ġkilome ters
Ġhosp itals
Ġentertain ment
c over
i ad
k Ã¶n
re p
Ġw olf
Ġb anks
an ville
Ġp ap
Ġp istol
Ġd od
ĠT it
ĠA A
ĠS ay
ĠS hip
Ġe ch
ĠC ant
ĠC ome
el oc
ĠM ort
ĠI owa
ter ior
ĠB Ã
ĠB uck
ĠB apt
th ren
Ġst im
ĠH annah
ĠP an
ĠP ur
ĠP rom
ĠP ier
ĠR Ã¤
ĠD or
ĠD ick
ĠD ennis
ĠW ik
ĠW restling
ĠW rapped
ĠN M
ĠG round
ĠL ist
ag en
Ġse w
Ġr ays
ĠE xt
Ġv ir
Ġcomp onent
Ġcomp ilation
Ġher d
Ġcl er
ĠHe b
ond heim
Ġsc ar
Ġsc orer
ric ts
ĠRe b
ĠDe ep
Ġfl ies
Ġno ble
Ġqu een
Ġacc um
Ġco aching
Ġep ic
Ġmain stream
ĠShe ll
Ġ17 4
Ġdist ances
Ġdist ricts
anc hes
az er
Ġpass ion
ĠBl u
Ġmet all
Ġed ited
ash i
ik kÃ¶n
ĠTr ondheim
Ġappro aches
Ġref ere
Ġrepl ied
Ġarch bishop
Ġvict im
Ġ24 0
Ġaff airs
Ġfact or
Ġpri ze
ĠMor ning
Ġlack ing
Ġve ter
ĠMon key
Ġindust ries
ming ham
Ġrul er
Ġz omb
ĠMcC ar
ĠSl ayer
Ġmem ories
Ġarrang ements
ĠCamp aign
ĠFore ign
ĠSk y
ĠSk inner
bar ian
Ġdepend ent
ĠInter state
Ġkick off
Ġtouchdown s
Ġsal v
ĠHait ian
Ġresc ued
Ġcandid ates
ĠNC AA
Ġroll er
Ġfle w
ĠBir mingham
Ġteacher s
Ġshr ine
Ġcompr ised
Ġfast est
ĠCre utz
ĠGreg ory
bl azer
Ġaer odrom
Ġundert aken
Ġdisturb ance
ĠHon or
Ġvic inity
ĠHell blazer
Ġstrateg ic
Ġabsor bed
ĠBos n
ĠPalmy rene
Ġtick ets
Ġrestrict ions
ĠStal ey
Ġmyst ery
ĠVe gas
Ġmathem at
ĠTok yo
ĠZanzib ar
ĠEccl estone
ĠRÃ¤ ikkÃ¶n
ĠRÃ¤ikkÃ¶n en
b ook
f e
l a
p ir
p se
w an
z ona
¬ nh
Æ °
Ġt rough
Ġt alent
in i
in ness
er m
Ġw orn
at hered
Ġc rick
Ġc raf
Ġf ru
Ġp p
Ġp unt
Ġm ac
ro t
Ġd a
Ġd ust
Ġd iamond
Ġh ur
ĠT ree
Ġre ag
ĠA ub
ĠA ges
ĠC it
ur as
ur ance
ĠM ack
ĠM oon
ĠI v
Ġg or
ol ence
im er
ĠH air
ot ed
ĠP am
ĠP ole
ĠR ul
ĠF ul
ĠF ather
ĠD od
ĠD oo
Ġat op
rom et
ĠN ine
ĠL ad
ĠL ind
ĠL iter
Ġhe aring
Ġse nding
Ġr ig
od ed
Ġv ital
Ġab oard
Ġad mir
ĠTh ak
are st
ach ute
we gian
Ġspe aker
ens ively
oin ts
ĠRe agan
ild a
als a
vel and
Ġrel atives
Ġcons ent
ĠMar ie
Ġfour teen
Ġloc ally
Ġpo le
Ġpo ets
ĠSh im
ĠSh adow
Ġpop ul
Ġmain tenance
ĠBr ight
Ġmin ers
Ġbr ut
Ġbr illiant
emb le
ĠIs le
ĠZ agre
Ġmat ters
Ġins urg
ĠPl aces
Ġconc ession
Ġdr inking
Ġext inct
Ġext ensively
ĠTr ue
Ġjust ice
Ġopp osing
Ġmed al
ĠÂ µ
ĠMc M
Ġmy ster
Ġmemb rane
lu ence
Ġbeh alf
Ġcur ved
Ġ190 1
Ġ190 6
fic ial
Ġgen es
ĠFeder ation
Ġpra ising
arr is
isc us
ĠHigh land
Ġred es
hem ical
Ġtre nd
Ġaud io
ĠEx per
Ġarg uing
Ġcut ting
Ġhit ting
Ġterrit orial
Ġmach inery
Ġbusiness es
Ġesc aped
Ġpen et
Ġtravel ing
Ġchap ters
Ġarchae ologists
ĠSing h
Ġden omin
ĠTom my
gu ard
Ġobserv atory
ĠMet eorological
Ġconsist ently
ĠQu iney
Ġbomb ing
Ġmarket ing
Ġconcept s
ĠNor wegian
Ġ181 9
Ġpup pet
Ġexhib ition
Ġrequire ments
Ġunivers e
ĠSen ator
Ġfrag ment
Ġwa it
Ġextend ing
Ġpict ures
Ġbats men
ĠMatt hew
Ġagricult ure
ĠCambod ian
Ġexclus ive
ĠBru ce
Ġlabor atory
ĠRet urn
Ġsurre nd
Ġaer ial
ĠAri zona
ĠKenn edy
ĠArchae ological
ĠCle veland
Ġlin er
Ġrub ber
ĠHug hes
Ġju ven
ĠHob bs
Ġrecur ring
Ġconj unction
ĠProfess or
ĠBeet on
ĠCorb et
Ġcompliment ed
Ġtub es
Ġcrick ets
ĠZagre b
C W
P A
g ers
i ography
i Ã¨
i Äĩ
n g
r ad
t ical
z o
Ġt aste
in aw
er ies
Ġs qu
un a
or age
Ġc osm
Ġf aster
Ġf ulf
es h
Ġp ushing
Ġp yramid
Ġm and
Ġh app
Ġre per
Ġre cept
Ġre ven
Ġre venue
ĠA f
ĠS ox
Ġl ad
Ġl iv
ĠC ond
ĠI A
Ġg ene
ol in
ig er
Ġst ick
ĠH ong
ĠH urricanes
ĠP agan
ĠR a
Ġal ive
ĠF ut
ĠF iles
ĠD ance
ĠD oyle
os ity
ĠN ASA
ĠG ill
ĠL am
ĠL iao
ĠJ oint
Ġde als
Ġr acing
ĠO w
Ġex ceed
ĠK yle
ĠSt ars
Ġtr ains
Ġtr ails
cl es
ĠCh ampion
og ram
Ġus ers
Ġus ual
Ġab use
ĠAl g
over y
Ġsp awn
Ġen orm
ace ous
Ġshe ep
Ġcomm enced
Ġall ocated
Ġwe ekend
ens is
Ġcent imetres
rib i
ĠRe ines
under st
Ġcan on
ĠMar ge
ĠCom edy
Ġac oust
Ġapp ly
Ġdec omm
Ġpres ents
ph rey
ĠJohn ny
Ġbr and
Ġcould n
Ġoper ational
Ġprov incial
Ġmat ure
Ġsim pl
Ġadv ised
ĠCar penter
ĠPl ateau
Ġgovern ments
Ġgu ide
ash a
ĠGu ine
Ġtrack ed
Ġexpl ore
Ġexpl oration
Ġsug ar
ĠMc N
Ġleg acy
Ġcour ses
Ġmy self
Ġprop aganda
Ġ22 0
Ġ26 1
Ġstat ements
ĠAtl Ã©t
Ġ189 7
Ġrock s
rie ved
Ġpred icted
Ġlack ed
ĠSer b
Ġhost ile
ĠPart ington
Ġdev ice
Ġmot if
Ġ187 8
ĠEgypt ians
Ġinvest ment
Ġz inc
Ġpers ist
Ġtransport ed
Ġpen insula
Ġtest ed
Ġpresident ial
Ġexam ination
ĠOper a
ĠOper ations
ĠFin ally
ĠHol oca
ĠJust in
ĠSix th
ĠHum phrey
Ġbeat en
Ġneigh bour
ograph ical
ĠCommun ity
ĠJos Ã©
Ġven ue
ĠBre nda
ĠPop ular
ĠWork s
Ġhor iz
ĠKenn eth
Ġhousehold s
ĠUr ania
ĠLuc as
ĠArchae ology
Ġimmig ration
ĠFlow er
Ġpartners hip
Ġindig enous
ĠLoc al
Ġrenew ed
Ġconsc ious
Ġfuner al
ĠVul can
Ġconsol id
ĠGlob e
Ġintellect ual
agod a
Ġtwent ieth
ĠEurop a
ĠKy ra
Ġtom bs
Ġstead ily
ĠContem porary
ĠAtlÃ©t ico
ĠHoloca ust
C O
E S
R NA
f ly
j oin
m brace
r ÃŃ
u ters
u ating
z z
» ¿
in ted
in cess
Ġs oci
Ġs now
Ġw re
Ġw ard
Ġc emetery
it ely
Ġin g
ar ro
al og
as m
Ġm ate
Ġm ood
ĠT u
ĠT en
ĠT rophy
Ġre ward
Ġl umber
Ġl umin
Ġe ating
ĠC art
ĠC ass
ĠM ong
ol m
ol t
ĠB al
ĠB oss
ir ts
Ġst yl
ĠH ay
ĠH ockey
ut her
ĠP irates
and ra
and ern
ĠG raham
ĠL Ã¼
Ġse as
ri arch
Ġcom fort
Ġpro ceeded
if eng
ap le
igh ters
Ġpl ed
Ġpl ate
Ġpl acing
Ġk id
ge nds
Ġcomp rom
Ġun rest
og an
hed ruli
ub les
ĠV andern
ĠTh ai
Ġ18 00
Ġj aw
Ġoff shore
Ġen force
Ġcan als
Ġcons um
Ġass ert
Ġspec ulation
Ġac re
Ġret ain
Ġacc eler
Ġam id
Ġco ok
end ed
Ġsing ers
Ġ16 9
Ġstud ying
ĠBr ack
Ġdevelop ers
Ġmay or
Ġcomple ment
Ġdist ant
ĠAust rian
ty m
Ġwar ned
Ġrep airs
Ġair ports
Ġconst antly
ĠCol omb
ĠCl oud
Ã© e
ĠGu ild
Ġport s
Ġport ions
Ġvis its
Ġappro aching
Ġtri o
Ġsl opes
Ġstory lines
Ġmark ing
ĠPr incess
ĠBo x
ĠComp uter
ĠComp osition
ĠComp anies
Ġmag ical
Ġsit u
Ġreported ly
Ġobs c
ĠAfric aine
ĠChar mbrace
Ġcor por
Ġconv entional
Ġpri ests
ĠGl anville
Ġval uable
Ġarg ument
ĠCr ash
Ġvol umes
Ġfund ed
ĠPlay ers
ĠPhil ipp
Ġthreat s
Ġlo ad
Ġpers ons
Ġbreak s
Ġminor ity
ĠAg ency
ĠSuper man
Ġhom osexual
Ġaut ob
Ġaut umn
ĠOff ic
aby rin
ĠFrank lin
ĠRuss ell
Ġcelebr ate
awn y
Ġtalk s
Ġsexual ity
Ġconcent ration
Ġvo ices
Ġconne ctions
ĠLl oyd
ĠAlf a
Ġchalleng ing
ĠVill aret
Ġflag ship
ĠKa ifeng
Ġcalc ulated
Ġspons ored
ĠMov ie
Ġquot ed
Ġign ored
ĠLanc aster
Ġinaug ural
Ġinte gr
Ġexha usted
Ġabsol ute
Ġtribut aries
Ġdens ity
ĠCec il
orrow ed
Ġinse cts
Ġcondem ned
ĠBanks ia
Ġï »¿
Ġalph ab
ĠMk hedruli
ĠNav arro
ĠCant rell
ĠBapt ist
ĠHeb rew
ĠVandern oot
ĠCharmbrace let
abyrin th
V P
b ow
f eller
g ud
h t
n all
r h
t z
z hou
Ġt orn
re ens
Ġw aves
at um
Ġb eds
ar ia
ar ged
Ġp ig
Ġp ink
Ġto xic
ic ians
Ġd ying
Ġh i
Ġh ind
ĠT ong
ĠT ide
Ġre un
il is
ĠS ina
ĠS ultan
Ġn om
Ġn ut
ĠC ad
ĠC irc
ĠM ission
ĠM VP
ĠI mp
Ġg athered
ol ics
ĠB illy
ig ious
Ġst all
ĠP up
ĠR aid
ĠR af
ĠF ried
ĠF arm
ĠD ress
ĠG iel
ĠL t
ĠL amb
Ġhe ir
Ġr ivals
ĠE le
ĠE ch
ĠE ve
Ġv enture
ĠIn vest
ap ol
oc ent
Ġsh ield
Ġle ct
ĠSt ill
Ġtr unk
Ġun less
Ġcl ergy
Ġres id
pl ace
Ġsc r
Ġsc reens
Ġman age
Ġover s
Ġsp ore
ib ilities
ke feller
Ġfin est
Ġpre st
Ġatt orney
Ġcent ered
rib le
ĠSe v
ĠSe ven
Ġkn ocked
ĠAr n
Ġcons umption
Ġunder go
Ġcol ours
Ġno ise
Ġbu oys
ĠLe ices
Ġdo zen
any a
Ġsur pass
Ġ10 6
Ġdec ide
Ġpres erve
ĠBr istol
Ġmon it
Ġmin i
Ġsm oke
Ġship ments
ued oc
ĠIs les
ĠAust ro
ĠAust ria
rap ping
ĠCon n
Ġair field
Ġpass ages
ĠBl ues
Ġed it
Ġvar iations
ĠCl ocks
ĠAd ult
Ġdr ivers
ĠYork shire
Ġmar ch
Ġprog ressed
Ġhum or
Ġcolle ctions
Ġleg it
Ġrepl acing
Ġtrad itions
Ġsimilar ities
Ġsold ier
Ġroad way
Ġpolit icians
Ġstrong er
Ġ190 4
amb o
Ġcor ps
ĠEl gin
Ġtrav els
Ġgrow s
Ġimpro vement
ĠBer ht
Ġcirc uit
ĠCommand os
Ġdeter ior
Ġly rical
ĠSm all
Ġphys ics
Ġgrad uate
Ġmem orable
ĠCath olics
Ġflow s
Ġhop ing
ny i
Ġinterse cts
Ġsal ary
Ġess entially
Ġemot ions
Ġtask s
Ġdyn amic
ĠAv iation
Ġperman ently
Ġdu o
Ġbelong ing
claim ed
Ġfrag ments
ĠLar ry
Ġdevot ed
Ġimag ery
Ġtim ber
ĠUl ster
Ġreflect ing
Ġham let
Ġoccas ional
Ġmo ist
Ġstret ched
ĠRon ald
Ġvert ices
hu a
ĠQedar ites
Ġrepeated ly
Ġexperiment al
Ġwick et
ĠBh air
ĠGang es
Ġpuzz le
Ġlov ed
Ġpros pect
Ġindig o
Ġur ged
Ġsan ct
Ġjackrab bit
ĠRoc kefeller
Ġdivor ce
Ġdipl omatic
Ġcooper ation
Ġteamm ate
ĠLover boy
ĠLang uedoc
ĠMach ine
Ġtru ly
ĠFreak um
ĠWN O
ĠNel son
ĠPerform ance
iad uct
ĠAub urn
ĠRul er
Ġmyster ious
Ġsurrend ered
ĠSina i
ĠGiel gud
ĠLeices ter
ĠBerht wald
E A
e velop
g ans
i i
k er
k ner
l ights
m ad
o ided
v ada
Ġ urg
Ĩ Ĵ
Ġt ort
Ġt ape
Ġa th
Ġs ic
Ġs ibl
Ġs acked
Ġc ards
en ar
is p
Ġin tend
Ġp in
as hes
Ġto ols
Ġd ressed
ĠS out
Ġn avy
Ġn aked
am ation
ĠC ov
ĠC ret
ĠM ond
Ġg arn
ĠB M
ir ty
Ġas cend
ig a
ig adier
ow ed
Ġst ability
Ġst anz
ĠH ur
ĠR over
ĠF ast
ĠF aul
ĠW ant
os y
ĠG ack
ĠL oy
ĠJ ag
ĠE p
ak im
Ġâ ĨĴ
Ġsh arp
Ġsh allow
ĠâĢ ¦
ĠU k
ĠK le
ĠK ings
ip itation
Ġcomp an
ra its
Ġun ex
ub s
ĠV ik
Ġad equ
Ġsc enar
Ġj unction
Ġsp an
Ġim perial
ens on
iss ions
Ġkn ock
ict ions
ĠDe vin
Ġend ors
ĠLe ban
ank a
Ġgr ain
Ġgr ap
Ġ0 4
pen se
ph ant
ĠSc ots
Ġmin imal
Ġ11 6
Ġ11 8
Ġbro od
Ġland mark
az ing
ĠBe au
ĠTe legraph
Ġgu arant
Ġpublic ly
Ġdirect ing
Ġvers es
Ġconf usion
Ġdest ination
ĠWe ather
Ġdem on
Ġplan es
Ġplan ets
Ġav iation
Ġav oided
Ġmag ic
ĠBar barian
Ġinvol ves
Ġpost s
Ġgen u
ĠNe olithic
ĠNe vada
Ġlim its
Ġnight ingale
Ġfun ny
Ġsurv ival
Ġbattle field
Ġprocess ing
Ã¡ n
Ġ185 7
Ġbar rier
Ġaccept able
Ġce ased
ĠCr ab
Ġdraw s
ĠAct ress
medi ate
Ġemploy ment
Ġseem ingly
Ġviol ation
Ġop ined
Ġdeal ing
ĠMont real
ĠÃ Ĩ
ĠStud io
Ġscreen ed
Ġlink s
ĠMet ro
Ġcompl icated
ĠBrad man
Ġded ication
ĠForm ation
Ġkick ed
Ġamb assador
Ġang le
Ġboy friend
Ġess ay
ĠMill ennium
ĠJim my
Ġnarr ator
ĠDire ct
Ġfamil iar
Ġremark able
Ġmanufact uring
Ġdu et
Ġbattles hip
Ġopin ions
ĠLo ose
Ġtun nels
Ġperfect ly
Ġdevot ion
ĠRail road
Ġmyth ology
Ġhor ror
Ġsufficient ly
Ġton nes
ĠTra il
Ġevac uated
ĠBern ard
Ġdisappe ared
ĠAnton io
Ġreleg ation
ibl ical
Ġshif ted
Ġpric e
Ġsongwrit er
Ġaccommod ate
Ġprohib ited
ĠCult ural
Ġbombard ment
ĠYugosl avia
Ġsubst ance
Ġpredomin antly
ĠRobin son
Ġrect angular
ĠRem ix
Ġdrain age
ĠCP S
Ġisot opes
Ġbom bs
ĠMaur ice
Ġsympt oms
Ġamph ib
ĠMcCar thy
ĠShim omura
Ġenorm ous
Ġath lete
Ġsibl ings
ĠCret aceous
Ġgarn ered
ĠFaul kner
ĠGack o
C E
O M
b ox
c ut
h ar
i ors
s aku
w ight
y gh
z ed
¡ ng
Æ ¡ng
à ¸
Ġ ion
in ate
Ġs ick
Ġs aint
Ġs oph
Ġw rest
Ġc ash
Ġc ensus
Ġc avalry
Ġf ires
Ġb ull
Ġm g
ĠT ow
Ġre join
ĠA k
ĠS pe
Ġl ying
Ġe at
ĠC G
ĠC urt
ad stone
ur re
ĠM ile
ĠM ole
ĠI mb
ol ves
Ġst ingray
ĠH it
ĠH ip
Ġby pass
ĠR ag
Ġal g
ĠF ord
ĠF ull
ĠD a
ĠD wight
ĠW ed
ĠW isc
Ġit em
Ġr ushed
ri x
ĠE P
ĠE arn
ill as
ap ing
Ġpl ag
ant her
oc eratops
ĠU ygh
ĠCh an
Ġcomp rehens
Ġcomp uters
Ġher itage
ĠV ist
ach ment
Ġen roll
ĠY ang
Ġne p
Ġev al
Ġwe igh
Ġrem ind
ath y
ons in
Ġcol ors
ĠCom mer
Ġrele asing
Ġmov ies
Ġret ail
Ġsub ord
Ġpres byter
Ġpop ulated
ĠBr igades
Ġ17 2
Ġ15 4
Ġcontin u
Ġexp and
Ġwar fare
Ġimp osed
ĠCon stitution
ĠBe gin
Ġadv ances
Ġgovern ed
Ġvar ies
Ġvar iable
aim an
Ġhal ted
Ġdem anded
ady s
Ġexper ts
Ġreal ised
Ġcompet itive
ĠX ook
ĠX box
ĠAss y
ĠEd ge
Ġaff ord
ĠAir craft
aul ted
Ġlim estone
ĠGl adstone
Ġ185 4
Ġ185 6
Ġsw it
Ġmor ph
Ġimpro vements
ĠMon th
Ġelect rical
ĠRep resent
Ġcut s
ĠMed al
Ġdefend er
Ġcycl ones
Ġ184 8
ĠMont fort
ĠFilm ing
Ġparticip ants
Ġcal iber
ĠOff icial
ĠFI T
Ġlearn s
Ġsus pect
Ġopt ions
Ġlands cape
Ġweaken ing
Ġoffer ings
ĠJul ian
Ġaltern ate
Ġwalk s
ĠMal ays
Ġgrass es
ĠDef ence
Ġsac rif
Ġunivers al
ĠDest roy
ĠSen ate
Ġspot ted
ĠAp pe
Ġcollabor ated
Ġsens itive
Ġextend s
ĠPet e
ĠGard en
Ġchalleng es
ĠLiber al
ĠGab ri
Ġindu cted
Ġmic roscop
Ġhighlight ed
Ġpet ition
Ġlin ear
Ġimmig rants
Ġcab inet
Ġlic ens
ĠNap ole
Ġgend er
Ġsurpr ised
ĠTechn ology
Ġhyp othes
ĠNichol as
Ġhelicop ter
Ġrelie ved
ĠComb at
Ġdeliber ately
Ġvul ner
ĠPf aster
Ġdisband ed
ĠPak istan
ĠAT P
Ġsup reme
ĠWitch craft
Ġtherap y
ĠKÅį saku
ĠBÃ ¬nh
Æ° Æ¡ng
Ġacoust ic
Ġdecomm issioned
ĠImb udo
ĠWisc onsin
ĠEarn est
ĠBegin ning
a is
a ft
b its
d ale
g om
h alsa
l roy
p a
u erto
Ã ±
į mar
Ġt al
Ġt awny
Ġs weet
at ra
at hetic
Ġc attle
it ic
it ter
it uals
Ġf ier
Ġb en
an elli
an thodon
al iation
Ġp ed
Ġp se
Ġp ush
Ġm entions
ro oms
Ġd ancing
ĠT an
ĠT ell
ĠT otal
ĠA h
ĠA ut
ĠA ction
ĠS ite
ĠS af
ĠS MS
Ġl ie
Ġn at
am oul
ĠM embers
ĠM halsa
Ġg ri
ĠB elt
Ġas ide
ĠH arris
us kh
et heless
Ġis n
ĠP uerto
ĠR I
ĠR av
ĠF a
Ġcon vey
ul ating
ĠW orth
ĠN uskh
ĠG y
ag s
ag ers
Ġde er
Ġde alt
Ġr ape
Ġr ush
Ġr ituals
if est
ill er
ĠIn s
ew ork
oc ese
Ġsh ock
Ġy d
ĠK am
ĠK ick
ĠK atherine
ip er
ĠSt and
ĠSt akes
ĠSt rapping
oun ced
Ġint act
ĠHe in
Ġrec onc
Ġper ception
Ġbo il
land o
Ġplay able
ric us
Ġdis gu
Ġafter math
Ġen abled
Ġout standing
Ġkn ee
ĠEn ergy
ĠDe ad
Ġap artment
Ġpr on
Ġspec ulated
Ġqu it
Ġqu iet
Ġsub tropical
ĠLe vel
hes h
Ġadd ressed
Ġdesc ent
Ġinv aded
Ġtrans formed
ĠBr un
ĠSc out
Ġ11 5
Ġmil k
Ġadv entures
Ġmet ric
Ġhead ing
Ġgu err
ash ire
Ġprom ise
Ġext ant
ĠTr inity
ĠGu inness
Ġarr ives
Ġtri ang
ĠOr lando
Ġtem po
Ġcommun ist
Ġcompet ed
Ġdecl aring
ĠPar anthodon
omet ric
Ġpress ed
Ġdiv ines
Ġcast ing
ĠBlack ie
Ġlaw yer
Ġ189 4
Ġ189 8
ĠMor o
Ġcomment ary
Ġcas em
Ġ185 1
Ġrecogn ize
Ġestim ate
Ġ188 1
ĠBer gen
Ġflood s
Ġ183 2
ĠVar gas
ĠGreat est
ĠNot e
ĠMont gom
ĠÃ įmar
Ġanti qu
ĠTer ry
Ġexam ined
ĠLa ure
Ġflow ers
Ġpay ing
Ġlab our
ĠMa hesh
Ġportray al
ĠSur v
ĠHum pty
Ġattend ing
ĠColon ies
Ġcrowd s
ĠTod d
ĠReview s
Ġqual ifying
Ġexhib ited
Ġthir teen
Ġdissip ating
ĠFer d
ĠRh ode
ĠAp art
Ġconnect s
ĠPo et
Ġcompr ising
ĠNaz aire
ĠDer by
ĠKey s
Ġ73 7
Ġconcer ning
ĠRet rieved
Ġaltar piece
ĠGab bar
ĠTra ff
ĠBrazil ian
ĠGang anelli
ĠDar win
ĠWall ace
Ġvolunte ers
ĠKat ia
ĠPerson al
Ġnick n
Ġrecre ational
Ġpreced ing
ĠLanc ashire
Ġic on
Ġdivers e
esc ope
ĠPA VN
Ġinterpret ation
Ġoverwhel ming
ĠRaj amoul
ĠSid on
Ġreservoir s
Ġgust s
Ġcateg ories
Ġguid ance
Ġrebell ion
ĠTax onomy
Ġliqu id
ĠMcE lroy
Ġhyg romet
Ġinternation ally
Ġmetall ic
ĠÂµ m
ĠGuine a
ĠBrack nell
ĠNuskh uri
ĠMontgom ery
ĠRajamoul i
Ġhygromet ricus
A r
E D
a els
c ially
f ound
g ro
h um
j i
p at
Ġ Î
Ġa rose
Ġthe sis
re ated
Ġw ished
Ġw onder
un ning
at ters
Ġc am
Ġc akes
Ġf art
Ġb old
ar ius
Ġm ild
Ġd ad
Ġh ockey
ĠS ull
ĠS ax
ĠS NL
om a
Ġn ose
am an
ĠC N
ĠC admium
el ago
ad ic
ly n
ĠM es
ĠM oh
Ġg ra
Ġg entle
iv an
ĠB ou
ĠB ased
ĠB oot
ig on
us ade
ay ne
Ġal ignment
ĠF at
ĠD E
ĠD ÃŃ
ĠW ell
and om
ĠN EA
ĠG ross
ĠL iz
ĠL yn
ĠL oren
Ġde Grom
Ġv eloc
Ġch anc
se ason
Ġsh all
Ġle agues
ov il
our ce
ip elago
pt ion
ĠCh op
Ġwhe el
Ġro t
Ġint r
ĠV ishn
Ġcl ar
Ġab n
ire ct
Ġag es
Ġdes per
Ġdis lik
Ġte leph
ĠY am
Ġpre f
Ġsec ular
ĠAn aly
Ġcons ervative
Ġass erted
Ġinc urs
Ġind irect
Ġco at
Ġco aster
Ġent ert
ten e
Ġ12 00
Ġinv itation
Ġtrans its
Ġtrans cription
ĠSc and
Ġmin isters
Ġ11 1
Ġbr ings
Ġthough ts
Ġdisc ont
yl ogen
Ġimp ressive
ep ing
Ġins isted
ĠBe th
ĠCol l
ĠFor b
Ġbatt ing
Ã© d
Ġmar ched
Ġposition ed
ĠThere fore
Ġorgan ic
Ġreal istic
ĠBro ther
Ġdeb t
ĠPark er
Ġstat ue
Ġinvol ve
Ġwant ing
Ġfar ming
Ġfem in
Ġord inary
Ġlight s
Ġgen res
Ġdestroy ing
ĠBlack s
Ġtour ists
Ġprot esters
Ġrad ius
Ġsk ill
Ġtrav elling
Ġ189 1
Ġsw ord
ĠSw ord
Ġcommer ce
Ġcommer cially
ĠMon tene
Ġ188 2
Ġcirc ular
ĠCr im
Ġhost s
Ġdraw ings
Ġ186 5
ĠDay s
ĠMed ieval
Ġrespons es
Ġhon ours
Ġinterview s
Ġinterview ed
Ġz ones
Ġlo op
Ġeduc ational
Ġoccup y
ĠTer rorist
Ġens emble
Ġlay ers
ĠFin n
Ġscript s
ĠQu inn
Ġpath s
Ġconfir m
Ġprincip le
Ġang ry
Ġelev ated
Ġelev enth
Ġreact or
Ġtorpedo es
Ġrat io
Ġweak ness
Ġjump ing
Ġscholars hip
Ġmount s
Ġhonor ary
ĠDen mark
ĠLl osa
Ġelimin ate
Ġwitness es
Ġpul p
ĠMaria h
Ġplatform s
Ġdecre ase
ĠStew ie
Ġaccompl ished
Ġrevolution ary
ĠChronic le
ĠRay mond
ĠYe ovil
Ġorchest ra
Ġteach ings
ĠGib son
Ġdinosaur s
Ġloy al
Ġacknowled ged
ĠCob ra
rosaur us
Ġastronom ers
ĠMcL aren
Ġrever se
urrent ly
Ġsupern atural
Ġrevers ed
Ġbattlecru isers
Ġinhab ited
Ġcoff ee
ĠSym ph
Ġsemif inals
Ġpion e
Ġadvertis ements
ĠJen kins
ĠFif th
ĠBatter y
Ġhamper ed
ĠAlg ernon
Ġwre ck
Ġsitu ations
ĠRaf ael
apol is
ĠFast ra
Ġunex pected
Ġgrap hic
ĠSull ivan
ĠDÃŃ az
Ġveloc ity
a ude
h in
p ack
r ino
z es
Ġt ent
Ġa ided
in isc
Ġthe ore
on ation
Ġc u
Ġc ir
Ġc ens
Ġc ats
Ġf il
Ġf iled
is ons
Ġb orrowed
Ġp uma
as co
Ġm ast
Ġd awn
ĠT ai
Ġth rown
ent ine
ĠS yn
st able
st appen
Ġe agle
el d
ad h
Ġbe ak
ĠM ail
Ġg over
Ġg host
Ġg ospel
Ġfor g
iv ation
id el
ig ible
th ic
Ġst aged
Ġst abil
Ġst orage
ĠH om
ĠH em
ĠH osp
ot o
Ġwh atever
ĠD awn
Ġcon ce
Ġcon so
Ġcon form
Ġcon ceived
em en
ĠW u
os ph
ĠN i
ĠL ear
od ium
ri ors
ist ical
Ġv int
ill es
ĠIn side
Ġex terior
ĠK ah
ĠK arl
ĠSt aff
ost ere
ĠCh ang
Ġun stable
ĠV oyage
Ġdes ired
Ġsp elling
Ġsp okes
Ġcent res
ĠSe an
ts burgh
Ġfe ared
Ġrem inisc
ĠAr cher
Ġcons pir
ĠNew port
Ġmus c
Ġacc us
Ġfound ing
Ġbl amed
ĠJoh ann
Ġstud ios
ĠAfter math
Ġdevelop er
Ġdevelop ments
Ġ15 1
ĠInd ies
Ġter r
Ġdep uty
yl ostere
Ġeff icient
Ġsix ty
ĠBe ing
Ġwin ners
Ġadv ocated
erv es
ĠNorth umber
med e
ĠJan et
Ġlast ing
ĠFe z
Ġconf used
Ġprog ression
Ġsl ave
Ġmark ets
Ġph osph
ĠSp ir
ĠOr d
Ġdeb ated
Ġant agon
Ġtw ins
br ush
aly pt
Ġel ite
Ġdecl aration
ĠAm ylostere
ĠEd ition
ĠDav ies
Ġrad ar
Ġrad ical
Ġdiscover s
Ġ189 6
Ġentire ty
ec utive
ĠGl ass
Ġcampaign s
Ġcomment ators
Ġident ical
Ġagre es
ĠEx eter
ĠEx ecutive
Ġlack s
Ġce ase
Ġ186 2
ĠThom pson
Ġachie vement
Ġcost umes
ĠMary ang
Ġexc iting
cast le
ĠMed ical
Ġstay ing
Ġbill s
Ġpain ter
Ġpers isted
Ġop ens
Ġgrad uated
iff s
Ġparticip ation
Ġmem oir
ĠArt ist
ĠArt illery
ĠVer stappen
Ġfrequ ency
ĠGo at
Ġcoin ed
Ġfriends hip
Ġfocus es
Ġdeep ly
Ġbord ers
Ġbomb ers
Ġcounter att
Ġlog s
Ġjud o
Ġmur d
ĠBob by
ĠJam ie
Ġemot ion
Ġathlet ics
Ġvocal ist
Ġexhib it
Ġmess ages
Ġprin ting
Ġemphas ized
Ġbelong ed
Ġtarget ed
Ġfung i
bour ne
ĠAnn als
ĠPop M
ĠAtt ack
Ġfear s
Ġrestaur ants
ĠAthlet ics
ĠSha olin
Ġcamer as
Ġpropos als
Ġrend ition
ĠBru ins
Ġapplic ations
Ġsubmar ines
Ġplum age
Ġsail ors
ĠFre edom
Ġcorrespond ing
Ġaware ness
Ġaffect ing
Ġdrug s
Ġenl isted
Ġfair ly
ĠCampb eltown
Ġske let
Ġgather ing
Ġmut ual
Ġgall ery
ĠWolf pack
Ġpatrol s
ĠDur ham
iped ia
Ġrecru ited
Ġmerch ant
Ġfrig ates
ĠMagdal en
ĠBeh ind
Ġster e
Ġbind ing
Ġaggreg ate
Ġenthus i
ĠPriv ate
ĠAdminist ration
Ġbon us
Ġadmin istered
Ġdispat ched
ĠWik ipedia
ĠMcN ichol
Ġcomprehens ive
Ġnep hew
Ġgover ning
Ġconso le
Ġreminisc ent
ĠNorthumber land
b re
c ase
c oh
c hen
e ven
o thy
p ike
p oint
r ist
x im
z u
ã ĥ
Ġt ennis
he rent
in ster
Ġs aving
Ġo ribi
Ġc able
Ġb ron
Ġb oss
Ġin ver
al and
Ġp ose
Ġh arsh
ĠT uck
ĠT zu
ĠA way
ĠS ri
Ġl ig
Ġn ice
ĠC emetery
ĠM all
Ġfor b
ol ver
ĠB a
ig hed
ĠH ad
ĠH akim
et own
ĠP ok
ĠP ink
ĠR en
ĠR NA
Ġal coh
ĠF ear
ĠD umpt
Ġcon ven
Ġcon clus
ĠW ave
ĠW ells
ĠG en
ĠG uth
ĠG ao
est ed
ĠO t
ĠE ug
ĠE CU
Ġpro xim
res co
op ing
Ġor al
Ġch ances
Ġex ile
ĠK ub
ov ac
ast ed
ĠSt yle
ge on
oun ters
Ġbut t
Ġro ut
Ġsc ope
Ġsc ores
Ġdis abled
Ġj ur
Ġover come
iz ong
ib an
Ġout d
Ġne arest
Ġall iance
iss art
Ġcan ons
ick en
Ġinter vention
Ġpr ay
Ġfl own
Ġinc red
ĠLe inster
Ġdo ors
Ġgr am
Ġele phant
Ġ10 8
Ġdec is
Ġdec oration
ph y
aj a
Ġ16 7
ĠSh aw
Ġmin ing
Ġrep orter
ĠBl oom
ĠComm odore
ĠCl ay
ĠNorth west
ĠAd ri
Ġconf idence
Ġref uses
Ġexpl aining
Ġexpl ored
Ġbre ad
Ġbre eds
Ġhand le
Ġhand ling
ĠBo at
Ġsuggest ion
Ġcr usad
Ġdeb ris
Ġtot ally
ĠMin t
Ġless ons
Ġstat ues
ĠBar on
ĠPar achute
Ġeight een
Ġaff air
ades h
Ġintrodu ces
Ġhuman ity
Ġblack s
ĠReg iments
Ġcor rid
Ġmix ing
Ġ189 3
Ġ189 9
Ġsum mar
Ġcoast line
ĠCare er
ĠSec urity
ĠMor itz
Ġknow s
ÃŃ n
ĠOther s
Ġestim ates
Ġsex ually
Ġarg uments
Ġaccept ance
Ġround ed
Ġarm oured
Ġenc ounters
ĠSy ria
Ġ187 4
Ġcontract s
bor o
Ġsubject ed
Ġwood land
Ġpoet ic
Ġguitar ist
Ġfocus ing
unt a
Ġult imate
ĠJo an
ĠSoviet s
Ġattend ance
Ġsymb ols
Ġdescript ions
Ġdemonst ration
ĠEngine ers
Ġhol es
ĠJos hua
ĠMD OT
ĠBre thren
ĠFer r
Ġextra ord
Ġlabel ed
met rical
Ġrom ance
Ġintellig ent
Ġox ide
Ġfox es
ĠCarl os
ĠClass ic
Ġexped itions
Ġprompt ing
Ġmig ration
ĠUN ES
Ġrend ered
Ġwitness ed
Ġmist aken
ĠEll is
ĠMur phy
Ġrif les
ĠIng ram
ĠRow ley
Ġexplos ive
ĠGre ater
Ġinstrument al
Ġexerc ise
ĠMarsh al
Ġshel ter
ĠCop ia
Ġsynthes is
Ġru ins
ĠSav age
Ġimplement ed
Ġdepos its
Ġinte g
Ġexha ust
Ġabsol ut
Ġsam ples
ĠCru iser
Ġansw er
Ġincom plete
Ġoverwhel med
ĠAld ean
Ġlisten ers
ĠElect ronic
Ġabund ant
Ġabund ance
Ġfram ework
ĠLith uan
Ġobst acles
Ġplayoff s
Ġturb ines
Ġfant asy
ĠUnivers al
Ġfert il
ĠUnd erne
opl asm
ĠImport ance
ĠHair an
ĠIA AF
ĠLÃ¼ tz
ĠPup pet
ĠBhair ava
Ġsanct uary
ĠCurt is
ĠChan ology
ĠVist ara
ĠNapole on
Ġnat urally
Ġnickn ame
ĠDumpt y
ĠGuth rie
ĠGao zong
Ġproxim ity
ĠUNES CO
ĠUnderne ath
ĠLÃ¼tz ow
N Z
c ena
f ire
j an
k es
l ings
u ania
v Äģda
w all
á ¹
ĺ ī
Ġt el
Ġt ales
in and
in ich
re z
Ġs in
at ers
or ic
Ġc yl
it udes
Ġf ed
is ations
Ġb in
al ph
Ġp ill
Ġm ere
Ġm aps
Ġd ining
le ans
ĠT alk
ĠA x
ĠA NZ
ĠS EC
st s
Ġn as
Ġn ic
ĠC all
ac ements
ĠM ets
ĠI TV
ĠB es
Ġst ress
Ġst alk
ĠH ave
ĠH ub
ĠH oll
ĠP ic
ĠP esh
ĠR alph
ĠF ountain
ĠF lying
ĠD iamond
ul ates
ĠW as
os o
ĠN F
ĠN OK
ĠG ene
ĠL iam
Ġse ated
um ble
ĠO ke
ĠIn gr
op p
Ġor ange
art ing
Ġch ord
Ġex chang
Ġex ternal
Ġâ ĺī
oc y
Ġsh aft
Ġk W
ĠK aiman
ov es
ĠSt at
ĠSt ones
ĠSt arting
cl amation
Ġun com
Ġher b
ĠTh an
ĠTh ail
ugh t
Ġman e
Ġj am
Ġsp ell
Ġsp oken
ress ions
ĠUn it
Ġrem ake
ĠAn y
Ġrel ied
ĠMar ily
ĠNew found
Ġret reated
Ġsub urb
ĠLe o
ob ee
Ġco oking
Ġ10 2
Ġdec iding
Ġ12 9
Ġinv ent
its u
Ġtrans mitted
Ġmon ster
Ġ15 6
ĠInd u
Ġexp anding
ĠWar rior
Ġrep et
Ġprov ision
az e
Ġpass enger
Ġadv ent
Ġdam ages
ĠCar roll
Ġpoin ting
Ġed itions
ĠEu ropium
ped ition
Ġport raits
Ġconf ron
ĠGr ant
Ġtri um
Ġorgan isations
Ġsl aves
Ġph ylogen
ĠFl air
ĠOr leans
arn ation
Ġjoin s
Ġcompet ing
ĠPer on
ĠGener ation
Ġless er
Ġcur ve
Ġtro op
ĠPal mer
Ġ189 2
Ġlik ewise
Ġer ror
Ġassoci ate
Ġ185 9
ĠEx pedition
Ġsw allow
Ġaver aged
Ġsepar ately
Ġimpro ving
Ġspecial ized
ĠMon ica
Ġmater nal
eal ous
ĠMark et
Ġmer c
lic ted
Ġdon ations
Ġstop ping
ĠHel en
ĠNot able
ĠÃ ī
Ġcru cial
ĠJer ry
Ġprevent ing
Ġscreen play
Ġdisp ersed
ĠTur key
Ġcontem por
uk i
Ġunc le
Ġunc over
Ġconsider ably
Ġsus pected
Ġkind s
ĠTw ins
ĠArch bishop
ĠRob yn
Ġinterse ctions
Ġprincip les
ĠOut side
Ġlif ted
ĠJul io
Äģd vÄģda
umber ed
ĠConf ession
ĠJos h
Ġprin cess
ĠHal f
Ġfunction al
Ġjournal ists
ĠConstant in
ĠLo ch
Ġremix es
Ġminer als
ech obee
ĠIndust rial
Ġstrike outs
Ġimag ination
Ġphilos oph
Ġreflect s
ĠDo ctor
Ġchalleng ed
ĠLiber ty
Ġfavour ite
ĠBas ement
Ġdistingu ish
ĠAdv entures
Ġseg ments
ĠJud ith
ĠUr ban
Ġinstrument ation
ĠSub sequently
Ġdisappe ar
ĠDom nall
Ġconsequ ence
ĠBi ography
Ġstream s
Ġbes ie
ĠSa igon
ĠCru ise
ĠMu ham
Ġpersu aded
Ġgard en
ĠLith uania
Ġmamm al
ĠBudd hist
Ġdraf ted
Ġsumm ary
ĠObser ver
Ġbare ly
Ġphenomen on
Ġninet eenth
ĠRap ids
Ġexcell ent
Ġech o
ĠReb bie
Ġcraf ts
Ġredes ign
Ġhoriz ont
tym ology
ĠOffic er
ĠCad ets
isp here
ĠFerd inand
ĠSax on
ĠLoren zo
ĠCrim son
ĠANZ AC
ĠPesh kin
ĠOke echobee
ĠIngr id
ĠKaiman awa
ĠThail and
ĠMarily n
ĠNewfound land
B O
S U
c or
k amed
l ore
m em
n o
n ance
t ime
Ġt ies
Ġt ong
Ġt une
in ued
on so
re ation
Ġs tern
Ġs ink
un c
nd olen
Ġc a
it all
it ars
es ter
ar o
al i
Ġm os
ic ism
Ġd ign
Ġd ug
Ġd anc
Ġd ads
Ġh ide
Ġre ass
Ġth ro
Ġth read
ĠA L
ĠA ires
il a
il and
il ogy
ĠS port
ĠS pect
ĠS uez
om ent
Ġe cl
Ġn it
Ġn aut
ĠC ry
ĠC hemical
el ope
Ġwas te
ĠM aid
ĠI R
Ġg ains
Ġfor get
iv orous
ĠB od
ĠB our
ĠB uen
ir a
Ġst ro
ĠH ond
ĠP ion
ĠP ast
ĠP resent
ĠR at
ĠR ook
ĠR OK
ĠF ig
ĠF und
ĠF let
ĠF isher
ĠD al
ĠD oc
em ark
ĠW ard
os ely
Ġan ger
ĠG we
ĠL in
ĠL im
Ġhe nce
est ock
Ġr us
ĠE aster
ĠE ps
Ġpro be
Ġv ault
res cent
ĠIn formation
op y
Ġch ase
Ġch ann
ber ry
oc ation
Ġk iss
ĠK er
ast ian
ĠSt ansfield
cl air
ary a
ĠCh ile
Ġcomp aring
ition al
Ġcl imb
Ġres olved
ĠTh ing
Ġag encies
ult y
Ġte nds
Ġup r
ang a
Ġsp r
ĠY et
Ġsec uring
Ġrem ote
ĠAn sel
Ġrel ay
Ġrel ax
ug s
ĠCom ics
ĠCom air
ft ing
ĠDe al
Ġreg ister
Ġinc ons
ĠLe ad
Ġgr ace
Ġthere by
Ġsupp lied
Ġsur ve
ph ae
Ġ12 6
air n
ful l
Ġmill ions
Ġbr anches
ĠInd olence
Ġter rorist
ĠMay or
Ġdist ort
Ġinf ected
ĠBe at
Ġcharacter ised
Ġmod es
Ġgu itars
ĠTr ade
Ġexpl an
ĠMan or
Ġdem anding
Ġdem ographic
ĠBo om
Ġtrad ers
Ġcontr ace
Ġevery day
Ġpar ade
Ġdel ight
Ġsit com
Ġsol ita
ĠEd d
amb ia
Ġhuman itarian
ĠChar an
Ġconv ict
Ġvill ain
ogn s
Ġsum mon
rest rial
Ġfight s
ĠMon ument
Ġ188 8
ĠBer g
ĠBer k
Ġce iling
Ġ35 5
Ġ186 3
Ġachie vements
ĠCommand ments
Ġ187 7
ĠCap ital
Ġsomet ime
Ġ183 6
Ġbreak down
ĠEm ma
Ġfail s
ĠRes erve
Ġblock ade
Ġdro wn
to ire
ĠMet all
ĠMet ropolitan
ĠGo thic
ĠBey ond
pan i
Ġhop es
ĠForm er
Ġthrow s
Ġdepend s
Ġinvestig ate
Ġdise ases
Ġhot els
ĠDel ano
ĠCast ing
Ġwit ch
ellig ence
Ġchem istry
Ġconcent rations
Ġprec ipitation
Ġincorpor ates
ĠConf essions
Ġhar vest
Ġmechan ism
Ġven om
ĠHistor ical
ĠFer ry
ĠTru th
Ġneut ron
Ġartic les
ĠSar ah
Ġphilos opher
Ġattract ive
ĠBarb ara
ĠCub a
Ġ97 8
ĠEs cape
Ġremn ant
Ġreserv es
Ġunsuccessful ly
ĠMov ing
aver y
ĠAri kamed
Ġcontrib utions
Ġdescend ants
ĠLeon ardo
Ġcorrespond ence
Ġenl arged
Ġdownload able
ĠMother s
Ġtribut ary
Ġswe pt
ĠDur and
ĠNichol son
Ġhelicop ters
ĠInt elligence
Ġattrib utes
Ġmamm als
Ġrum ors
ĠParalymp ic
ĠHor iz
Ġmanufactur er
Ġfatal ities
Ġlat est
Ġenzy mes
Ġhem mem
Ġrecall s
ĠSin clair
ĠObserv atory
Ġreop ened
ĠBarn es
Ġcancel ed
Ġhur d
Ġreper toire
Ġliv estock
ĠCart y
Ġalphab et
Ġhi atus
Ġscenar io
ĠFIT s
Ġvulner able
ĠVishn u
ĠScand in
ĠHosp itall
Ġnaut ical
ĠBuen os
ĠGwe ndolen
Ġchann els
ĠAnsel m
Ġsolita ire
ĠArikamed u
I V
c at
c os
j ib
m usic
p ets
r at
t ovac
Ġ Å
Ġt ension
he ning
in ces
er b
Ġw orse
or ith
Ġf est
Ġf isher
en burg
Ġb ath
Ġin cl
Ġp over
Ġm ud
Ġm ail
Ġm RNA
Ġd ri
Ġd ull
Ġd ried
ĠT anya
ĠA w
ĠA ff
ĠS ac
ĠS ug
ĠS quad
ĠC ow
ĠC amer
el and
ad i
ĠThe ater
ĠM P
ĠB ould
id ae
ir i
ir ate
ig ger
th i
Ġst ump
ĠH od
ĠH oys
us a
ay ana
ĠR ico
ĠR ush
ĠR andy
ĠF al
ĠF ruit
ĠD ian
ĠD raft
ĠW it
Ġan onymous
ĠL ars
av ian
Ġr amp
ĠO cc
ĠO jib
Ġcom ics
ĠE U
Ġpro of
ap a
ab s
ab ad
Ġy l
ov ed
Ġbut ter
Ġcont acted
Ġar senal
Ġun w
Ġun con
Ġro ot
Ġro uting
ĠV is
ĠV ett
Ġcl ad
ass y
Ġres erved
Ġres pected
ĠTh ings
Ġbo om
ĠAl ph
Ġman ifest
Ġj unta
Ġen vel
Ġout come
Ġout put
Ġwe ighed
Ġwork er
Ġme at
als ock
Ġrel ating
Ġthan ks
ĠEn o
Ġrele vant
Ġinter ception
Ġinter rupted
Ġinter mediate
Ġform ula
Ġfl aw
Ġreg ulation
Ġreg iments
Ġass essed
Ġam bit
Ġam azing
Ġ10 3
ton a
Ġadd s
Ġbl ind
Ġdire ctions
Ġmon aster
elf th
ĠInd eed
Ġter med
Ġrep aired
Ġprov inces
ĠCon sequently
Ġcar rier
oman ry
Ġmat urity
Ġsupport s
Ġdam aging
Ġstr ain
Ġstr ange
ĠHer bert
Ġann oy
ĠMe gan
ĠCl air
Ġcare ers
Ġdr ink
Ġvers us
Ġposs essed
Ġconf ident
Ġconf luence
Ġthird s
Ġref lection
ĠMus ical
ĠQ i
Ġrequ iring
ĠMc K
ĠMan ager
lev ard
ĠOr tona
Ġcontr acted
Ġmid field
Ġtown ship
Ġarch ipelago
Ġdel ays
Ġvict orious
Ġprof ound
Ġproject ed
Ġobs erve
Ġfar ms
Ġfact s
Ġchart ing
ĠMich aels
amb ers
ĠBlack burn
ĠReg ard
ĠRoy ston
Ġconv iction
Ġread ily
Ġsuff er
Ġsum mit
ĠTown s
Ġpred ict
Ġgl ac
Ġident ifies
Ġ185 3
Ġ185 8
com mun
Ġsw itch
Ġcreat ure
Ġ188 5
ĠPlay ing
ĠDu arte
Ġfort ified
alt ies
ĠMost ar
Ġreb el
ump ing
Ġthink s
ĠWil f
Ġmer ged
ĠKh oo
Ġdiscuss ing
Ġdiscuss ions
Ġremov ing
Ġdiss olution
Ġliter ally
ĠFilm s
Ġcru ise
Ġdro pping
Ġ75 0
Ġens uing
ĠFin land
Ġcompl ained
ĠCatholic ism
Ġcelebr ation
ĠItal ians
Ġinvestig ated
Ġphot ography
Ġsal mon
Ġgraph s
ĠDam age
Ġlif estyle
writ er
ĠKr ist
ĠReview ers
Ġdyn am
ĠBol ton
ĠCont rol
ĠAv tovac
Ġlegisl ature
Ġneut rino
Ġdeploy ment
Ġfle e
Ġcompr ises
Ġstrengt hening
Ġpan els
ĠMorr is
ĠAddition al
Ġstrik er
ĠGi Ã£
Ġunus ually
ĠMuslim s
Ġcool er
Ġaccident ally
ĠSus sex
Ġlaws uit
Ġeld est
Ġexerc ised
Ġmort ar
Ġcommit ment
ĠFel icia
Ġconduct ing
Ġbes ide
Ġske leton
Ġtra its
Ġnick named
ĠRos berg
Ġproceed s
Ġcloud s
Ġmaint ains
Ġconqu ered
Ġflo ating
Ġacclaim ed
ĠLabor atory
ĠMel bourne
Ġloy alty
ĠCult ure
ĠBron cos
ĠJenn ifer
Ġorb ital
ĠAP F
Ġresign ation
Ġfrig ate
Ġprol ong
Ġerr ors
Ġimprison ed
ĠExpress way
Ġnav igation
ĠParalymp ics
ĠNash ville
ĠVeer u
Ġclust ers
Ġump ire
ĠIndones ian
Ġneighborhood s
cour se
Ġsket ch
Ġsevent een
Ġdod o
ĠNM E
Ġveter an
ĠPhilipp ines
evelop ed
ĠLoy alsock
Ġalg orith
ĠAssy rian
ĠRI AA
Ġabn ormal
Ġdislik ed
Ġincurs ion
ĠPok iri
Ġpover ty
ĠBould er
ĠOjib we
ĠVett el
Ġenvel ope
Ġambit ious
c ade
d ict
e us
f ens
g ence
g gy
h anna
l ix
l ayer
m und
s ay
u a
z ing
Ġthe olog
Ġthe ories
re nder
Ġs inking
Ġc el
Ġc ock
Ġf ing
Ġb ot
Ġb ite
ing ham
as ant
Ġto y
Ġm it
Ġm ad
ro v
Ġh ate
Ġh ier
Ġh unt
le ted
ĠT un
ĠT ob
Ġth orough
ĠA ren
ĠS au
st ers
Ġl ion
Ġl ighter
Ġe ase
el in
ad ir
ĠM I
ĠM end
Ġg if
ol es
ol ly
ol ph
ĠB orough
ĠB oca
im ol
ĠH ang
ĠH utch
ĠH appy
us anag
ot illa
ĠP D
ĠP ear
ĠR ound
ĠR uth
Ġal be
ĠF ur
ĠF isc
ĠF iction
ĠD h
em ploy
ĠW ang
ĠW any
ĠW emb
ĠL akes
ĠL ands
ĠL ED
av or
av an
Ġse ed
Ġse ar
Ġr i
Ġr ises
Ġr andom
ĠO st
ri field
Ġpro ced
Ġv ig
Ġv oyage
ak i
ak ers
Ġex pense
ab out
qu es
qu et
Ġk ids
ĠK et
ĠK od
ĠK usanag
Ġle af
Ġtr aces
ian o
ĠCh u
ĠCh au
Ġun employ
ĠV I
ĠV oice
orm s
ĠHe nd
Ġrec apt
pl ain
Ġdis ch
Ġdis order
Ġj umps
Ġj ealous
ang ered
Ġsp or
Ġsp ite
Ġsp elled
Ġen able
iz ers
ĠY oko
Ġall ies
ens ional
Ġbet a
Ġbet ray
Ġrel ocated
Ġcol ored
Ġver b
Ġpe er
Ġform ations
Ġacc ord
Ġsub stances
Ġact ively
Ġhigh lights
ĠBr igadier
Ġmon k
Ġ17 3
ĠInd ians
Ġinst ances
ĠAust in
ĠGer ald
Ġinf l
Ġinf licted
Ġprov isions
ĠFr anz
Ġmet als
Ġmet aph
Ġ13 1
Ġvar iant
ĠTr ad
Ġty phoon
Ġtop ological
Ġtrack ing
ner y
ple x
Ġbre ast
Ġcapt ivity
uss ion
ĠPe ggy
que hanna
Ġeast ward
Ġcompet itor
ĠPer th
Ġfr ames
Ġfore ver
Ġtro ubles
Ġaff ection
Ġpat ients
Ġequ ally
ĠAir lines
Ġtradition ally
ĠOl iver
ĠHam ar
Ġcell ular
ĠEx pl
Äģ h
Ġsw ing
Ġsepar ation
Ġquar ters
Ġwid th
Ġcoll ision
Ġreason ing
ĠOliv ia
ĠOd ys
ĠGal ile
Ġneg lected
Ġcivil ization
Ġthreat ening
Ġclear ing
Ġ183 8
ĠDr ive
Ġphys ically
Ġeduc ated
Ġ184 7
Ġgrad uating
Ġparticip ating
Ġvisit or
irt z
ĠOff ensive
Ġconclud es
Ġemb ry
Ġcolon ists
Ġ33 0
ĠMer rifield
Ġshoot s
Ġsus pic
Ġthick ness
Ġacqu is
Ġacqu ire
Ġnucle i
Ġdig it
ĠArch itect
Ġpark s
ĠSur render
ĠColon na
Ġiron cl
Ġmultip layer
Ġmanufact ured
Ġhar bor
ĠFour th
Ġprepar ations
Ġraid s
ĠKent ucky
Ġbelong s
je ction
je ctions
ĠWrit ten
ĠChap man
Ġremix ed
Ġox id
sw ick
Ġtact ic
Ġtact ical
ĠRevolution ary
Ġrow s
Ġec osy
Ġunp op
Ġprotagon ists
Ġeas ier
ĠKn ights
Ġmist ake
Ġsn ake
ĠSus quehanna
Ġundert ook
Ġsail ing
Ġpoly g
Ġha irst
Ġevac uation
Ġevac uate
Ġsubstant ially
ĠWind s
ĠVol unte
ĠWars aw
Ġpros per
ĠMot or
ĠHung ary
Ġcoord inated
Ġwars hips
hm irtz
ĠKar am
Ġdim ensional
Ġjackrab bits
Ġremember ed
Ġadm its
Ġimprison ment
osom es
Ġelder ly
ĠPle asure
Ġcarri ages
ÅĤ aw
Ġwel come
ĠDie go
Ġswim ming
Ġbarr acks
ĠAlb ion
ĠYellow stone
Ġfacil it
Ġdisappoin ted
ĠMun ich
ĠFem ale
Ġsymp athetic
Ġprosec ution
Ġanticip ated
ĠDram a
ĠMort imer
ĠDoo fens
Ġspawn ed
Ġlumin osity
Ġstanz a
Ġamphib ious
ĠDestroy er
Ġpse ud
ĠBrun swick
Ġchanc el
ĠChop in
Ġteleph one
ĠBrother s
ĠSymph ony
ĠHom ar
Ġbron ze
ĠTuck er
Ġalcoh ol
ĠFerr ari
Ġextraord inary
ĠLithuan ian
ĠNF L
Ġmane u
ĠMuham mad
Ġalbe it
ĠFisc her
ĠWany an
ĠWemb ley
ĠKusanag i
ĠChau vel
Ġecosy stem
ĠDoofens hmirtz
S h
S p
a os
b ard
c ont
c airn
d am
d man
e b
e h
f am
g ow
g na
h ous
n umbered
p oints
t ures
er od
on ald
on elli
re ct
re ls
Ġs ank
Ġo l
Ġo ak
it ure
Ġb ishops
Ġin hib
Ġin ex
ar ic
Ġp m
Ġp ock
as ury
as gow
Ġm ating
Ġm asters
ro c
ro soft
ic i
ĠT ed
Ġre h
Ġre organ
ent in
ou b
ĠA val
ĠS it
ĠS ic
ĠS ag
ĠS cl
ĠS omet
ĠS chol
ĠS overeign
Ġe y
Ġe aten
Ġn ons
am i
ĠC lear
ĠC andid
ĠC lement
ĠC atherine
ĠC AT
el ih
ac on
ac rit
ĠM as
ĠM its
ĠM ales
ĠM unicip
ĠM CC
ĠM oment
ĠI b
ĠI ber
Ġg am
Ġg ay
Ġg ills
ol ving
ol ulu
ter y
im ination
ct ic
ith s
ĠH old
ĠH ars
ĠH add
her ic
ut ors
ĠP il
ĠP ra
ĠP ric
ĠP rop
ĠR aton
Ġcon if
Ġcon ception
ĠW onder
and hi
ĠN ature
ĠN umber
ĠG ri
ĠG ree
ĠG andhi
ĠL em
ĠL abyrinth
av is
ĠJ ai
Ġr ice
ĠO ri
ap y
ant e
ant i
qu is
qu ir
ĠâĢ ĺ
Ġy e
ĠK end
Ġle ather
ov a
ĠSt ay
ge ant
ost s
ell or
ĠCh amber
Ġcomp iled
Ġar cher
og le
ĠV H
ĠV iaduct
Ġrec ruit
ĠTh ames
are th
Ġsc ales
Ġte aches
Ġup gr
Ġen com
ace a
ens a
ĠRe con
ĠSe as
Ġfe ver
ĠAr ama
ug g
Ġcol oured
Ġfilm m
Ġend emic
Ġpe cki
Ġreg ained
Ġass ign
Ġass ured
Ġspec ially
ĠNew ark
ĠNew castle
ĠAmeric as
Ġqu ake
ob onelli
Ġgr aves
Ġep it
Ġsy nd
other apy
Ġbl ame
ann adh
Ġem pty
Ġ17 1
Ġsign ature
Ġter rible
Ġdisc our
ĠZ hang
ĠZ rÃŃ
Ġinf ilt
Ġwar rant
ĠCon nie
Ġins cribed
uc lear
uc alypt
Ġnorth western
ĠPl ensa
Ġ13 5
Ġgu y
ĠCol ony
Ġsouth western
Ġmar ble
Ġposs essions
ĠAnd r
elt a
Ġview ing
Ġiss uing
ĠPr adesh
Ġtrad emark
Ġmy el
Ġcr imes
Ġbas ement
Ġlow ered
ĠPer iod
Ġ26 0
Ġstat ute
Ġsol ve
ĠAss ist
Ġintrodu ce
Ġtour ism
Ġprot otype
Ġvill agers
ĠGl asgow
Ġste ambo
Ġsurv ives
Ġrock y
Ġpred ator
Ġfront ier
Ġassoci ations
ĠSup port
gr im
Ġaver aging
Ġsuper st
Ġ188 3
Ġhy mn
ĠGame Sp
Ġwid ow
stit uted
ĠCommand o
ĠMed way
Ġfort ifications
Ġpract ical
Ġ187 6
ĠCap com
Ġviol acea
Ġhon est
ara oh
ĠBrown s
Ġz ero
Ġlo ose
Ġdiscuss es
Ġ183 7
ĠNot ting
Ġdiss ent
Ġoccup ies
ĠPre par
Ġcru zi
enes is
Ġcal m
ĠApp ro
Ġens ued
ĠMet acrit
Ġaccess ible
Ġcelebr ity
Ġsil k
Ġsil ent
Ġanaly zed
inent al
Ġopt ed
ĠPit tsburgh
ĠPit cairn
Ġjud ged
Ġpark ing
lim ited
Ġincor rect
Ġintern et
ĠLi SA
Ġdrum mer
ĠWild life
Ġgrand son
Ġchem otherapy
ĠJos ce
ĠSch m
ĠFant uzz
Ġwild life
Ġprison er
Ġmuseum s
ĠChap ter
ĠTri p
ĠTri als
Ġcollect ing
Ġtur ret
Ġdress ing
ĠPo zz
ĠLar ge
Ġdefin itely
Ġcompar able
ĠJeff rey
ĠCrown s
ĠMic rosoft
ĠEs sex
ĠSus an
Ġoverl ap
Ġdecre ased
Ġbowl ers
Ġflu id
ĠBroad cast
Ġdisturb ed
ĠLow land
Ġrub ble
ĠHug uen
Ġpal ace
Ġpredecess ors
Ġexpect ations
Ġkings hip
Ġconsequ ences
Ġvolunte er
ĠMarc us
ĠFel dman
Ġoutf it
ĠSav annah
Ġconqu est
Ġsongwrit ing
ĠCook sey
ĠHun ter
ĠStop pani
Ġrepr inted
ĠYugosl av
Ġgard ens
Ġsed iment
Ġprol ific
Ġdeleg ates
Ġpoison ing
Ġtack le
Ġcomed ian
Ġinnov ative
Ġcongreg ation
Ġnurs ery
ĠPow ers
Ġparas ites
ĠPubl ishing
Ġfoss il
ĠNon etheless
Ġadapt ations
Ġexplicit ly
ĠPier re
Ġaerodrom es
ĠLiter ary
Ġreven ge
rh iz
ĠFried rich
ĠJag annadh
Ġadequ ate
Ġentert aining
Ġdiscont inued
Ġgram mar
ĠAdri atic
Ġcontempor aries
ĠConstantin ople
cor rhiz
Ġreass igned
ĠCry stal
Ġstro ke
ĠFlet cher
Ġincons ist
Sh ara
ĠSag inaw
ĠScl erod
ĠSomet imes
elih ood
ĠMits uda
ĠHars ha
ĠPric e
ĠGree ce
Ġencom pass
ĠArama ic
Ġpecki i
ĠZrÃŃ nyi
ĠMetacrit ic
ĠFantuzz i
ĠPozz obonelli
L C
M C
i ens
i ating
i ants
l on
l io
o ons
r aine
t ron
y a
Ġ *
Ġ u
Ġ ~
Ġt ag
Ġt iny
Ġt ube
Ġo ct
Ġf unk
Ġf ab
Ġf ib
en h
is d
es que
Ġb inary
Ġb apt
Ġb orough
Ġb iblical
an im
an th
al o
Ġto ol
Ġto ugh
Ġm ock
Ġd iversity
Ġd rought
le ki
ĠT ar
ĠT oy
ĠT ests
ĠT imb
Ġre work
ĠS u
ĠS el
ĠS iber
Ġl akes
om on
om pe
Ġn ests
ĠC u
ĠC ore
ĠC hes
Ġbe aches
ĠM ann
ĠM Äģ
Ġg ate
Ġg aming
ĠB ach
im on
im mer
ĠH i
ĠH Æ°Æ¡ng
ĠP el
ĠP ompe
ĠR and
ĠR ub
ĠR oll
ĠR anger
ĠF ine
ĠF oster
ĠD J
ĠD ard
Ġcon tend
em i
ĠW CW
ĠN am
ĠN omura
ĠL ocated
ag ram
Ġse ize
um ped
od ied
Ġpro ud
Ġpro se
Ġpro claimed
Ġv ent
Ġv ow
Ġsu ited
ap les
op ol
ud ed
Ġpl ates
Ġare n
Ġsh ar
Ġsh oes
Ġhad rosaur
ĠU C
ĠU ÃŃ
ĠU leki
Ġle aked
ĠSt okes
Ġtr ucks
ĠCh air
ĠCh anc
Ġcomp at
ction ed
Ġun ity
Ġun ve
Ġun aware
Ġun rel
Ġun anim
ĠV isc
out ed
Ġus er
Ġbo ost
ry pton
Ġman ages
Ġafter ward
ach t
Ġj oke
act ory
ĠOn o
Ġspe ar
Ġshe et
amp ed
oin a
les ey
Ġfe es
Ġcons ensus
Ġunder grad
ĠCom plete
Ġfl ame
Ġass ume
Ġbu ck
Ġsub mit
Ġinc idents
Ġgr an
Ġgr id
Ġsupp orter
Ġ10 7
Ġ10 9
Ġnumber ing
Ġbl ank
Ġtrans form
ĠBr aves
ĠSc r
ĠSc he
ĠSc iences
Ġem ig
uch i
Ġship ped
Ġpol ar
ĠWh ole
Ġwar rior
ĠCon vention
Ġins ult
Ġed itors
Ġvar ieties
ĠAll music
Ġann ex
ĠMe thod
ik er
ĠAd en
ĠAd rian
Ġlist ening
Ġprog n
Ġtop ic
Ġtop ics
ĠBy ron
Ġsl ope
Ġsl avery
Ġcommand ing
Ġmed ian
Ġauth ored
Ġph ases
Ġeng aging
Ġcame o
Ġexper iments
Ġimport ed
Ġ21 7
Ġcompet itors
Ġpar ad
ĠAb ram
ĠAb raham
Ġcult ures
Ġcountry side
Ġmanag ing
vers ely
Ġcou pled
ĠChar acter
Ġactiv ated
Ġcor rupt
Ġcor pse
ĠGl en
ĠAng lesey
Ġfav ored
ĠRec reation
Ġfac ulty
Ġident ification
Ġ185 2
Ġbar ons
Ġbar ometric
Ġindivid ually
Ġimpro v
Ġhy phae
Ġcirc ulated
ĠIr an
Ġelect ro
Ġinform al
ĠHar vey
ĠHar mon
Ġ186 6
Ġbur row
thod ox
Ġ187 2
Ġinvest ors
Ġhon ors
Ġesc apes
Ġlo aded
Ġlo ading
Ġpriv ately
Ġtemper ate
Ġdoll s
Ġdisp utes
agon al
Ġcontem pl
Ġens ured
Ġcontroll ing
ĠServ ices
ĠCamp us
ĠHol land
Ġattr action
Ġsat ire
ĠPat riarch
Ġdeg ener
Ġinn ocent
Ġcann on
Ġche f
ĠBel ie
Ġdom ain
Ġdark ness
ĠTw icken
Ġfinanc ially
Ġsymb olic
Ġadvant ages
Ġang ered
ĠTem pl
Ġcompos ers
Ġpeace ful
Ġwebs ites
Ġbene ath
ĠKr as
ĠEngine ering
ograph ies
Ġpup pets
ĠDist ribution
Ġmanufact ure
Ġhar ass
Ġnorthwest ward
Ġencour age
Ġnest ing
Ġillust rations
Ġple ased
Ġagg ress
ĠSen ior
ĠHib iscus
Ġcollect ive
Ġcollect ively
ĠRA R
Ġ55 0
ĠEven ing
Ġspeak ers
Ġspect rum
Ġrival ry
Ġmo ons
ĠId ol
Ġod e
Ġtheat ers
Ġstret ch
Ġoverl ooking
Ġcontrib ute
Ġdescend ed
Ġdepict ions
ĠDream s
ĠLu is
Ġexpect ing
ĠYe omanry
Ġcontest ed
Ġshel ters
ĠDom oina
Ġ87 8
Ġsoft ware
ĠRoberts on
Ġgal ax
ĠHere ford
ĠSpring field
Ġdiscip line
ĠPerson nel
ĠWin ter
ĠRhodes ia
ĠPalmy ra
ĠChen n
Ġorn ith
Ġclo th
Ġsurpr ising
Ġhang ing
ĠHind i
ĠHind enburg
ĠCec ily
ĠElect ric
Ġadvis ories
ĠAz ores
ĠConfeder ate
Ġastronom ical
Ġenh ance
Ġanth rop
Ġfrust rated
Ġflash back
Ġmanufactur ers
Ġori ented
Ġabol ished
ĠBab yl
Ġalt ogether
Ġdisagre ed
Ġaccomplish ments
Ġceremon ial
Ġexclud ed
ĠBulgar ia
Ġtoler ance
ĠEg uchi
Ġpap al
Ġreag ents
ĠBright on
Ġdenomin ation
Ġconscious ness
Ġcomprom ise
ĠRover s
ĠLeban on
Ġgenu ine
ĠCommer cial
ĠMalays ia
Ġfier ce
Ġboil ers
Ġfart her
Ġmurd ered
Ġjur isd
Ġcorrid or
ĠPion eer
ĠEps om
ĠEdd ie
ĠMetall ica
Ġhurd les
ĠSug ar
ĠVis ual
ĠTowns ville
ĠTimb aland
ĠMÄģ ori
ĠChair man
ĠVisc ount
ĠTwicken ham
C h
D own
T W
a ishn
b ro
c ach
d ings
e le
g ame
h or
h olm
j a
l an
m al
n ival
r age
r ink
u han
v ironment
z er
ģ Ħ
Ġt ides
Ġt ensions
Ġa fraid
in stein
er ts
re ement
Ġs hed
Ġs per
Ġs overeign
Ġw ire
Ġw are
Ġc ure
Ġf ission
Ġf ighters
en z
Ġb unk
Ġb ra
Ġb ush
Ġp aved
Ġp apers
as ma
Ġto uc
Ġm ent
Ġm ound
Ġm ansion
ic y
Ġd ent
Ġh ack
Ġh urt
Ġh urricanes
ĠT al
ĠT ak
ĠT ang
il iers
Ġl od
Ġl ib
Ġl ock
Ġe ager
ĠC ert
ĠC ove
ĠC hester
ĠC AA
ĠC avalry
ac co
ĠM ult
ĠM oney
ĠM obile
ĠI st
ĠB ore
ĠB ry
ĠB uch
id an
ig e
ig ations
Ġst ained
Ġst air
Ġst ored
Ġst iff
ĠH ern
us iliers
ĠP s
ĠR ear
ĠF usiliers
ĠD inosaur
Ġcon vert
ĠW ey
ĠW ald
Ġat oms
ĠN ig
ĠN ag
ĠN ancy
ĠG a
ĠG rey
ĠL ions
ĠJ ar
ĠJ ill
ĠJ TW
um i
Ġr am
Ġr ings
ri et
ĠE st
ĠE leph
ĠIn ari
art a
ber n
ber ger
Ġex empt
ab a
ud er
Ġpl acement
Ġpl ateau
Ġpl asma
Ġâ ģĦ
ack Down
ĠU pr
ĠK in
ĠK ashi
Ġnot ion
Ġnot ices
Ġtr an
ight ing
ell ation
ĠCh i
ĠCh oice
so lete
ra eus
Ġun ited
Ġint rig
ĠV oy
ĠV aishn
Ġad mit
Ġrec ip
ĠTh i
ĠAl ways
Ġag ing
Ġj oy
Ġj avel
Ġover r
Ġsp ans
Ġsp ont
iz ards
Ġpre hist
ced es
amp a
Ġme ter
Ġrem aster
ve er
ĠAs ide
ĠAr ms
ĠAr med
ĠAr be
Ġrel uct
Ġseason al
ĠEn vironment
Ġunder lying
Ġfl att
Ġreg ulations
Ġsub d
Ġpubl ish
end ar
ph an
Ġperform s
Ġbl ast
aj ors
Ġinv ented
ĠBr idges
Ġmon itors
Ġest ates
Ġest uary
Ġcre am
Ġmill imeter
Ġob solete
ins ky
Ġter ror
Ġinst ruct
Ġmil itia
Ġdisc arded
Ġany where
Ġair ing
Ġair lines
ĠBl ake
ĠPl ains
ĠCol in
ik h
Ġpublic ity
Ġcare fully
ĠNov ak
Ġtri ps
ĠHis pan
Ġhum orous
Ġsl ated
Ġmed ley
Ġrequ ests
Ġcapt ains
ĠPr im
ĠPr uss
Ġcour age
Ġdem o
ops is
ĠFl ood
ĠFl ash
Ġmy cel
Ġreal ize
Ġreal izes
Ġpolit ician
arch y
ĠPort s
Ġpar rot
Ġmembers hip
Ġ24 3
Ġel igible
Ġfre ely
Ġcur ren
ĠAm un
ĠEd mund
Ġaff ir
Ġfact ion
ĠAir borne
Ġintrodu cing
Ġcou ples
Ġtechn ologies
af ts
Ġke en
Ġste pped
Ġfav oured
Ġtre ason
Ġfac ade
bo ards
ĠSome thing
Ġ185 5
Ġsuper vis
Ġ188 6
mar cach
ĠGame play
Ġreve aling
Ġdev ices
Ġemploy ee
Ġexc ited
Ġfort ress
Ġfort une
Ġmer ge
Ġcommercial s
Ġsurf aces
Ġintens ify
Ġpriv ile
Ġheav en
nes day
ĠVar ious
ĠSm ackDown
ĠZealand ers
Ġ184 2
ĠAg ricult
ĠAg reement
ĠSing ing
aph ore
Ġlay out
ĠWood s
ĠWood ward
ĠWood full
Ġcompl aints
ortun ately
ĠMer i
ĠMer cedes
Ġflight less
ĠStr ong
Ġopt im
Ġdark er
Ġdetermin ing
ĠAnt illes
Ġinvestig ating
ĠPrince ton
Ġnecess arily
Ġ182 0
ĠDel hi
ĠLong acre
ĠSol ar
ĠSol id
Ġtax i
Ġnation ally
Ġbrown ish
Ġstrugg ling
Ġrear guard
Ġprec ise
ĠOrigin s
ĠWay ne
Ġrequire ment
Ġextr ater
uzz le
Ġprotect ive
Ġlegisl ative
ĠMass a
roll ing
ĠTri ple
Ġdress es
Ġmolec ule
Ġresemb les
Ġvirt ue
Ġclean ing
ĠWork ing
ĠLeg isl
Ġfarm land
Ġsquad rons
Ġod d
Ġmyth s
ĠBru ges
ĠHy d
ĠMem ory
chest ra
Ġspons orship
ĠAdv enture
hu veer
Ġroof s
Ġindu ction
ĠRow son
ĠAst raeus
Ġexplos ion
Ġdog s
Ġcrown ed
Ġvary ing
Ġpublisher s
Ġmoder ately
Ġelectric ity
ĠHard y
ĠDis ney
ĠRif le
ĠWy att
Ġdiscip les
ĠWW E
Ġscrap ped
Ġsym metrical
ĠAR IA
Ġorchest ral
ĠWin ston
Ġru ined
Ġcoord ination
ĠGuy brush
ĠProte ins
Ġpric es
ĠStock holm
Ġsulf ide
Ġow ing
Ġorn ament
Ġlimit ations
Ġescort ed
Ġswe ep
ĠRecord ed
ĠTam il
ĠCob ain
Ġhorn s
Ġclim ax
ĠMcL uhan
Ġtack les
Ġceratops ians
Ġlam be
ĠFran Ã§
Ġstrict ly
ĠSem aphore
ĠNob el
Ġdiagn osed
ĠLud low
Ġkit chen
Ġfoss ils
Ġdict ator
Ġwarn ings
Ġadvoc ate
Ġconfront ation
Ġpromin ently
ĠCrusad er
Ġinfer ior
Ġinher ited
Ġcyt oplasm
Ġrid icul
ĠUlt imately
Ġaccum ulated
ĠFul be
ĠThak ur
Ġpopul ace
Ġbrut al
Ġneighbour ing
Ġkid n
Ġautob iography
ĠLt d
ĠEch marcach
ĠSout heast
ĠHur on
ĠRag huveer
ĠWed nesday
Ġsubord inate
ĠAh k
Ġdesper ate
Ġcir cles
Ġvint age
ĠKah n
Ġaccus ations
Ġdecis ive
Ġcrusad ers
Ġabsolut ely
Ġtel escope
Ġhorizont al
Ġtong ue
Ġdanc ers
Ġupr ising
Ġfing ers
ĠHang zhou
Ġri ots
ĠOst end
Ġunpop ular
Ġpseud onym
Ġsper m
ĠWey den
ĠJTW C
ĠUpr ising
ĠVoy ager
Ġjavel in
Ġspont ane
ĠArbe ider
2 0
C on
O ct
T unes
X e
a ford
b ach
b astian
c ologist
c ussion
d ish
h and
j iang
m ates
m uda
n ik
r acted
v a
w yn
y at
y ll
z her
z og
Ġt ide
Ġa ft
Ġa isle
in ely
Ġthe r
Ġthe ology
Ġs izes
Ġo val
Ġw restling
ed ed
un ct
at isf
or ian
Ġc ement
Ġf ont
Ġb owler
Ġb acter
Ġin ac
Ġin put
ar ge
an us
Ġp est
Ġp ier
Ġp agan
ic ine
Ġd ip
Ġd ors
le ctions
ĠT ud
ĠT ask
ou ver
ĠA y
ĠA OC
st own
st rong
Ġl ung
Ġl oses
Ġl amps
Ġe ucalypt
Ġn iece
ĠC ur
ĠC ul
ĠC ann
ĠC oss
ĠC ox
ĠC ertain
ĠC herry
ac he
ĠM ing
ĠM ak
ĠM ott
ĠI ce
iv or
ol ese
ĠB elf
ĠB ened
ĠB enson
ig o
Ġst uff
Ġst umps
ĠH ew
ĠH ast
ĠH ous
ĠH IV
ver y
ut s
ĠP and
ĠR u
ĠR as
ĠR ut
ĠR aw
ĠR hy
Ġal ike
ĠF u
ĠF ro
ĠF igg
ĠD iana
ĠD angerous
em pl
ul ator
ĠW oman
and al
ĠN P
ĠN ation
ĠN ina
ĠN orse
ĠL ed
ĠL aur
ĠL iang
Ġhe ll
est hetic
ĠJ unior
Ġse aled
um m
Ġde eper
ĠE ly
Ġv ass
ill on
Ġex empl
ab l
ess es
Ġsh ops
Ġsh irts
Ġk un
ĠK on
ĠK an
ĠK ur
ĠK ling
ĠK akapo
Ġle ase
ip h
ost ic
ine as
ĠCh ase
Ġbut ton
so gna
Ġwhe at
Ġun re
Ġint ent
ĠV oc
mer ged
Ġres urre
Ġper mit
Ġper cussion
ect ic
Ġsc ream
Ġte ch
Ġte lev
Ġup stream
Ġsp aced
ib e
Ġout p
Ġout s
Ġpre tend
Ġwould n
Ġwe b
ĠRe formed
ĠSe bastian
ĠAn na
Ġrel iance
ters on
Ġcons umed
Ġunder ne
ĠCom et
Ġfl anks
Ġret iring
Ġsub merged
Ġind ie
Ġind oor
Ġappe aled
Ġgr as
Ġsy ÄģdvÄģda
Ġpo pe
Ġbl own
aj al
ĠSh an
Ġtrans formation
io let
ĠBr and
ert iary
Ġ15 2
Ġ15 3
Ġcontin ent
ĠInd ivid
ĠWh y
Ġdown graded
Ġinst ruction
Ġdist inction
gest ion
Ġoper ator
Ġprov oked
Ġins ert
uc r
ĠCar r
ĠPl ant
Ġed ible
Ġattack ers
ĠHer bie
ĠHer mann
ĠMe gal
Ġpartic les
Ġdr unk
ĠTr aining
ĠTr acks
Ġmar row
Ġref using
ĠPro ctor
ĠGe ography
ograp hed
Ġexpl orer
Ġkill er
Ġsent enced
Ġperson a
aur us
Ġrepl ay
Ġdem ocr
Ġreal ism
ĠOr sogna
ĠBatt alions
Ġant ib
ĠPort land
ĠPort able
ĠPort rait
Ġtw elfth
ĠChurch ill
Ġdel icate
ĠAb ove
Ġdecl ining
Ġsol utions
ĠPar ade
Ġ28 0
Ġpress ing
Ġdet ached
Ġcomb ine
Ġpat ch
Ġsound ing
ĠSte ven
Ġlight ing
Ġprim itive
ĠEl iot
Ġste ady
ĠMor ay
Ġknow ing
Ġmass es
Ġbroad ly
ĠEx am
ĠBer muda
iction ary
Ġachie ving
Ġcost ume
ĠRed Oct
ĠRock star
Ġlength y
Ġ187 9
Ġcop per
Ġmer ger
Ġtrib e
Ġlo osely
Ġ183 3
Ġproper ly
ĠArab ia
ĠCong olese
Ġheav iest
Ġrail s
Ġminor ities
Ġkey board
Ġdead line
Ġtouch ing
ĠTom ita
Ġsyn onym
Ġder ives
Ġlink ing
Ġens uring
Ġlay ing
Ġcelebr ations
ĠPat terson
Ġmarket ed
Ġdig ging
Ġjud g
Ġdetermin ation
Ġcomplex es
ĠUnder ground
Ġsecret ly
Ġtax on
Ġ37 0
Ġwear s
Ġavoid ing
ĠTy phoon
ĠEr zher
Ġhorse power
ingu ished
Ġprogress ive
Ġmountain ous
Ġremark s
Ġhol otype
ĠTurn pike
Ġnarrow ly
ĠSen ators
Ġfrag ilis
ĠFA U
mark et
ĠUs ing
ĠArm strong
ĠCarl isle
Ġspeak s
Ġactress es
oty pes
Ġspect ators
Ġtim ing
Ġmob ility
ĠLl an
Ġtend ed
Ġfirm ly
ĠAdmir alty
Ġdecre asing
ĠPhill ips
Ġreconst ru
Ġsupposed ly
ato es
Ġha un
Ġi Tunes
Ġdub ious
Ġrac ial
Ġ176 9
Ġaffect s
Ġcab in
Ġstrateg ies
Ġdemol ition
ĠBul let
Ġrecre ation
Ġlegend ary
Ġdispl acement
Ġflo ors
ĠLev ine
ĠFair ies
ĠStock well
Ġgross ing
Ġfold ed
Ġdetect ive
Ġorb its
Ġexcess ive
Ġsatisf ied
ĠXe F
ĠPict ure
Ġinstru ctions
Ġpsych ological
Ġrum ours
ĠComb ined
ĠSle aford
ĠPlat te
ĠPlan et
Ġassess ment
Ġquant ities
Ġcontrad ict
ĠAmb assador
Ġceremon ies
Ġpromin ence
ĠCrusad ers
ĠBuck ingham
ĠDor othy
Ġrefere e
Ġzomb ies
Ġlad ies
Ġmotif s
ĠColomb ia
ĠRaid en
Ġtrunk line
Ġmonit oring
Ġcompan ion
Ġpresbyter ian
Ġcontinu ously
ĠRepresent atives
Ġhypothes is
ĠFa ith
ĠSurv ivor
ĠPoet ry
ĠSpir it
ĠKub ica
ĠHub bard
Ġrelax ed
Ġexplan ation
ĠHoys ala
ĠDian e
ĠAren a
ĠOdys sey
Ġacquis ition
Ġreh abil
ĠHadd ock
ĠAssist ant
ĠNotting ham
Ġdors al
ĠTud or
ĠBelf ast
ĠBened ict
Ġtelev ised
Ġunderne ath
ĠRedOct ane
ĠErzher zog
M A
S T
b i
b one
b uilding
e ctions
e ux
g ins
g osaur
h att
i ob
l ance
l fric
p on
t age
v ig
z ora
ħ les
Į zora
Ġt ier
he ld
in qu
in burgh
er g
er ia
on z
Ġw art
Ġw ake
at ab
or f
Ġf oul
en ary
is ible
es y
Ġb ol
Ġb ark
ar ter
Ġto ss
Ġm al
Ġm ould
Ġm ason
Ġm old
Ġd ome
Ġd read
Ġd imin
Ġh ung
ĠT at
ĠT OT
Ġre inc
ĠS ylv
ĠS ector
st age
ĠC ott
ĠC hess
ac ular
ĠThe mes
Ġbe friend
ur red
ur bs
ĠM ode
ĠM umb
ĠI X
Ġg amb
Ġg olf
Ġfor aging
iv ic
iv ial
im a
id ia
id ency
Ġst aple
ĠH ollow
ĠH BO
ĠP agoda
Ġwh ist
ch wood
ĠR ather
ĠR AF
ĠD ry
ĠD iam
ĠD oll
ĠW ally
ĠW olver
Ġat omic
and is
os ion
ĠN ame
ĠN umb
ĠN gu
ĠG B
ĠG iven
ĠG hat
ĠG aga
ĠG ambia
ĠJ as
Ġse nds
um s
ĠO k
ĠO il
ĠE ra
ĠE ss
ĠE rik
Ġpro c
Ġsu ite
ap ur
ap ata
ew orth
art en
ant ine
Ġare na
qu est
ĠK o
ĠK arn
Ġnot iced
Ġnot orious
ip as
ĠSt anding
Ġtr uck
Ġtr ilogy
Ġtr ivial
ine ae
ish am
te br
Ġcomp ares
Ġcont ents
Ġher ds
Ġint imate
ĠV o
ĠV ers
own ed
Ġab st
ok an
ff in
Ġrec ipes
Ġres ort
Ġres olve
ect s
ĠAl onso
Ġpart ition
Ġman ual
Ġman oe
ric ally
Ġdis rupted
Ġte le
Ġsp ill
ace ae
ces ters
ren ched
ĠRe ed
ĠRe port
ĠRe ading
ĠRe formation
Ġme gal
Ġwhen ever
ĠAn at
ĠAn im
ĠAn field
Ġkn ight
Ġnew er
Ġsome body
Ġend angered
Ġinter course
Ġpr ince
ĠNew man
Ġret aining
ener ation
Ġacc ounted
Ġsub urbs
Ġinc umb
ĠLe ading
ĠLe gend
ific ate
Ġam end
Ġappe als
Ġfound ers
Ġele ctor
hen tic
Ġsy ll
Ġloc als
Ġperform er
Ġbl ues
ĠSh apur
Ġinv ention
Ġinv isible
ĠBr uss
Ġem pl
ern er
Ġcrit ically
Ġart if
ĠInd o
ĠIs a
ĠZ apata
Ġprev alent
ĠWar ner
ĠWar wick
Ġdesign ing
Ġcar avan
Ġmat rix
enn a
ĠBe er
ĠBe eth
Ġstr ings
ĠPl um
Ġed iting
ĠAll ies
ĠAll Äģh
Ġgu ilt
ĠCl aire
Ġprom ising
Ġlast s
ĠFe et
Ã© ra
Ġshort s
ĠGr isham
Ġreview ing
ĠQ in
Ġgovernment al
Ġhand ful
Ġcour ty
ĠMan hatt
Ġeffect iveness
eng u
ĠPe ace
Ġcr ashed
Ġcontr ary
Ġrefer enced
Ġpolit ically
Ġevery body
Ġchurch yard
Ġprop oses
Ġdefe ats
Ġtotal ed
augh ter
Ġfre ed
Ġsol ved
sh op
ĠAm anda
Ġnever theless
ĠEd inburgh
Ġpost hum
Ġpost season
Ġsoc ieties
aul ipas
ĠEv il
me er
Ġ27 5
Ġcast les
arr ass
Ġwat ches
ĠRich ie
ĠReg ion
ĠRoad s
Ġput s
ĠGl adys
Ġpromot ing
ĠMor avia
Ġprocess es
Ġer osion
ĠHam let
Ã¡ l
off icial
Ġmor ale
ĠGod s
Ġspecial ist
Ġ188 4
ĠBer lio
ĠHen ri
Ġren owned
Ġdev ised
Ġreason able
Ġbi as
ĠBra h
Ġreb uilding
ĠBay eux
Ġavail ability
ĠBut etown
Ġbusiness man
ĠTor chwood
Ġ183 1
Ġ183 4
ĠDr um
Ġcome back
achel or
Ġpen is
Ġslow ed
Ġeconom ics
Ġindepend ently
ĠMac Ar
ĠEm ily
ĠÃ ħles
ĠSing le
Ġabs ent
ĠJer emi
ĠVer meer
Ġaut hentic
Ġscreen ing
Ġflow er
Ġbroadcast s
Ġemb arrass
Ġobserv es
Ġobserv ing
Ġcompl aint
Ġmeant ime
Ġvot ing
ĠQu arter
Ġnatural ist
ĠMey ers
Ġemer ging
Ġkil ogram
Ġ32 0
Ġportray ing
Ġenjoy able
Ġnecess ity
Ġ182 1
ĠAI DS
Ġpurs ued
Ġang ular
ĠMidd les
Ġstrugg les
Ġathlet ic
Ġ48 0
ĠTy p
ĠGar th
Ġconcent rate
Ġ180 1
Ġwalk ed
Ġprogress es
Ġmission ary
Ġir r
Ġhun ters
Ġthr iller
Ġwor ried
Ġfit ness
Ġdoub led
Ġfix tures
ĠAp ost
Ġelement ary
ĠLar wood
Ġshr ines
Ġatmosp heric
ĠNorm andy
ĠNever soft
ighth ouse
Ġge ography
Ġexpress ing
ĠGard ens
ĠDemocr ats
Ġod es
Ġcoal ition
Ġnegot iated
ĠBarb ours
ĠDun n
Ġtheat res
ĠIsl am
ĠIsl ais
Ġcontrib uting
ĠFre eway
ĠRow land
ĠLy coming
Ġaddress es
Ġconsequ ently
Ġancest ry
Ġancest ors
Ġtrail er
Ġfer al
Ġpreced ed
Ġunderw ater
ropol is
ĠCE O
ĠProte ction
Ġpatron age
Ġcry pt
Ġalleg ations
ĠFernand o
Ġcart oon
Ġliber al
Ġpersu ade
sp ace
ĠTam aulipas
Ġinstru cted
Ġenh anced
ĠPlat oon
Ġutil ized
Ġfrust ration
Ġclin ical
Ġrefuge es
Ġculmin ated
ĠSn ake
Ġsentiment al
Ġump ires
Ġcoinc ide
Ġax is
Ġsect ors
ĠDahl an
ĠFeel ings
Ġapprec iated
ĠPoly tron
ĠEconom y
Ġconstitu ency
Ġvir us
Ġmathemat ical
Ġhapp ens
ĠArn old
ĠÃĨ lfric
ĠUygh urs
Ġsacrif ice
Ġlicens ed
Ġtal ented
ĠBelt line
Ġmusc imol
ĠPopM atters
Ġinver tebr
Ġconclus ions
ĠBes ides
Ġecho ed
Ġthro at
Ġsummon ed
ĠScandin avian
ĠÅ Įzora
Ġfest ivals
ĠAff airs
Ġmetaph or
ĠHuguen ots
ĠSiber ia
ĠPompe y
ĠDard en
Ġundergrad uate
ĠSche er
ĠHarmon ix
Ġwart ime
atab ase
Ġdread n
Ġreinc arnation
ĠCott am
ĠMumb ai
Ġgamb ling
ĠDiam andis
ĠNumb ers
ĠNgu y
Ġmanoe uv
cesters hire
Ġincumb ent
ĠBruss els
ĠManhatt an
ĠBerlio z
ĠMacAr thur
ĠÃħles und
a ak
a way
e ff
e be
f acts
k ap
l ot
l ude
n is
o T
p ow
p arts
s in
v ation
w ine
z t
z ens
Ã «
Ġ ã
Ġt rench
Ġt ears
he ars
in son
on i
on ian
on ium
Ġs ided
Ġs alt
Ġs eller
Ġs aints
Ġw is
Ġw ines
Ġw ield
Ġw ages
ed ers
or ia
Ġc ra
Ġf ighter
Ġb ent
Ġb ern
ar se
ar mer
al g
Ġp odium
Ġm ortal
ro ft
ic ing
Ġd iving
Ġd well
Ġh az
le ball
ĠT apes
ĠT aun
Ġre pt
Ġre vel
Ġre hears
ĠA my
ĠA oT
il iation
ĠS F
ĠS amp
ĠS aw
ĠS oir
ĠS iege
Ġl on
Ġl oot
Ġl ament
Ġl ift
Ġe uk
Ġn am
Ġn erv
Ġn Ã©e
am ous
ĠC ort
ĠC ave
ac ters
ur u
ur er
ĠM ason
ĠM ood
ĠM ember
ĠM ansfield
ĠM insky
Ġg ren
Ġg ale
Ġg au
ol or
ĠB ri
ĠB end
ĠB order
ĠB aja
im p
id as
ir ical
ir ie
Ġst ance
Ġst olen
ĠH il
ĠH ood
ĠH undred
ĠH ears
ay an
ay ette
ot ion
ut t
et r
ĠP t
ĠP ut
ĠP SP
Ġwh it
ĠR F
ĠR ight
ĠR CA
Ġal ly
Ġal arm
ĠF olk
ĠD in
ĠD uc
ĠD elta
ĠW ever
ĠN f
ĠN et
ĠN amb
ĠL N
Ġhe ated
ag ger
ag ged
Ġse am
um ar
Ġde ce
od ing
ĠO ric
ĠO we
ri ages
ĠE ye
ĠE SP
ĠE uras
if fer
ap ter
Ġor gans
ard i
Ġex agger
Ġpl a
Ġpl astic
Ġâ Ļ
Ġsh oo
Ġsh afts
ĠK id
ĠK ap
ĠK aw
ĠK PA
ĠK umar
Ġle gends
ment ed
ast ical
ast rum
ĠSt ore
ĠSt age
ell ers
cl one
cl esi
te facts
Ġcomp act
cc a
ra ught
Ġcont ests
Ġar tefacts
Ġun l
ĠV ick
Ġad ul
Ġad orn
ĠTh irty
Ġj ail
Ġj okes
Ġover night
Ġup s
Ġsp o
Ġsp ark
ke eper
ĠY u
ĠOn line
Ġatt ain
ose vel
ĠUn limited
rib e
ĠRe ports
ĠAn tar
Ġkn uck
ath a
Ġrel i
Ġrel ates
Ġcons ort
ĠEn nis
ĠMar a
ĠMar vel
ind a
ft ime
Ġver dict
Ġinter im
Ġap olog
Ġfl our
ĠNew ell
Ġac ademy
Ġbu oy
Ġmus cle
Ġday light
ific ant
oh an
Ġco aches
Ġsupp ress
Ġ10 4
Ġdec ent
Ġpres ervation
ros pective
Ġperform ers
Ġcap itals
Ġback wards
ĠSh r
Ġmon itor
Ġmill s
Ġsign als
Ġbr ass
Ġrun ner
ĠWh it
ĠWh ig
ĠIs is
der abad
Ġdist ress
ĠGer ry
anc he
Ġgener ations
Ġcar riage
enn e
Ġins uff
Ġsmall est
Ġ13 3
Ġ13 7
Ġ13 9
ĠTe le
Ġgu ided
ĠCl aws
Ġdr ains
Ġshort age
Ġty ing
Ġconf ined
Ġlit ter
ĠGr an
Ġperiod ically
ĠGe astrum
ĠRo osevel
Ġorgan ize
Ġprote ctor
Ġmonth ly
ĠÂ ²
Ġhal ftime
Ġph araoh
aster ly
ĠMc F
Ġdest ruct
ĠMan ual
ĠBo o
ĠNo thing
ĠFl ag
Ġcr imin
ĠOr chestra
Ġmid night
ne apolis
Ġpar an
ĠMin neapolis
Ġtimes lot
Ġobs er
Ġmanag ers
Ġeight eenth
ĠEd ith
ĠCent ury
ĠJack ie
Ġlim bs
ĠChar med
ĠChar acters
Ġconv icted
Ġconv oys
Ġnovel ist
ĠGl itter
Ġnational ist
ĠCal der
Ġfront al
Ġbroad er
com pany
Ġstri ps
ĠEx it
Ġarg ue
Ġarm our
ĠCr ane
ĠCr ush
Ġhost ing
ĠHar bor
umb ria
Ġ186 7
Ġren t
ĠMad res
Ġill um
anch oly
Ġlength s
ĠMy cena
Ġrul ers
Ġstay s
ĠCo al
Ġdi ary
Ġmer ging
clus ive
ĠVal uable
Ġslow er
ĠHel m
ĠThat game
ĠAc ross
ĠOs wald
ĠMo ors
Ġkey boards
Ġaut on
ĠFI BA
Ġder iv
ĠSov ets
itte es
Ġgrant ing
Ġpay ments
Ġlab elled
ĠGo fraid
ĠGo ogle
ĠUp d
Ġsat irical
Ġpian ist
Ġcommission er
Ġcommission ing
ĠMer c
Ġhealth y
Ġjud icial
Ġtalk ed
Ġinterse ct
Ġamb ition
Ġphot o
Ġtax es
oint ment
ĠHait ians
Ġdemonst rate
ĠJul ia
Ġscient ist
Ġspread ing
Ġpun ct
ĠTrans it
Ġrepe at
Ġexhib its
ĠDef ensive
Ġencour aging
Ġyellow ish
Ġmechan ics
Ġ65 0
ĠCons ervative
ĠBre eders
Ġprotect ing
ĠFer b
Ġtarget ing
ĠCra ig
ĠLis bon
ĠLis zt
Ġmel od
Ġshr ubs
Ġresemb ling
Ġflank ed
appe ared
Ġbank rupt
ĠPho ebe
ĠCold play
ĠSo ft
Ġmush rooms
Ġod or
Ġdial og
Ġec clesi
Ġnegot iate
ĠNH C
ĠBarb ie
Ġworship ped
ĠCy clone
ĠHy derabad
ĠDun can
ĠEll en
ĠMov ement
Ġsurvey s
ĠRod rig
ĠUr n
ĠRel ations
Ġexerc ises
ĠMarsh all
nell um
ĠDis appeared
Ġjoint ly
Ġvolunte ered
ĠBi ographer
ĠHu ai
Ġleuk emic
Ġdisapp ointment
ĠTrib une
Ġru in
Ġconstitution al
ĠTest ament
ĠBos i
ĠProte in
ĠInc re
Ġic onic
Ġble nd
Ġinaug uration
Ġspin ning
Ġow ed
Ġdivers ion
Ġgend armer
ĠDi arm
Ġet c
ĠCab o
ĠCab ral
Ġfeed back
Ġinterpret ations
ĠSher idan
ĠBlood y
Ġcustom ers
Ġrelie ve
ĠPict ish
Ġattrib ute
Ġdream s
Ġdipl om
Ġadm ired
Ġteen age
Ġteamm ates
Ġnav ig
Ġreprodu ction
Ġbulk head
ĠUnivers e
Ġuncertain ty
Ġconsult ant
ĠShel ley
ĠShel by
Ġbattlecru iser
Ġadopt ion
Ġvalid ity
Ġdiagn osis
ĠObser vers
ĠMichel le
ĠIndones ia
Ġneighb oring
Ġfacil itated
Ġdisappoin ting
ĠBulgar ian
Ġinher it
Ġcompens ation
ĠAuthor ity
Ġdiff ers
Ġsubsid iary
Ġsew age
Ġmathemat ics
ĠIv an
ĠLind say
Ġinsurg ents
Ġjuven ile
Ġjuven iles
ĠCond oms
underst ood
Ġpersist ent
Ġpled ged
Ġintegr ated
Ġreun ited
Ġnut ri
Ġsurpass ed
Ġairfield s
ĠVik ing
ĠKick ing
Ġguerr illa
ĠBoot leg
ĠAnaly sis
ĠColl ins
Ġantagon ist
Ġskelet ons
ĠEug ene
Ġrout ine
issart ensis
ĠPic ard
ĠThan hous
Ġinvent ory
ĠPeron ist
Ġmos que
ĠHond uras
ĠKrist ians
ĠTun nel
Ġepit het
ĠTrip oli
corrhiz al
ĠVaishn ava
Ġsubd iv
ĠWoods boro
ĠHyd nellum
pow der
Ġwis dom
Ġbern issartensis
Ġhaz ard
ĠTaun ton
Ġeuk ary
Ġnam ely
Ġnerv ous
ĠMood y
Ġgau ge
ĠDuc hess
ĠNamb u
ĠOric on
ĠOwe go
ĠESP N
Ġshoo ter
Ġknuck leball
Ġinsuff icient
ĠRoosevel t
ĠThatgame company
Ġecclesi astical
Ġgendarmer ie
ĠThanhous er
C N
M I
M usic
P ol
U CN
a fer
b ied
b acco
c ot
c ian
c ock
g ren
g iate
h ats
i ardo
j in
l ane
m are
o il
p est
r aged
r idge
u ers
u its
v ador
y on
y ers
z uel
Ġa ug
in ter
Ġthe or
Ġs ins
Ġo ath
Ġo mitted
at ories
Ġc ad
Ġc ov
it ime
Ġf ond
Ġf urn
ar on
ar med
Ġp ad
Ġp ew
Ġp ile
Ġp ipes
ing t
Ġto bacco
Ġm osa
ic ist
ic herry
Ġd red
Ġd inner
Ġh o
Ġh ast
Ġh ollow
Ġh atch
ĠT ag
ĠT ina
ĠT otten
ĠT resco
Ġre ly
Ġth underst
ou gal
ĠA mede
ĠS v
ĠS ter
ĠS ud
ĠS ide
ĠS ons
ĠS elf
ĠS oul
st ick
st ock
Ġl av
Ġl ord
om ans
Ġn a
ĠC el
ĠC rom
ĠC ars
ĠC ai
ĠC inc
ĠC urrently
ad vant
ac o
ac om
ĠThe odore
ĠM ons
ĠM aine
ĠM atch
ĠI UCN
Ġg est
ĠB ile
ĠB ask
ig uous
th ick
Ġst ir
Ġst aging
ĠH orus
ĠH inge
ot enic
ver se
et ball
ĠP ike
Ġwh ites
ch air
ĠR icc
ĠF ass
ĠD are
ĠD anish
ul ators
ĠW ins
ĠW int
ĠW ica
ĠN ol
ĠN ir
Ġan k
ĠG P
ĠG av
ĠG ry
ĠG lee
ĠL at
ĠL al
ĠL ik
ĠL uther
Ġhe n
ag ne
ĠJ ak
ĠJ ama
um ing
Ġr iff
Ġr idges
ri fic
Ġpro ven
Ġv ague
ill ance
ĠIn v
Ġch oral
ab ling
ab ilities
Ġpl aster
Ġsh aring
ĠK iss
Ġle v
Ġle ased
Ġtr ace
ĠCh ay
ĠCh and
Ġar rows
Ġun ident
Ġun ne
Ġun even
ĠV ert
ĠV anc
ĠV ene
Ġcl ip
ater nal
Ġab rupt
ime ters
ĠTh r
ĠAl am
Ġag aric
Ġdis advant
Ġsp rit
Ġen acted
Ġen abling
Ġout lets
Ġout numbered
Ġfin s
Ġfin ance
ĠRe ign
ĠRe action
ĠSe ym
Ġkn ife
Ġkn ights
ug ged
Ġunder way
Ġchar itable
ĠCom plex
Ġend uring
Ġinter ven
Ġreg ards
Ġass ets
Ġso ap
Ġso ils
Ġret ains
Ġbu ff
Ġacc idents
Ġsub urban
end er
Ġent ity
ll o
Ġdec ree
ph s
ph ic
Ġbl og
Ġgo at
Ġcap ped
ĠSh iban
Ġlong time
Ġsm oking
Ġcrit ique
ĠZ one
Ġgener ate
Ġdesign ers
Ġcar ving
az ed
ĠAugust us
Ġopen ly
Ġopen ings
Ġsuccess es
ĠFr iday
ook ed
Ġins ist
ĠBl air
ĠBl uff
Ġmet ropolitan
ĠPl ace
oss y
ĠAll Music
Ġgu ards
Ġgu ys
Ġreport ing
ĠCl ar
Ġ14 3
cess ary
ĠNov a
Ġdiffer ently
Ġconf ig
ĠAnd ers
ĠRo oms
Ġorgan isms
Ġbre ath
Ġstory t
Ġmark ings
Ġdem ons
Ġdem ise
ĠPe ck
ĠOr thodox
ĠBatt les
ĠBro ward
Ġbas al
ĠPh ineas
Ġevery where
ne um
ĠMin h
Ġfr act
Ġprof itable
Ġdecl ines
ĠAm ateur
Ġsound ed
ĠSte in
Ġpra eter
Ġactiv ist
Ġactiv ists
Ġlaw yers
Ġconv ective
Ġread s
ĠPal m
ring ton
Ġred dish
Ġste aling
Ġlik es
Ġcampaign ed
ĠOl af
ounc ill
Ġ31 7
Ġrev olt
Ġer up
ĠSw amp
Ġaccept ing
Ġburn t
Ġhy br
ĠCr isis
ĠCr usade
Ġsaw m
ĠFlor a
Ġmean while
Ġ186 9
Ġprob able
ĠMed dings
Ġmot ivated
Ġneg atively
ĠIndian a
Ġ187 3
Ġbill ed
Ġaccount ing
Ġesc al
lic ations
Ġtransport ing
Ġphys ician
Ġhard ly
ĠMont agu
Ġtest ified
ĠPre vious
Ġfail ures
ĠMo th
ĠStud ents
ĠFort une
Ġsyn th
Ġprior ity
ĠFI SA
ĠLight ning
Ġsem en
Ġradio active
ĠEarth real
ĠOtt omans
ĠFin ley
ĠSecond ary
Ġimm ense
ĠTre asury
Ġche ese
ĠTenn ant
Ġlog o
Ġlog ical
Ġlog istical
ĠStr ange
Ġhero in
ĠPit t
Ġwound s
Ġdism ay
Ġinvestig ations
Ġreject s
Ġ182 5
ĠTem pest
ĠFranc o
Ġconstit uted
Ġmodel ed
Ġbene ficial
ĠJul ius
Ġelev ations
writ ers
ĠRam on
Ġprec ious
ĠBurn ley
Ġqual ities
ĠSal vador
Ġwithdraw ing
Ġillust rate
ĠCons erv
ĠBre ese
ĠCommission er
ĠAnn ual
ĠLo ft
Ġseek s
Ġmoment um
Ġfle x
Ġcouncil s
Ġsens ation
Ġcust ody
Ġdrop s
ĠSat ake
ĠDemocr at
Ġmo ored
Ġfictional ized
kin son
Ġec ology
Ġattract ing
ĠKa iser
Ġstret ches
Ġspons or
Ġoverl ooked
aver n
Ġparalle ls
Ġut ter
ĠQedar ite
inn ati
Ġflu or
Ġflu ores
ĠPhoen ician
ĠGre cian
ĠCle an
Ġrob ust
Ġupd ate
Ġlic ence
ĠLess er
vis a
Ġimpr int
Ġlov es
ĠWi i
Ġshark s
Ġsynthes ized
ĠNap a
Ġancest or
Ġcarbon aria
Ġlob ster
Ġlob bied
ĠLoc ke
Ġdepos ited
Ġaccommod ation
Ġgoddess es
Ġsulf ur
Ġalleg iance
ĠCorn wall
agu ar
ĠRecord ings
ĠDAG s
Ġtight ly
ĠBron ze
á» ĩ
ĠPict ures
Ġfram ed
Ġoutl ined
Ġadvis ory
Ġmask ray
Äĩ a
ĠDiv isions
Ġteen ager
Ġfant astic
osom al
Ġcommemor ated
ĠCase y
Ġabol ition
ĠBald win
Ġdevast ated
Ġdiver ted
ĠFem ales
Ġencl osed
ĠAndre a
Ġjew el
ĠMcD ougal
ĠPolit ical
Ġid ol
ĠUlt imate
Ġzomb ie
ĠBosn ia
fe it
Ġexceed ing
Ġcomfort able
Ġenforce ment
Ġacceler ated
Ġstall ion
ĠInvest igations
ĠConn ectic
ĠCov enant
ĠTow ards
Ġplag ued
ĠGabri el
Ġpron ounced
ĠLaure nce
ĠBou levard
ĠGross man
ĠMontene gro
Ġcounteratt ack
Ġconven ient
ĠCruiser weight
Ġphilosoph ical
Ġsurve illance
Ġyl ide
ĠWilf rid
ĠPD R
Ġoxid ation
Ġhairst yle
Ġol ive
ĠSchol ars
ĠChanc ellor
Ġunve iled
Ġgran ite
Ġjurisd iction
Ġflatt ened
Ġbacter ia
ĠHew itt
ĠFro st
ĠLaur a
ĠTresco thick
ĠAmede o
ĠCinc innati
ĠBile Äĩa
ĠBask etball
ĠRicc iardo
ĠFass l
ĠWint ory
ĠLik ewise
Ġunident ified
Ġunne cessary
ĠVert igo
ĠVanc ouver
ĠVene zuel
ĠSeym our
Ġpraeter visa
ĠEarthreal m
ĠConnectic ut
E u
O S
c ore
c ope
d ed
e ing
e em
f inger
h appy
i ott
i ago
l ides
m i
n s
p her
r ance
r ator
t he
u w
u pe
v or
v et
v ae
x i
y che
Ä «
Ġt utor
Ġa ims
Ġthe ft
er os
on ies
Ġs av
or igin
Ġc ott
Ġf als
Ġf urs
en ess
en que
is key
Ġb ub
Ġb ells
Ġb ugs
an istan
Ġp ays
Ġp agoda
as ad
Ġd un
Ġd ish
Ġd irt
Ġre jection
ĠA ud
ĠA qu
ĠA ret
ĠA uck
ĠS ister
ĠS ipp
Ġl un
Ġl ingu
Ġl ocked
om ore
Ġn ost
Ġn ude
Ġn atives
am pton
am organ
am oto
ĠC ou
ĠC ost
ĠC ze
ĠC aen
ĠM ut
ĠM ake
ĠI bra
Ġg ases
Ġg lee
ol iot
ĠB rent
ĠB uff
ir able
Ġas c
ct ive
th a
th ane
Ġst ake
Ġst unt
ĠH D
ĠH ost
ĠH its
ĠH eller
ut land
ĠP as
ĠP ad
ĠP ap
ĠP ont
ĠP hys
ĠP anther
ĠP iper
ĠP iano
ĠR ud
ĠF il
ĠF ork
ĠF oliot
ĠD up
ĠD hang
ĠD ictionary
Ġcon fer
em ics
ĠW ake
ĠW anna
ĠW izards
rom e
os c
ĠN W
ĠG et
ĠG em
ĠG iant
ĠG onz
ĠL an
ĠL ion
ĠL angu
ĠL anding
ĠL ulu
ĠL erner
Ġhe red
ag g
ĠJ utland
Ġse ap
Ġse eds
Ġr ip
ri ers
ri ans
ĠE ff
ĠE lection
ist o
ist ocr
Ġsu ck
op ard
art et
Ġch ains
Ġch ambers
gh anistan
ab its
Ġpl ague
Ġpl ural
Ġsh ame
Ġsh ocked
Ġsh adow
ĠU tt
ĠK av
ĠK ab
ĠSt ead
Ġtr ap
Ġtr act
Ġtr aced
ĠCh as
ĠCh am
ure thane
ra h
Ġar istocr
Ġun chang
Ġun happy
ĠV ernon
Ġbo ot
Ġbo hem
ile y
pl ing
Ġsc iences
Ġdes ires
Ġdes erted
ach arya
Ġsp ik
Ġen forced
Ġim min
Ġout ages
Ġpre ference
Ġatt itudes
ĠUn ic
ĠRe clamation
ĠAr men
Ġcan opy
ĠMar ÃŃa
Ġlater al
ision ed
ĠDe cl
Ġfl av
Ġreg ulate
Ġass ignment
Ġlar vae
Ġdef ine
Ġacc ent
Ġsub pl
Ġsub tle
Ġsub stituted
ĠLe gends
ob ia
Ġgr ants
Ġent renched
ll otal
Ġpres umed
Ġ12 8
aj uk
ĠSh ield
Ġdevelop s
ann er
Ġcre ates
Ġ11 9
Ġ15 9
Ġ15 00
Ġmay be
Ġcrit eria
Ġob jections
ĠIs hm
Ġinst inct
der finger
Ġoper ative
ĠZ immer
Ġprev ail
Ġwar riors
Ġair space
enn ial
ĠBe a
ient ious
Ġgu ests
ĠFor g
ĠAd vert
Ġ14 5
ĠFe ast
Ġserv ants
ĠGu ang
Ġport ico
Ġconf isc
Ġvis ions
ĠEurope ans
Ġwater way
Ġhum id
pend ing
Ġcolle ctor
Ġcolle ges
Ġhal t
Ġpresent ing
Ġview er
ĠPr ism
ĠPr ison
ĠPr inc
ĠPr asad
aff ir
ĠWe ber
aken ing
Ġcommun al
ĠCanad ians
Ġfind ings
ung le
ĠCount ies
Ġpar odies
ĠPer haps
Ġsol ving
Ġfar mer
Ġfact ions
Ġpat ient
Ġord in
ĠPol es
ĠSte am
ĠSte el
Ġfather s
Ġide ology
ĠRich ards
Ġconv inc
Ġconv entions
ĠPal enque
ĠHigh lands
Ġpit chers
ĠGl amorgan
Ġste als
ĠRec overy
Ġlet ting
Ġredu ces
ĠGrand e
Ġfif teenth
Ġagre ements
Ġrecogn ise
Ġbar riers
Ġprofess ors
Ġsw ift
ĠSw an
Ġ188 7
Ġmiss ile
ĠHar ajuk
umb led
Ġ186 4
Ġemploy ing
ming ton
ĠHouse hold
Ġregard less
ĠGal entine
Ġfootball er
Ġtreat ments
Ġcontract ing
ĠCap illa
Ġtrib al
Ġintens ification
ĠVar iety
Ġtravel ers
ĠCard inals
ĠNot es
Ġhard cover
Ġdiss olved
Ġpur ple
Ġ184 4
ĠAc ad
Ġdisplay ing
Ġscore less
Ġforest ed
ĠAg ust
Ġcru el
ĠArt ic
Ġcal endar
Ġhom eless
ĠTer ror
Ġexam ine
Ġconclud ing
ĠFrank f
Ġdomin ance
Ġemb ark
ĠOtt o
Ġpay ment
Ġcelebr ating
Ġgirl friend
ĠQu est
Ġanaly ses
Ġbord ering
Ġemer ge
Ġimm ature
Ġdram atically
Ġenv isioned
Ġhero ic
Ġportray s
Ġexperi encing
ĠTw ice
Ġexcept ions
Ġexcept ional
ĠRosebery s
Ġuns ure
ĠCer atops
lim inary
ĠSur rey
ĠUnder wood
rol oph
Ġarchitect s
Ġtext ile
Ġpick ing
Ġquestion ing
Ġiron ic
Ġtax a
Ġnarr ation
Ġcorn ers
Ġcrowd ed
Ġsust ain
Ġincorpor ate
Ġgrass land
Ġillust ration
Ġcandid acy
Ġrang ed
Ġhun ted
Ġvo ters
Ġraid ing
Ġfolk lore
Ġdoub ts
ĠWrit ers
Ġadj ust
Ġfle ets
Ġcompr ise
Ġcolumn ist
Ġdeliver ing
gn ine
Ġsand stone
Ġcust omer
ĠRog ers
Ġvirt u
ĠLes ter
Ġmob il
ĠPen elope
ĠLeg ion
Ġ179 4
Ġmig rate
Ġfur ious
Ġarc ade
ĠEll iott
Ġresear ched
Ġbenef its
ĠAdv ance
ĠBrook lyn
Ġ175 9
Ġexplos ions
ĠStevens on
ĠGram mar
Ġrac ist
Ġsle e
ĠWind ows
ĠLu ke
ĠML s
Ġbond s
Ġdoct r
Ġdoct ors
Ġaccur ately
Ġscholar ly
Ġgal ley
ĠMot ion
Ġharm ony
ĠTrib ble
Ġ91 0
Ġdecor ative
Ġsan ctioned
Ġshif ts
Ġshif ting
Ġow l
Ġansw ers
ĠJoy ce
Ġtick et
ĠMother well
ĠKit ty
uls ion
Ġdivor ced
ĠTs ub
Ġimpl ied
Ġpossess ing
Ġfuner ary
Ġdwarf s
ĠVeer asha
Ġoffs pring
Ġobl igation
Ġculmin ating
ĠPow derfinger
Ġclust er
ĠSant iago
ĠPubl isher
Ġcoinc ided
ĠBor gnine
Ġquant ity
Ġsupplement ed
Ġprofession ally
Ġdevast ating
ĠDisc overy
Ġintercept ions
Ġcounterp arts
Ġcompens ate
Ġgar age
Ġdiff ered
Ġgor illa
ĠAf ghanistan
Ġing red
Ġnom ine
ĠLamb ton
ĠSev ent
Ġlegit imate
Ġmoist ure
ĠUk rain
ĠUk raine
ĠKle ine
Ġsoph omore
Ġswit ching
ĠSaf ety
ĠStand ard
ĠHein rich
Ġtriang le
Ġantiqu ity
ĠTraff ord
Ġpione ering
Ġforg otten
ĠHem isphere
Ġenthusi astic
Ġsummar ized
Ġtrium ph
Ġdisappear ance
ĠAw akening
Ġmonaster y
Ġprolong ed
ĠPear l
Ġdisch arge
ĠTrad itional
Ġembry os
Ġfacilit ate
Ġinex per
ĠAval on
ĠSic ily
Ġnons ense
ĠLem on
Ġarcher y
ĠAndr Ã©
Ġsuperst ructure
ĠGameSp ot
ĠAppro ximately
ĠBroadcast ing
Ġfab ric
ĠUC L
Ġtouc hed
ĠCert ifications
ĠBore as
ĠEleph anta
Ġprehist oric
Ġremaster ed
ĠPorts mouth
ĠFranÃ§ ois
Ġreconstru cted
iob ook
ĠSylv ia
ĠJas per
Ġabst ract
Ġempl acements
ĠBeeth oven
origin al
ĠAret usa
ĠAuck land
ĠSipp y
ĠCze ch
ĠIbra h
Ġbohem ica
Ġimmin ent
llotal pa
ĠIshm ael
ĠPrinc ipe
ĠHarajuk u
roloph us
ĠVeerasha iva
D P
D er
N H
W er
a at
c ue
d rop
f ast
f ront
f ume
g ge
g amer
k ok
l ake
m other
o os
p in
p ie
p ah
r av
r ained
r aten
u ber
u arius
v ard
v ous
v ogns
y ards
z co
z antine
á º
Ġt s
Ġt in
Ġt ired
Ġt ips
Ġt ables
Ġt rophy
er ma
on ance
re ced
Ġs el
Ġo h
Ġo mn
Ġw and
Ġw ors
un ner
at ford
at aka
at ineae
or ers
Ġc ater
Ġc urric
Ġc ounted
Ġc ivic
it ational
it ting
Ġf et
Ġf are
Ġf ret
Ġf use
Ġb ou
Ġb idd
Ġin eff
ar ious
al ine
Ġp ist
Ġp amp
Ġp anther
Ġp irate
Ġm ant
Ġm ates
Ġm aid
Ġm asc
Ġm ajors
Ġm uzzle
Ġm aat
ro ck
ro zco
Ġd an
Ġd itch
Ġh ole
Ġh ides
Ġh ailed
Ġh aul
Ġh iding
ĠT ry
ĠT aking
ĠT rent
ou che
ĠA AA
il ian
ĠS aid
ĠS ier
ĠS uz
ĠS ource
Ġl ined
Ġl aser
om ics
ĠC row
ĠC ounter
el bach
Ġwas ps
ĠThe a
Ġbe ads
ĠM ith
ĠM urch
ĠM ale
ĠM aple
ĠI cel
Ġg ig
Ġg ully
Ġg ems
ol ades
ter ing
ĠB ard
ĠB ever
ig ouche
ow itz
Ġst ressed
ĠH us
ĠH ank
ĠH ull
ĠH unt
ĠH orses
us c
ut o
ut ives
et o
et ics
ĠP ain
ĠP aper
ĠP engu
ĠR P
ĠR us
ĠR ough
ĠR are
ĠR ank
ĠR uf
Ġal ert
ĠF C
ĠF ing
ĠF ac
ĠF OC
ĠD il
ĠD ante
em n
ul um
ul ance
ĠW or
ĠW is
ĠW id
ĠW uz
ĠW ÅĤ
Ġat ions
ĠN os
ĠN um
ĠN ail
ĠN ike
ĠN ek
ĠG ama
ĠG aming
ĠL ano
ĠL SU
ĠL ohan
est ial
ĠJ azz
Ġde an
Ġr ats
ĠO z
ĠO rozco
ĠE rics
ĠE yes
ĠE ighth
ĠE thi
ist ible
ist icated
Ġv eto
res istible
Ġch ore
Ġex ceeded
ud ing
se pt
ĠU P
ĠK v
ĠK its
ĠK aly
ĠK urst
Ġle an
ov s
ĠSt arr
ĠSt rait
pt ide
ge ur
ish na
ust rated
Ġcont am
Ġar ise
Ġun ite
Ġun be
Ġun used
Ġ20 2
ub ens
Ġro d
Ġint entions
ĠV ery
Ġcl ick
Ġcl iffs
Ġab dom
ok raten
Ġrec ount
ĠTh arp
ĠAl tern
Ġman or
Ġover ly
Ġsp are
Ġsp anning
Ġsp arked
Ġsp iders
Ġne on
Ġcomm ence
ĠRe ala
ĠRe ubens
ĠSe th
ĠSe lect
Ġfe as
ubl ed
ĠAn ime
Ġrel at
Ġrel ate
ĠCom ing
ĠDe Grom
Ġpos ed
Ġpe ers
Ġfl ocks
Ġass ists
Ġret aliation
Ġno ct
Ġbu ying
rop hic
Ġam ber
Ġdo zens
ob s
Ġfound ations
ird elbach
Ġback drop
ise vogns
Ġtrans itive
ĠBr andon
ert aker
Ġmon ks
ĠSc reen
ĠSc apa
Ġ15 7
ram er
Ġpol es
Ġrece iver
Ġter restrial
Ġdep ressed
Ġdep ressions
Ġdisc ret
ĠZ omb
Ġinf ant
Ġinf ections
els kap
Ġgener ating
ĠCon rad
ĠBl of
Ġgroup ed
Ġ13 4
Ġ13 8
Ġgovern ors
ĠAll iance
ĠCol er
Ġconc olor
ĠCl ive
Ġprom ises
Ġdr ained
Ġbuild s
Ġworld s
ĠTr avis
Ġmar riages
ĠEuro gamer
Ġposs ibilities
Ġgun nery
Ġvis ibility
Ġref usal
Ġexpl oring
ĠBy zantine
Ġsl ate
Ġcommand os
Ġcapt ures
ĠPr imet
Ġdest inations
ĠMan ning
ĠMan heim
be c
ĠSp y
ĠSp isevogns
Ġmy cologist
Ġsimilar ity
Ġdeb ts
Ġdifferent iation
atter ing
Ġtot als
Ġhalf way
ott a
Ġ22 1
Ġel bow
Ġdecl are
Ġsol ic
Ġcritic izing
ĠX V
Ġtro ubled
ĠDes cribed
ĠAm ps
Ġpat rons
Ġpost pon
Ġstruct ured
Ġnight s
Ġcat aly
Ġcat alog
ĠTo o
ĠTo irdelbach
Ġrelig ions
Ġcoast s
Ġoccur rence
ĠGl orious
ĠAng lic
Ġlik ened
ator ial
ĠMor oc
Ġgl iders
Ġfac ial
Ġcas uarius
Ġmass acre
Ġbus y
Ġsex y
Ġsuper ficial
Ġcreat ures
ĠSer g
Ġlaun ching
ĠHar vard
Ġ35 8
Ġprob ability
Ġbi ographical
ĠCo ach
Ġ187 5
Ġly ric
ĠQue bec
Ġz oo
ĠTor o
Ġ183 9
Ġpriv acy
ĠArab ian
ĠSchool s
Ġpen alties
Ġexec utives
Ġop ener
Ġhard er
Ġsurround ings
ĠMac l
Ġ184 5
Ġdeal ers
Ġrap per
ĠEver ett
Ġtest imony
ĠRes cue
ĠLaw s
ĠArt ists
Ġkey s
Ġaut onomy
Ġaut omatic
Ġdisp uted
Ġfir ms
Ġdomin ate
Ġemb ro
Ġprem ises
Ġreach ability
ĠQu ite
ĠLou ise
Ġcle ver
Ġacqu iring
Ġnucle ol
Ġkind erg
ĠStr atford
Ġbox es
Ġjud ges
ĠBen adir
ĠRob bie
Ġrecover ing
Ġ182 4
ĠAI F
Ġprincip ally
Ġimpact s
Ġrelief s
Ġamb ushed
Ġphot os
ĠAlex and
Ġsal ts
Ġpaper back
Ġ51 6
ĠBet ter
ĠBalt ic
Ġdemonst rating
ĠDem okraten
ĠJul ie
ĠEr n
ĠKr ishna
Ġsculpt ed
ĠAndrew s
Ġincorpor ating
ĠDist inguished
Ġrecommend ations
ĠRad ical
ĠBol iv
Ġnarrow er
ĠDou g
Ġtermin al
ĠAv iv
Ġthir teenth
Ġir ony
Ġhun ter
ĠHistor ically
ĠVan Der
Ġfit ting
Ġfung al
ĠVen geur
Ġenter prise
Ġcampus es
ĠField s
Ġdefin itive
Ġhappen ing
Ġcompar atively
Ġcompar isons
Ġresemb lance
Ġprotest ed
Ġsand y
Ġstrik es
Ġvirt ual
ĠOp Ã©ra
ĠJain ism
Ġham mer
ĠDomin ion
udd ers
ĠRy der
Ġfaith ful
Ġbass ist
Ġunp reced
Ġcool ing
bl ock
ĠKn ight
ĠHy de
ĠLiber ation
Ġtend ency
Ġtall est
ĠBas in
ĠRet aliation
Ġglob e
ĠTeam s
Ġinteract ive
Ġfashion able
Ġquot es
Ġign ore
Ġgrav itational
Å¡ ka
ĠPers ians
Ġcourts hip
ĠRel igious
ĠLow e
Ġrob ot
ĠJac ques
ĠInit ial
ĠAbb ot
Ġaccur acy
Ġpack ed
ĠHu izong
Ã¼ r
Ġtra uma
Ġintention ally
och ond
Ġcoord in
Ġfer ry
ĠAnc ients
Ġlob by
Ġdepos it
Ġsight ings
Ġsuperior ity
Ġcry st
Ġcry stal
Ġagree ing
Ġpure ly
Ġ166 0
Ġverte bra
ĠBron x
ĠJenn a
Ġsatisf y
ĠXe O
ĠPass ion
Ġrecru iting
Ġoutl aw
roscop ic
Ġmerch ants
ĠBang kok
ĠRest aur
ĠRest igouche
Ġcopy right
ĠMagdal ene
Ġalleged ly
Ġinstall ation
ĠBeh av
ĠSle ep
Ġconsol es
ĠIraq i
Ġinse ct
Ġanth ology
Ġceratops ian
pic uous
Ġvul gar
Ġori ent
Ġenzy me
Ġsuperv ision
Ġsemif inal
ĠJun o
ĠUnd ertaker
Ġprofession als
ĠImm ortal
ĠAndre as
Ġintercept ed
Ġaffil iated
ĠPolit ics
Ġsket ches
Ġcounterp art
Ġsevent eenth
Ġmir ror
ĠKau ai
ĠSay id
ĠPan ama
ĠProm otion
ĠHonor ary
erm atineae
ĠDod ge
ĠThak sin
ĠExper ience
ĠFut ure
Ġreward ed
ĠMong olia
Ġprest igious
Ġprest ige
Ġedit orial
ĠBeau f
Ġsoph isticated
Ġrejoin ed
Ġenroll ed
Ġped est
Ġdisgu ised
Ġwonder ful
ĠForb es
ĠSyn opsis
Ġconspir acy
ĠAmylostere um
Ġmemoir s
Ġoutd oor
Ġincred ible
Ġcyl ind
ĠStat istics
Ġrepet itive
Ġconfron ted
Ġbesie ged
Ġmammal ian
Ġdign ity
ĠSpect or
Ġecl ip
ĠBod Ã¸
ĠRat ings
ĠSquad rons
Ġunw illing
Ġmidfield er
Ġdynam ics
Ġtheolog ians
Ġcel estial
Ġmit ochond
Ġunemploy ment
Ġspor adic
Ġdigit ally
Ġironcl ad
ĠPra irie
ĠKend all
ĠSclerod ermatineae
ĠCore y
Ġvow el
Ġannex ed
Ġcorrupt ion
Ġgalax y
ĠNig el
Ġtran sept
ĠEnvironment al
Ġlambe osaur
ĠHast ings
ĠDangerous ly
ĠVoc al
ĠIndivid ual
Ġrehabil itation
Ġmason ry
ĠKarn ataka
Ġirr igation
Ġinvertebr ates
Ġã Ģ
Ġcra zy
ĠPt ole
ĠRF U
Ġdece ased
Ġcrimin als
Ġauton om
ĠDiarm ait
Wer ff
Ġpist ols
Ġpamp h
ĠSier ra
ĠIcel and
ĠBever ly
ĠFOC A
ĠWuz hu
ĠNum erous
ĠNail z
ĠLano is
ĠErics son
ĠEthi op
ĠKurst in
Ġunbe aten
Ġdiscret ion
ĠBlof eld
ĠPrimet ime
ĠSpisevogns elskap
Ġpostpon ed
ĠAnglic an
Ġkinderg arten
ĠVanDer Werff
Ġunpreced ented
Ġvertebra e
4 8
C P
C S
G A
N e
R U
a ic
b ons
c r
c are
c aster
c hester
g s
g il
h o
i u
i enna
m issions
p it
p ur
p ension
p unct
r ades
s ore
s Ã¸
t any
t ze
t aker
u ity
w ild
y ne
Ġ à
Ġ ul
ħ n
Ġt ap
Ġt ear
Ġt ents
in ts
in ished
on ts
Ġs ar
Ġs its
Ġo st
at ro
at os
at ile
nd um
Ġc av
Ġc oy
it ul
it ement
Ġf used
Ġf ores
Ġf inger
Ġf onts
is bury
Ġb red
Ġb ree
Ġb ars
Ġin app
Ġin ev
ar ity
an ou
Ġp neum
ing ent
as ive
Ġto ys
Ġm our
ro e
Ġd atabase
Ġh ub
Ġh ors
Ġh aw
le z
le ased
le ba
ĠT a
ĠT rom
ĠT ull
ĠT BS
ĠT alent
ĠT oso
Ġre ef
ĠA S
ĠA ur
ĠA chie
ĠS T
ĠS ad
ĠS ang
ĠS pr
ĠS ih
Ġl ords
Ġl unch
om ical
om ach
Ġe S
Ġe ct
Ġn omen
am as
ĠC od
ĠC ould
ĠC ake
ĠC reat
ĠC roy
ĠC oul
ĠC edar
ĠC asc
ĠC ushing
el ong
ad ice
Ġwas hed
Ġbe ast
ur p
ĠM ol
ĠM ust
ĠM aj
ĠM ores
ĠM ills
ĠM ental
ĠM ullen
Ġg low
Ġg leba
ĠB u
ĠB ear
ĠB ros
ir is
ig ators
th rough
Ġst alled
Ġst ems
Ġst icks
Ġst unning
Ġst aples
Ġst omach
ĠH ilda
her ical
ot ing
ĠP S
ĠP red
ĠP ars
ĠR an
ĠR ing
ĠR ise
ĠR ange
ĠR ights
Ġal iens
ĠF ind
ĠF itz
ĠF ighter
ĠF CC
ĠD ere
ĠD raw
ĠD ana
ul co
ĠW A
ĠW es
ĠW ies
ĠW hed
ĠW ied
ĠW ern
ĠW atch
ĠW adi
ĠW RU
ĠN ue
ĠN ile
ĠN uclear
ĠG or
ĠG az
ĠL P
ĠL act
ĠL one
ĠL ines
ĠL oss
ĠL ope
ĠL ights
ĠL iga
Ġhe ter
Ġhe aling
av ag
ĠJ ains
Ġr im
Ġr iders
od us
ĠO ah
ĠO uter
ri um
Ġcom rades
ĠE ld
ĠE tymology
ĠE MI
Ġpro ph
ĠIn ocy
ap ulco
ong ated
op ter
art ments
all ing
Ġch ip
ab h
Ġpl ains
ant ara
Ġsh apes
ĠK ress
ĠK ai
ĠK antara
Ġle ve
ov E
ast rous
ip her
ip oli
ord a
Ġtr aps
Ġtr aver
Ġtr usted
ell ular
Ġcomp are
Ġcomp artments
Ġcont ingent
Ġun t
Ġun ions
Ġro ok
Ġint ensive
ĠV inc
ĠV asco
ĠV ienna
out ing
ok ho
Ġres ide
Ġres ource
ĠTh ous
Ġper ce
Ġper ipher
are z
pl ant
ans ions
Ġsc andal
ĠAl tar
ĠAl ien
clud ed
Ġdes pat
Ġman ned
Ġdis g
Ġdis hes
Ġdis astrous
ult imate
Ġover th
Ġup coming
ang s
Ġsp ine
Ġsp rin
Ġsp herical
Ġout right
Ġne ared
Ġfin anced
ens ahl
oin ed
ĠRe f
man uel
Ġear s
Ġcan yon
ĠEn ix
ral tar
ĠCom ic
Ġpr ayer
Ġreg ulated
Ġspec k
ĠNew market
Ġapp rent
Ġno itul
Ġdef ining
Ġdef enses
Ġsub ty
Ġsub gen
Ġsub cont
ĠLe Ch
Ġdo le
Ġgr apes
Ġele gans
orn ographic
Ġpres idency
ĠBrit tany
Ġpo res
Ġsing led
Ġback up
ĠSh i
ĠSh o
ĠSh op
ĠSh awn
Ġtrans plant
iet t
ĠSc ar
ĠSc hed
ĠShe en
ĠShe ar
Ġsm ell
Ġrun off
Ġdep osition
Ġmil it
Ġdist ract
ĠZ o
ĠZ inc
ĠZ ero
Ġinf lict
Ġexp ired
tend er
Ġwar ming
Ġair borne
Ġeff ici
Ġins erted
ĠBl aine
Ġstr ained
ĠCar rie
ĠCar lo
ĠPl aza
erv ois
ĠCl aude
ik opter
Ġcare taker
Ġstate hood
Ġbuild er
ĠGu est
Ġshort est
Ġshort ened
Ġport ed
Ġjust ified
Ġgun powder
Ġarr ay
Ġappro ve
Ġref it
ĠGr aves
Ġbest s
Ġbre ach
Ġview points
Ġcapt ained
Ġstand ings
Ġlocal ized
ĠBo hem
ĠBo adice
Ġsuggest ions
Ġcr ust
Ġcr ushed
let t
Ġreal m
ĠBro ken
Ġmid st
ĠComp et
Ġmag ist
Ġcommun ists
Ġpar atro
Ġprop eller
Ġel imination
Ġel ongated
Ġfre estyle
ĠBar re
ĠBar rett
ĠX I
ĠX in
Ġtro ut
ĠDes ert
Ġprogram mes
ĠAm end
Ġpress ures
Ġdet ection
ĠEd wards
Ġshould ers
Ġpat rolling
Ġord nance
Ġpost ers
Ġpost ure
ĠSte ff
Ġgen ius
Ġlim iting
int a
int us
Ġrad ial
ĠChar ter
ĠReg ional
Ġsk illed
Ġcor onation
Ġtechn ically
af e
Ġcert ificate
Ġrank ings
Ġgoal tender
Ġtre asure
Ġpred iction
Ġgl am
Ġ31 9
Ġrev isions
ĠHam el
Ġassoci ates
Ġmother s
Ġbus es
Ġstri pped
Ġbar row
Ġbar rel
Ġbar rels
ĠEx change
Ġsw amp
Ġsex punct
ĠMon te
ĠMon uments
Ġaccept s
Ġhost ilities
iron ments
ĠJew els
Ġexc itement
Ġrespons ibilities
ĠMy ers
ĠMy sore
Ġreb uild
Ġbur st
Ġbur den
Ġ187 1
less ly
Ġdi able
Ġinvest ed
Ġviol ated
Ġviol ations
Ġclear ance
Ġquarter f
Ġsurf aced
ĠVir gil
Ġpers ec
ĠDr agon
Ġpen ultimate
ĠHel ikopter
ĠAc re
ĠAc apulco
Ġaccording ly
ĠOs iris
ĠSl ant
Ġcru ising
ĠRes p
Ġden y
Ġden ial
Ġmention ing
ĠNort on
Ġdead ly
ĠVer mont
arm a
Ġexam ining
Ġfrequ ented
Ġdisp ers
ĠLa uder
ee v
Ġemb odied
Ã³ w
ĠWood stock
ĠFin ance
ĠGo ing
ĠFore ver
ĠGro ening
ĠTour ism
Ġsus pension
Ġbig ger
ĠMil an
ĠMil itia
Ġenv ironments
ĠJo ey
Ġspeed s
Ġdivision al
Ġhusband man
ĠBob c
ĠRob ot
Ġattend ant
Ġsaf ely
Ġpurs uing
Ġbackground s
Ġris ks
Ġcompos ite
Ġmagn et
Ġlif elong
Ġresc ues
ĠJul es
Ġ181 8
ĠCivil ian
Ġtypes et
Ġplant ed
Ġplant ations
ĠBurn side
Ġexcav ated
ĠCommun ications
ĠCont inental
Ġreign ing
ĠSal isbury
Ġfa una
ĠProdu cer
Ġextr avag
Ġroll ed
ĠGall ipoli
Ġfrag ile
Ġfix ture
Ġcollect ors
Ġshr ub
ĠPublic ation
Ġalter ation
ĠArm oured
Ġconvers ations
Ġtim ed
Ġge ological
rain ts
ĠGi acom
Ġcontact s
ĠDen is
Ġ179 0
Ġbit ter
ĠCre ation
Ġmig rants
ux e
Ġrow ing
Ġprefer ring
Ġelimin ating
ĠAer osm
ato ire
Ġassass inated
Ġsynt hetic
ĠJud ge
Ġindu ced
Ġcho osing
Ġglass es
Ġrac ism
Ġ176 6
Ġsurviv or
Ġsle nder
Ġhall s
ĠBur ton
ropri ate
Ġmonument al
ĠStef an
Ġworth y
Ġmort ars
Ġlic ense
Ã¨ te
Ġcinem at
ĠVol ume
ĠMozamb ican
nest y
ĠDom estic
Ġcommit ments
add y
Ġbes ides
Ġske pt
Ġretreat ing
Ġabsor ption
Ġib otenic
ĠMid way
ĠDev on
Ġcitiz en
Ġproceed ings
Ġspaces hip
Ġ122 4
Ġmis understood
Ġunf inished
Ġhat red
Ġgross ed
ĠGeoff rey
Ġsam pled
ĠHun ting
ĠDi ocese
ĠLabor intus
ĠGib raltar
ias m
Ġvac ant
á» ħn
ĠTon ight
Ġearn ings
ĠBall iett
Ġconj oined
Ġshop ping
Ġinstru ctor
ĠProfess ional
Ġdraf ts
Ġsupern ova
ĠNL F
Ġcomed ic
Ġcommemor ate
ĠBat ou
Ġexplo its
Ġpull ing
ĠBah Ã¡
ĠBah amas
Ġrenov ated
Ġprefect ures
Ġslip ped
ĠMagn olia
Ġneighb ors
Ġenthus iasm
ĠMitchell s
Ġforth coming
ĠRom ans
ĠPanzer gren
ĠCO s
Ġcyt ogen
Ġsubsid ies
Ġstim ulated
Ġrefere ndum
Ġaerodrom e
Ġfru its
Ġreag ent
ĠCit ra
Ġpenet rate
ĠOw asco
Ġconsolid ated
ĠMong ols
Ġobsc ure
Ġnom adic
ĠImp act
Ġovers aw
Ġdeterior ated
ĠMond lane
Ġendors ed
Ġguarant ee
ĠHit ler
Ġplag iar
ĠYang tze
Ġweigh ing
Ġmorph ology
ĠGabri elle
Ġmicroscop y
ĠTan aka
ĠWorth ing
Ġreconc ile
Ġcasem ates
Ġantiqu ities
ĠTraff ic
ĠMoh am
Ġpref ers
ĠForb idden
Ġfemin ist
ĠFinn ish
aude ville
Ġtheore tical
idel ity
Ġspokes man
Ġforb idden
Ġinteg ration
Ġuncom mon
ĠExpedition ary
Ġredesign ated
Ġrus hes
ĠKer ry
ĠBeat les
Ġhemmem a
ĠCamer on
ĠAlph a
Ġtownship s
Ġalgorith m
ĠKod okan
ĠArchitect ure
ĠVolunte er
ĠKaram okho
ĠHomar us
fam ily
Ġpock et
Ġshar ply
ĠScr atch
ĠMethod ist
Ġimprov ised
ĠBelie ve
Ġbunk ers
icy cle
ĠTak umi
Ġstair case
Ġsupervis or
ĠArbeider en
Ġther mal
Ġeucalypt s
ĠMott ola
Ġunre leased
Ġcontradict ory
ĠHubbard ton
Ġcourty ard
ĠNguy á»ħn
ĠBorder ers
iffer ent
apter iscus
Ġadorn ed
Ġdestruct ive
Ġobser vers
ĠMerc ury
Ġpunct uation
ĠSoft ware
ĠKristians and
Ġaug mented
Ġlav ish
Ġank le
ĠGP U
ĠAlam os
ĠBluff s
Ġconfig uration
Ġhybr id
ĠConserv atoire
Ġinapp ropriate
anou k
Ġpneum onia
Ġmour ning
ĠTrom sÃ¸
ĠTBS A
ĠAchie vement
ĠSih anouk
Ġect omy
ĠCroy don
ĠCasc ade
ĠMores by
ĠDere k
ĠWhed on
ĠWied ensahl
ĠWern eth
ĠNue ces
ĠLact arius
ĠLope z
ĠOah u
ĠEld er
Ġproph Ã¨te
ĠInocy be
Ġtraver se
Ġrook ie
Ġnoitul ovE
Ġsubcont inent
ĠLeCh uck
Ġeffici ency
ĠBoadice a
Ġsexpunct atus
ĠLauder dale
ĠGiacom o
ĠAerosm ith
ĠPanzergren adier
A ll
H A
T A
a ig
b il
b ot
b age
c ence
c hel
c ano
d i
d ick
d een
e el
f ortunately
g one
g eworth
i enced
j ing
l ace
l ank
m ire
n or
n ut
t ings
v ana
w ing
w oman
w right
y uan
Ã ´
Ä ĥ
Å «
Ġ Ä
Ġ iod
Ġt um
Ġt ill
Ġa ven
Ġa ux
in ers
in yl
er get
er icul
Ġs pp
Ġw ise
at hed
Ġc ig
Ġc ub
Ġc ree
Ġc rescent
Ġc ouncill
it ans
en stein
is ited
es os
Ġin ade
Ġin ability
Ġin herent
al id
Ġp unk
Ġp aternal
Ġp esos
Ġm im
ro qu
Ġd w
Ġd ive
Ġd angers
Ġh ire
Ġh one
Ġh omet
ĠT ade
ĠT ank
ĠT ale
ĠT anz
ĠT ampa
Ġth ief
Ġth umb
ĠA U
ĠA ber
il er
ĠS M
ĠS old
ĠS ales
ĠS abor
ĠS isters
ĠS aga
Ġl aps
Ġl ieutenant
Ġl ighthouse
om obile
Ġn ym
ĠC A
ĠC over
ĠC aught
ĠC ensus
el age
ad rup
ac a
Ġbe que
ur ated
ly mouth
ĠM i
ĠM um
ĠI B
Ġg ear
Ġg hats
Ġfor wards
iv iÃ¨
ol ate
ter ial
ĠB rom
ĠB read
im acy
id al
ir p
ig m
ig ue
th or
Ġst o
Ġst ops
ĠH ear
ĠH ass
ĠH ence
us z
us ive
ut i
ĠP ent
ĠP ond
ĠP uck
ĠP oven
ĠP oints
ĠP ayne
ĠP lymouth
Ġwh iskey
ch dale
ĠR ic
ĠR aph
ĠR ao
ĠR iviÃ¨
ĠF ate
ĠF anning
ĠF ighting
ĠD re
ĠD ock
em ary
ĠW el
ĠN ich
ĠN ik
ĠN SB
Ġan x
Ġan alog
ĠG amer
ĠG onna
ĠG ospel
ĠG iger
ĠL on
ĠL ans
ĠJ ov
Ġse al
Ġse aw
Ġr aw
Ġr uth
ĠO gh
ri uc
ri otic
ĠE mer
ist ically
Ġv iz
Ġv inyl
Ġsu ed
ĠIn stitution
ap per
ap arte
ew ard
all as
Ġch ords
Ġch lor
gh ai
ud ers
ud ding
Ġpl ac
Ġpl ating
ant ically
qu ate
up ply
ĠK al
ĠK ow
ĠK ra
ĠK ree
ĠSt oke
ĠSt reets
ord e
ear y
oun ger
ell ery
ĠCh asing
ust er
Ġcomp ose
Ġcomp osing
ra pe
Ġar ches
Ġar bit
Ġar sen
Ġun ified
og enesis
Ġ20 5
ub ile
Ġro pe
Ġro ster
Ġint ric
ĠV atic
ĠV erne
ĠV ingt
ĠV Äĥ
Ġab bot
Ġad mission
per ors
Ġrec ycl
Ġres upply
Ġper m
ĠAl icia
Ġag round
Ġj ar
Ġj ih
Ġj ungle
Ġsp ru
Ġen light
Ġen erget
urn al
act or
ke ley
ĠY ounger
port ed
Ġatt aining
Ġall ied
ĠUn fortunately
ĠSe x
Ġkn eel
ath lon
Ġnew born
ĠAr r
Ġrel iable
ĠMar ina
Ġunder going
Ġunder gone
Ġchar m
Ġinter ference
Ġinter mit
Ġfl aws
Ġass aulted
Ġass erts
Ġwhere by
Ġspec ified
ĠNew ton
Ġret ro
Ġret rospective
Ġqu adrup
Ġinc ap
ĠLe x
ific ent
Ġam ounted
Ġgr ab
Ġgr ades
Ġele g
Ġset back
Ġwell s
Ġcap abilities
ĠSh in
io ch
ĠSc ribe
Ġem pt
Ġem br
Ġem inent
Ġem perors
Ġ11 00
Ġmill imeters
Ġcontin uation
Ġsm ugg
Ġbel oved
Ġdep ot
ĠWh ilst
Ġdown ed
ĠZ ack
Ġprev ailed
Ġexp elled
Ġexp enses
Ġland own
Ġdesign ations
Ġimp osing
ĠCon versely
Ġair play
az on
ĠAugust ine
Ġmat ched
ĠFr inge
Ġins pe
Ġins ight
Ġins ign
Ġcount s
ĠBe ck
ĠBe aut
ĠCar nival
Ġmet eorological
ĠPl ain
ĠPl anning
Ġmod est
Ġmod elled
Ġgovern ance
Ġvar iants
ĠTe pe
Ġconc essions
ĠMe ad
ĠCl an
ĠCl imate
ash t
ik o
ĠAd il
pect ives
Ġdr aining
Ġdr ives
Ġ14 2
Ġline up
Ġrest ing
Ġrest less
ĠTr in
ĠTr unk
Ġ25 1
ĠGu ards
Ġshort l
Ġmar ching
Ġconf using
Ġvis uals
ina e
Ġref urb
ĠAnd h
Ġtri angular
Ġperiod ic
Ġbest owed
ĠRo chdale
Ġwater fall
Ġexpl ores
Ġhum our
Ġsl ot
por ter
Ġmark er
Ġmark ers
ham pton
Ġeng r
ĠMc All
Ġaddition ally
Ġcapt ive
aff o
aff ected
ĠFl otilla
Ġcr ack
Ġtake off
ĠPort age
Ġ21 0
ĠWill ie
Ġeast wards
Ġdel ivers
Ġprop ose
Ġprop elled
Ġpopular ised
Ġsol itary
Ġcritic isms
Ġobs ession
ĠAm azon
Ġdet on
Ġdet achment
ĠEd geworth
Ġmatch ing
rent ial
Ġpost er
Ġsoc cer
Ġlight ly
ox ide
Ġvarious ly
ĠChar ity
Ġcat ches
Ġcat ching
ĠEl vis
ĠGl ou
ĠGl enn
Ġste amed
Ġlik elihood
Ġrock et
ĠRec ent
Ġval ued
Ġpeak s
Ġrev ision
Ġaver ages
Ġve il
Ġimpro per
ĠMon ster
ĠSer geant
ĠBer keley
ĠCr ime
Ġvol ley
Ġvol unt
Ġvol cano
Ġfund ra
ĠAct s
ĠSy bil
ĠHar per
Ġ186 8
Ġcoll ided
ĠPres byter
medi ately
Ġdev il
sel aig
Ġhit ter
Ġtreat ise
Ġgoals c
Ġdi agram
ĠBut ton
Ġmer it
Ġmer cy
Ġspecific ations
ĠDep uty
ett a
Ġpers pectives
ĠDr ake
ĠIm age
ĠIm mediately
Ġtransport s
quar ies
quar tered
Ġdon ors
ĠNot ts
Ġphys icist
Ġ184 6
Ġ45 0
Ġfood s
ĠSl ash
ĠRose y
ĠJer zy
Ġindic ation
ĠNort heast
ĠTom orrow
Ġexam ines
Ġflow ing
ios ity
ĠOtt awa
Ġprem ise
Ġearth star
ĠHaw ks
ĠLou d
ĠMey er
ĠScot ia
Ġded u
ĠMer cer
ĠTre vor
ĠMil es
ĠMil ton
Ġpersonal ities
Ġabandon ment
ĠBoy z
Ġrein st
ĠAnt ioch
ĠQueen stown
Ġtor rential
Ġsev enty
lim bs
ĠInter ior
Ġ42 0
Ġ182 3
Ġ182 9
Ġtext ure
Ġ44 0
Ġ44 8
Ġamb iguous
Ġintern ed
Ġess ays
ĠDel ia
Ġfill ing
Ġbad ge
Ġconstit ute
ĠSol omon
Ġshell ing
Ġris en
oph one
Ġrhy mes
Ġnarr ated
Ġroy alty
Ġdemonst rations
Ġ181 7
ĠGar rett
Ġspread s
ĠRev ival
Ġaltern ating
Ġplant ation
ograph ics
ĠGroup s
Ġpup il
ĠMal ay
ĠMal one
Ġprec urs
Ġrecommend ation
Ġassault ing
Ġqual ify
Ġreact ors
ĠSal mon
Ġbridge head
Ġcontain ers
Ġtermin ated
Ġextr as
Ġven ge
Ġchief ly
Ġmind s
Ġwor ry
Ġfit tings
Ġmel odies
Ġadj usted
Ġconver ting
Ġdefin ite
ĠBon aparte
ĠPet it
Ġspect ral
Ġtim eline
ĠHart ley
ĠCoast al
Ġbow led
Ġod ds
Ġec ological
Ġfat igue
Ġrend ering
Ġcalc ulators
Ġmist ress
Ġ177 0
Ġacad emics
Ġsn akes
ĠAston ishing
Ġseg reg
Ġdoor way
ĠRod dick
Ġquot e
ĠTim or
Ġcho ices
Ġjack et
Ġassemb le
Ġexplos ives
ĠBh ai
Ġ176 1
ĠLy rically
Ġhighlight ing
Ġvalley s
Ġmort ality
Ġvic ious
Ġrhyth ms
Ġcard inals
Ġgal ericul
Ġscrap ping
Ġveget arian
ĠTrib bles
ĠKat ie
Ġoutf its
Ġoutf lank
Ġthin ly
ĠRos emary
Ġcrest s
Ġselect ive
ĠEvery thing
ĠEc ology
Ġchronic le
Ġserial ized
ĠRele ased
ĠLev i
Ġble eding
Ġproport ions
Ġsimultane ous
Ġmunicipal ities
ĠKit ana
Ġconstruct ing
ĠVII I
ĠPeters burg
Ġlover s
Ġshut out
Ġsubst rate
Ġtiss ues
ĠRest oration
Ġcheck ed
Ġerr one
Ġerr atic
ĠConfeder acy
ĠStal in
ĠAsh ley
Ġreprodu ctive
ĠTro uble
ĠBeet ons
Ġsteep le
ĠGlob al
Ġcongreg ations
Ġasteroid s
Ġdeliber ate
Ġnurs ing
ĠSn elling
ĠSn apper
ĠWeb ster
Ġrenov ation
Ġdisagre ement
Ġgray ish
ĠConc ert
Ġchest nut
Ġfasc ist
Ġpion eer
Ġexport ed
Ġadvertis ement
Ġjew ellery
Ġninet een
ĠDub ai
ĠHeavy weight
Ġdisrupt ion
ĠNat al
Ġdoctor al
ĠShip building
Ġsew er
ĠExt inction
ĠBosn ian
Ġpp g
ĠPole hin
ĠLiter ature
ĠHighland ers
iÃ¨ me
Ġfulf ill
ĠGuild ford
Ġcorpor ate
Ġhomosexual ity
Ġautob i
ĠCirc uit
ĠEle ments
Ġresid ues
Ġscr atch
Ġmonit ored
Ġprospect s
Ġurg ing
ĠBM W
ĠKle in
ĠDirect ors
Ġpron unc
ĠScout ing
Ġicon ography
Ġgentle man
ĠTai yuan
Ġconspir ators
ĠJohann es
Ġterr aces
ĠAmylostere aceae
ĠRen ault
Ġmistaken ly
ĠAx is
Ġnas als
ĠDiamond s
Ġexchang ed
Ġprovision al
Ġphylogen y
Ġphylogen etic
ĠANZAC s
Ġclimb ing
Ġspr ings
Ġdistort ions
Ġcontrace pt
ĠHoriz on
ĠHospitall ers
rat ina
Ġdri fting
ĠLars sen
Ġbutter fly
Ġflaw ed
Ġthorough ly
Ġverb al
Ġprosper ity
ĠSit riuc
Ġconif erous
ĠVH S
Ġupgr ade
Ġoct agonal
ĠSel en
Ġunrel iable
ĠAbram s
Ġaggress ively
ĠChenn selaig
ĠLegisl ature
Con nor
ĠCul ver
ĠRu wan
Ġvass al
Ġoutp osts
ĠShan ghai
ĠMegal iths
ĠTat anka
ĠWolver hampton
Ġelector al
Ġartif acts
Ġrevel ation
ĠHil o
Ġpla que
Ġparan ormal
Ġmelod ram
Ġfurn iture
ĠCars on
ĠNir vana
ĠChand ler
Ġsprit es
Ġstoryt elling
Ġjewel ry
Ġlun ar
ĠHost ile
ĠLangu age
Ġunchang ed
Ġconfisc ated
Ġordin ance
Ġdoctr ines
Ġingred ients
Ġinexper ienced
Ġcub ic
Ġinade quate
Ġhomet own
ĠTade usz
ĠTanz ania
ĠAber deen
Ġbeque athed
ĠMum ia
ĠPoven mire
ĠRiviÃ¨ re
Ġruth less
ĠOgh ratina
ĠKree ft
Ġarsen ic
ubile e
Ġintric ate
ĠVatic an
ĠVingt iÃ¨me
ĠVÄĥ n
Ġjih ad
Ġenerget ic
Ġkneel ing
Ġintermit t
ĠMcAll ister
Ġgalericul ata
ĠPolehin ke
Ġpronunc iation
D TV
D OT
E T
F arl
P au
a iting
b el
b rit
b ility
b ama
b inje
c ans
c ane
c roft
d ong
e ches
f ish
f olk
g ate
h v
h ope
k ed
k az
k au
l ause
m ation
m ers
m ish
m ett
q q
r ath
r action
r acks
r ano
t aining
w ig
w et
w orld
y r
z a
Ã ª
Ġ ^
Ġ urn
Ġt ut
Ġt ann
he nd
in h
in l
in as
in uing
Ġthe ological
Ġs or
Ġs ou
Ġs age
Ġs urn
Ġo res
Ġo vation
Ġw ond
Ġw akes
Ġw rought
Ġw ishing
Ġw agon
ed ience
at em
at ri
at itude
or phic
Ġc od
Ġc age
Ġc ros
Ġc ute
Ġc ites
it i
Ġf aint
Ġf rog
Ġf umble
is ure
Ġb oring
Ġin cend
ar at
al ation
Ġp our
Ġp enc
Ġp ests
Ġp umping
Ġto ile
Ġto pping
Ġm ural
ro vers
ro gen
Ġh ug
ion ed
le wine
ĠT ourn
ĠT iber
ĠT uf
Ġre acted
ent on
ent more
ĠA ch
ĠA aron
ĠS ut
ĠS ue
ĠS uf
ĠS aints
st ruction
Ġl ing
Ġl ust
Ġl ign
Ġl one
Ġl ens
Ġl ady
Ġl ots
Ġl ocks
Ġe tymology
Ġn em
am il
ĠC B
ĠC C
ĠC i
ĠC aus
ĠC ode
ĠC ool
ĠC ash
ĠC raw
ĠC yn
ĠC aval
ĠC otton
ĠC unning
ĠC rescent
Ġwas h
ac ie
ac cept
Ġbe aver
ĠM G
ĠM M
ĠM ine
ĠM au
ĠM alt
ĠM entmore
ĠI l
Ġg ag
Ġg ill
Ġg rie
Ġg ait
ĠB le
ĠB ud
ĠB eller
ĠB uilt
th ian
ĠH ig
ĠH and
ĠH av
ĠH ale
ĠH amb
us ions
ver age
ver ness
et ary
ĠP ong
ĠP are
ĠP igg
ĠP ayette
ĠR ous
ĠR ice
ĠR ole
ĠR ama
ĠR itual
ĠR ena
ĠF M
ĠF i
ĠF un
ĠF land
ĠF Ã©
ĠF ford
ĠF arr
ĠF ashion
ĠD R
ĠD um
ĠD irt
ĠD NL
Ġcon ical
em al
ĠW yn
ain es
ain ted
ĠN ost
Ġan at
Ġan al
ĠG M
ĠG ru
ĠG ros
ĠG aza
ĠL ucky
ĠL ayne
Ġhe ct
Ġhe ights
est ine
ag ree
ĠJ et
ĠJ ess
ĠJ ava
Ġse lections
um ann
um ably
Ġr av
Ġr amps
Ġr ugged
ĠO bama
ĠE at
ĠE lement
ĠE ASA
und ers
und ara
ies wet
Ġv ap
Ġv aulted
ĠIn form
ĠIn verness
ew ays
all athus
Ġch asing
Ġch aos
Ġex commun
ab olic
ab allathus
ud y
Ġpl enty
se en
se ille
ess el
up id
ĠU day
red ict
ĠK ids
ĠK rypton
ĠK ramer
ĠK emal
ĠK ieswet
Ġle isure
ov ann
ord ers
Ġtr unc
Ġtr igger
oun ce
oun ge
ĠCh uck
ĠCh utz
Ġcomp uls
so ver
Ġun opp
Ġun official
Ġun accept
og uan
Ġro ost
ĠV aballathus
Ġcl an
Ġcl ade
Ġcl ips
ans on
Ġsc utt
ĠAl aska
Ġdes k
Ġdis emb
Ġdis agree
Ġj aguar
ang le
ang el
Ġsp y
Ġsp ike
Ġsp ines
Ġsp arse
Ġim it
ace y
ib re
Ġout rage
Ġpre liminary
Ġspe eches
Ġatt ested
oin ing
ĠUn cle
Ġcent s
ĠRe ad
ĠSe ph
ĠSe lection
Ġfe eds
ubl ished
ĠAn s
ĠAn up
ĠAr d
Ġrel oc
Ġcons picuous
ĠEn s
ĠMar vin
ĠMar seille
Ġchar ming
Ġnum er
ĠDe e
Ġap se
Ġpe at
Ġfl ock
Ġfl int
Ġreg ain
Ġno bility
Ġdef ines
Ġam ended
hes is
Ġappe aling
Ġco hes
Ġsupp ression
Ġsupp ressed
orn e
Ġloc ate
Ġpres umably
Ġ12 4
ros cope
Ġbl ess
Ġcap ability
Ġback ward
ĠSh ot
ĠSh and
ĠSh ould
ĠSh ann
ĠSh ah
Ġinv ites
ĠBr id
Ġmon key
ĠSc enic
ern ess
Ġmill ennium
Ġsm art
Ġbr ide
ĠInd oor
Ġdep leted
Ġdown s
Ġdown ward
Ġinst ability
ĠZ ee
Ġprev ents
Ġgener ic
Ġgener ators
Ġexp ose
Ġexp osing
ĠWar riors
Ġrep ublic
Ġprov oke
ĠCon cept
ĠCon ception
Ġcar n
Ġcar ic
Ġfam ine
ĠFr ances
Ġins ane
Ġins pect
ĠBe att
ĠBe ij
Ġwin ters
Ġstr anded
Ġstr anger
ĠCar ly
ony ms
Ġmod ifications
ĠCol ton
Ġconc urrently
ĠMe g
ĠFor ge
Ġsouth ward
ĠAd olf
ĠSouth west
Ġdr agon
Ġ14 8
Ġrest ruct
ĠTr igger
ĠTr udy
Ġ... .
min ed
ĠGu err
ĠGu atem
Ġshort ages
Ġjust ify
Ġty res
Ġmar ine
Ġmar gins
Ġmar itime
Ġgun fire
Ġlist ings
Ġlist ened
Ġvis or
ax ill
ĠGr ims
ĠGr acie
ĠPro to
Ġexpl orers
ret to
Ġturn over
Ġsl ots
Ġcolle ague
Ġsent iments
Ġmed i
Ġleg ally
Ġlocal ization
ĠWe ird
Ġcr ush
Ġcr usade
Ġdeb ates
Ġbas ically
Ġdifferent iated
Ġdifferent iate
ĠWill is
Ġcommun icate
Ġwest bound
bru gge
ĠCount ess
Ġprop riet
ĠPer cy
Ġfore most
Ġfore cast
Ġdecl ares
ĠBar ra
ĠBar racks
Ġsol uble
Ġcur ves
Ġcult ivated
ĠPar as
ĠX u
Ġinflu x
ĠAss ault
sh ine
omet ry
osp here
Ġestabl ishes
Ġcomb ines
ĠEd win
Ġpat riarch
ĠPol ka
ĠSte phan
Ġlight ning
Ġ27 0
ground s
Ġlim b
Ġnight cl
Ġnight fall
Ġball ot
Ġread ings
ĠPal in
oll o
Ġpri zes
Ġcert ifications
Ġred eveloped
Ġcampaign ing
Ġrock ets
Ġident ifying
Ġ40 2
Ġaud iobook
Ġcell o
ĠEx c
ĠSw ift
lo o
Ġspecial ised
Ġround about
ĠSy rian
Ġdev out
ĠMad hv
ĠHero es
ĠRed s
Ġprob es
ĠCommand ing
Ġengine ered
oo f
Ġbi ographies
Ġfort unes
Ġpract ically
ĠCo aches
Ġviol in
Ġpain ters
ĠPresident ial
Ġ183 5
ĠCarol ine
Ġobject ed
ĠVal entine
ĠVal entin
Ġtransfer ring
Ġbreak fast
Ġ36 8
ĠHel ena
ĠScient ific
ĠMac Farl
Ġliter al
Ġ184 1
Ġchap els
Ġoccup ying
Ġwood ed
Ġwood lands
urt i
ĠPre c
ĠMos que
ĠPeter borough
ĠAssoci ated
Ġden ying
Ġcal ibre
Ġstaff ed
Ġsyn onymous
Ġsyn onyms
men y
Ġbirth place
Ġbroadcast ing
Ġlearn t
Ġcele brit
Ġcompl aining
Ġcontroll ers
Ġcolon el
Ġsett ling
ĠHol mes
ĠHol iday
Ġprem ature
ĠNic ol
Ġcommission ers
Ġbomb ed
ĠTre binje
ĠMart el
Ġacqu aint
ĠBel le
ĠBel ow
Ġund ef
Ġund eveloped
ĠJo anna
ĠTw itter
ĠVict ory
anas undara
Ġtransl ate
Ġkick ing
Ġpurs uers
ĠNor bert
ĠNor folk
Ġmodel ing
Ġwing ed
ĠWild er
Ġpow der
Ġnation wide
Ġlif es
Ġ181 6
ĠEr lewine
ĠMal aya
ĠGreen wich
Ġprogress ing
Ġmurder er
ĠBol lywood
Ġassault s
Ġqual ification
ĠCont inuing
ĠCont rovers
Ġfa Ã§
ĠMiddle ton
Ġprin ts
Ġwinter ing
ĠMax im
ĠHistor ian
Ġsac ram
Ġmind ed
Ġroll ing
Ġ64 0
Ġmaster y
Ġdismiss al
ĠAp ollo
Ġadj oining
Ġproblem atic
Ġwa ited
Ġconnect or
Ġmount ing
Ġdevot e
Ġdevot ional
Ġresemb led
Ġimag ine
Ġ46 0
Ġge ometry
Ġprompt ly
ĠNaz is
ĠGi ovann
ĠSha o
ĠSha oguan
Ġ179 5
ĠCre ed
Ġmig rated
ĠRome o
Ġunp redict
Ġ164 8
ĠProv idence
Ġattract ions
Ġbeach head
Ġorganiz ers
ĠBarb ad
iro th
Ġrend ez
ĠCub an
Ġfavour able
Ġchapter house
Ġguard ian
ĠRon nie
ĠFrancisc an
adow ed
Ġspons ors
Ġresear cher
Ġdescend ant
Ġplum s
Ġ71 6
Ġastron aut
Ġastron omer
ĠRod man
Ġpoly the
Ġpoly urethane
Ġign or
Ġmic roph
Ġmic roscope
Ġ112 7
ĠRun ning
ĠPatt on
Ġdisturb ing
ĠHon olulu
Ġmonarch y
ĠSound track
Ġfair y
ĠDis ston
Ġpage ant
add on
ĠMot own
Ġoutf low
Ġancest ral
Ġacknow ledge
ĠSa qq
ĠSav oy
Ġcatch y
Ġcatch ment
ĠPul se
ĠBass line
ĠHun ters
Ġ06 00
Ġdim ensions
Ġdens ely
ĠCab inet
Ġskull s
Ġbat ters
ĠTig er
Ġtransition ed
Ġille g
Ġconsc ientious
Ġmask ed
ĠRain fall
Ġsad ness
Ġbed room
ĠVul cans
Ġwet lands
Ġtrust ees
Ġsucceed s
Ġfert ility
Ġlam bs
Ġpoll ution
Ġparas ite
Ġsumm ers
ĠWhere as
ĠLud wig
Ġsurge on
Ġcateg or
ĠBor is
Ġchrom osomes
ĠFle mish
Ġcontrad ictions
ĠRom antic
Ġexclud ing
ĠPriv y
Ġanch or
Ġprosec utor
Ġapprec iate
ĠCas a
ĠEconom ic
Ġdistrib ute
Ġdistrib utor
ĠGrace hope
Ġautom atically
Ġcler k
Ġfru iting
ĠDoo ley
Ġadmir ation
Ġinsurg ency
ĠMcM aster
Ġreven ues
ĠLam be
Ġconsum er
Ġamid st
Ġhind ered
ĠCirc us
Ġtort ure
Ġcompan ions
Ġendors ement
Ġguarant eed
ĠUygh ur
adys ÅĤaw
Ġsacrif ices
Ġlicens ing
Ġben ch
Ġped al
ĠAut umn
Ġgri p
ĠRav ana
Ġdisgu ise
Ġguerr illas
gro ve
Ġgra zing
Ġclar ified
ĠMontene gr
Ġconfirm ation
Ġunexpected ly
Ġcens orship
Ġterr ace
Ġenthusi ast
Ġbutt ons
Ġincred ibly
ĠClay ton
Ġexhaust ion
ocy st
Ġherb iv
Ġuncover ed
ĠMaid s
ĠRook ie
ĠDal meny
ĠLead er
Ġcontrace ption
Ġdrown ed
ĠHoriz ons
ĠHospitall er
Ġmud s
ĠWit ches
ĠOcc up
Ġclad ogram
Ġannoy ing
ĠRegard ing
rov ite
Ġgif ts
Ġrecapt ured
Ġaccord ance
Ġpolyg am
Ġmaneu vers
ĠGri ffin
Ġmyel oid
Ġsteambo at
Ġhymn s
ĠPrepar ations
Ġincorrect ly
opol itan
Ġcompat ible
Ġunanim ously
Ġbuck et
Ġprogn osis
ĠCharacter istics
Ġlib retto
ĠBry ant
ĠBuch an
ĠHern an
ĠJar vis
bern acle
ĠHispan ic
ĠPruss ian
Ġcurren ts
ĠAgricult ural
Ġridicul ous
Ġspontane ous
ĠCann es
Ġexempl ified
ĠKan ata
ĠKling ons
ĠExam ples
Ġdimin ished
Ġnotorious ly
Ġtele commun
Ġmegal ithic
Ġsyll ables
Ġposthum ously
ĠSamp ras
Ġexagger ated
ĠâĻ ¯
ĠVick ers
Ġspo iled
ĠGran ada
Ġillum inated
Ġintersect ing
Ġbankrupt cy
ĠRodrig uez
Ġinherit ance
Ġcov enant
Ġmosa ic
ĠSter ling
ĠVenezuel a
Ġhered itary
ĠUtt ar
ĠKab oom
ĠCham plain
ĠGuang dong
ĠAgust ÃŃn
ĠFrankf urt
Ġvirtu oso
Ġgalley s
ĠTsub ame
ĠPublisher s
ĠUkrain ian
ĠIbrah im
pie ces
Ġcurric ulum
Ġbidd ing
Ġineff ective
ĠDil ke
ĠWÅĤ adysÅĤaw
ĠKits une
ĠKaly anasundara
ĠSerg io
Ġcryst all
Ġcylind rical
ĠPtole my
Ġautonom ous
kau hor
Ġtann ery
Ġsurn ame
Ġcros sover
Ġincend iary
ĠTourn ament
ĠTuf aro
ĠCunning ham
ĠHamb urg
ĠPigg ott
ĠRena issance
ĠFland ers
ĠFÃ© lix
ĠFford d
ĠNost rovite
ĠGros mont
ĠJess ica
Ġvap or
ĠInform er
ĠKieswet ter
Ġtrunc ated
ĠChutz pah
Ġcompuls ory
Ġunopp osed
Ġunaccept able
ĠSeph iroth
ĠShann on
ĠZee brugge
ĠBeij ing
Ġrestruct uring
ĠGuerr ero
ĠGuatem ala
ĠGrims by
ĠMadhv acharya
ĠMacFarl ane
Ġcelebrit ies
ĠGiovann i
Ġrendez vous
ĠSaqq ara
4 0
A fric
B D
D onald
G S
H F
N S
P aul
S S
b ic
b ul
b ri
b odies
c apes
d aur
d ych
e ers
f ol
f low
f rey
f lix
g ob
g uez
h n
j eev
k ward
k ind
k ovs
l ah
m ines
m aster
o que
o field
p ine
p iÄĩ
r agon
r era
t ly
t op
u ish
v Ä«
v arez
w aters
x ide
y i
y gob
z el
z zi
Ã º
Ġ ions
Ġ ze
Ġt ens
Ġt ertiary
he res
Ġa is
Ġa irst
Ġa fric
Ġa esthetic
in er
er outed
Ġs ocks
Ġo ars
Ġw elf
Ġw arts
Ġw orms
un ami
or ch
or ously
Ġc is
Ġc ass
Ġc aut
Ġc itation
it ol
it oba
Ġf ro
Ġf og
Ġf ile
Ġf uck
Ġf oli
is ely
ar agu
an ian
an ium
Ġp ore
Ġp oured
Ġp orch
ing a
as a
as ures
Ġm ice
ro le
ic he
ic ity
ic ular
ic ating
Ġd ances
Ġd ots
Ġh ated
Ġh ilar
Ġh oney
Ġh aven
Ġh oly
Ġh inted
Ġh abits
ĠT H
ĠT ate
ĠT uring
ĠT yl
ĠT akes
ĠT ata
ĠT jo
Ġre nder
Ġre writ
Ġre lying
Ġre union
ent iful
ĠA M
ĠA V
ĠA ware
ĠA ki
il ib
il ica
ĠS ave
ĠS ire
ĠS ank
ĠS pen
ĠS ites
ĠS uff
ĠS osa
ĠS affir
Ġl ent
Ġl amp
Ġl ae
Ġl ining
Ġl ibr
Ġl ux
Ġl abyrinth
Ġl anth
Ġe ternal
Ġn u
Ġn ect
am is
ĠC d
ĠC ay
ĠC age
ĠC aster
ĠC oty
ĠC ogan
ĠC umm
ĠC inqu
el ines
el ae
Ġbe nd
Ġbe head
ly sis
ĠM s
ĠM ap
ĠM oin
ĠM ick
ĠM AC
ĠI o
Ġfor ts
ol era
ol atum
ĠB P
ĠB un
ĠB eng
ĠB urt
ĠB reak
ĠB ishops
im ir
id t
id ated
id ered
Ġas hes
ig ion
th ood
Ġst un
Ġst ib
Ġst ole
Ġst ipe
ĠH ed
ĠH our
ĠH oms
ĠH abit
ĠH udders
us ir
ĠP ia
ĠP ied
ĠP ick
ĠP end
ĠP FA
ĠP ML
ĠP esc
ĠP asha
Ġwh olly
ĠR E
ĠR um
ĠR ule
ĠR ML
ĠR ules
ĠR OM
ĠR iker
ĠF ult
ĠF irth
ĠF ij
ĠD ame
Ġcon ced
em orial
em ani
ĠW ould
ĠW ives
ĠW orship
Ġat om
rom anches
os h
os ov
ĠN est
ĠN ub
ĠN one
ĠN urs
ĠN ico
ĠN AT
ĠG el
ĠG ay
ĠG ates
ĠG any
ĠG row
ĠG aul
ĠG areth
ĠG CS
ĠL ic
ĠL ogan
Ġhe s
Ġhe arts
est on
ag les
ag ale
ag eway
ĠJ ell
ĠJ ake
ĠJ unction
Ġde e
Ġde leted
Ġr ational
Ġr erouted
Ġr agale
ĠE h
ist ina
Ġv est
Ġv iable
ill an
ill usion
ĠIn sp
op ers
all us
all ah
ak ut
Ġch ant
Ġch ased
ame ters
ab bi
Ġpl aus
Ġpl ann
Ġpl entiful
ant led
Ġare olatum
oc ence
oc aly
Ġsh attered
ĠâĢ ĳ
ĠU HF
ĠK he
ĠK ay
ĠK art
ĠK az
ĠK ung
ĠK á»
ĠK ajal
ĠSt ela
rit tle
Ġtr aw
Ġtr igg
ian c
ell ations
cl osed
ĠCh ad
ĠCh ul
te es
Ġcomp artment
Ġcomp elled
Ġcomp lications
Ġcont ention
Ġar ched
ie ff
Ġher ding
ĠV ig
ater al
Ġab bre
ok er
ff man
per t
per field
ire cted
ĠHe at
ĠHe ath
ass i
ass ic
ass well
Ġper pet
ond e
Ġbo ots
ough ts
Ġsc out
Ġsc rew
ĠAl ma
ĠAl varez
Ġdis par
Ġdis gr
Ġdis like
Ġdis illusion
ach i
Ġj ets
Ġj ersey
Ġover sh
Ġover pass
over ed
Ġup hold
Ġsp le
Ġsp ous
Ġsp here
act ions
ib ars
Ġne c
Ġne o
Ġfin ishes
we ig
Ġcomm ended
Ġatt achment
Ġwe aker
ĠUn as
Ġcent red
ĠRe ese
Ġme als
Ġme adow
Ġthem atic
Ġsec rets
Ġrem embers
ĠAn con
ĠAn ekÄģntavÄģda
ĠAr chie
ĠAr ctic
ĠAr romanches
Ġrel ocation
Ġcons ume
Ġcons ulted
ĠEn ri
Ġsome how
ĠDe acon
ĠDe Paul
Ġend ured
Ġend urance
Ġinter acted
Ġinter face
Ġpr one
Ġfl ip
Ġass umes
Ġass umption
Ġspec ulates
Ġac ron
Ġno body
Ġsub order
ual ties
Ġind ul
Ġind emn
ank ar
Ġsupp l
ll t
Ġpres cribed
cept ible
Ġepis cop
ton es
Ġ16 00
Ġback s
ĠSh ane
Ġtrans cript
Ġtrans cribed
Ġmon olog
Ġmon astic
ĠSc rant
Ġshow c
Ġmin ed
Ġmin im
Ġmin ig
Ġem itted
Ġcontin ually
Ġsign aling
Ġpol ished
Ġpol ls
Ġbel ly
ins ki
ĠWh atever
ven ir
Ġdisc r
Ġdisc us
Ġoper atic
ĠZ e
ĠZ ion
ĠZ oe
ĠZ ygob
ĠZ weig
Ġprev ention
Ġimp erson
Ġimp ressions
ĠCon tr
ĠCon cer
az or
az iland
ĠAugust an
Ġconst raints
Ġins urance
Ġsupport ive
ĠBe e
Ġstr um
ĠCar ne
Ġhead waters
Ġmod ification
ĠCol umn
Ġconc urrent
ĠMe V
ĠCl own
Ġcare ful
Ġdr ill
Ġhel m
Ġ14 1
Ġline age
Ġline back
Ġrest ed
cess ible
Ġclass ify
Ġbuild ers
ĠNov el
Ã© r
Ġport al
Ġport able
Ġold s
Ġlist ener
Ġconf essed
Ġ30 5
Ġtop s
Ġref use
ĠPro per
ĠGe ological
Ġsl abs
Ġview point
ĠPr ayer
ĠPr piÄĩ
Ġdest ined
ĠMan itoba
Ġfew est
ĠBo eing
ĠSp ot
ĠFrench men
Ġbas ins
Ġmid way
Ġmid day
ĠComp ared
Ġarch aic
ves en
Ġmag ician
Ġdel uxe
rodu ction
Ġ26 2
Ġfr ight
Ġfr action
ĠAb usir
Ġstat ic
Ġfre ight
Ġfre ighter
ĠBar ron
ĠBar oque
Ġcult s
Ġcult ivation
Ġ28 5
ĠAm ster
Ġcomb inations
ĠCent iped
Ġfact o
Ġpat ches
ĠPol l
Ġequ ilib
Ġsoc ially
Ġground ed
ĠEv ents
ĠNe ither
ĠNe gr
ĠNe osc
Ġla uded
Ġprot otypes
ĠRoad block
Ġdiscover ing
Ġcat ast
na issance
Ġprim aries
ico e
Ġfun nel
abor ation
Ġpit ches
Ġcert ification
ĠGl ory
Ġste ering
Ġste gosaur
Ġgoal keeper
Ġpred ation
ĠCro ix
Ġgl ider
Ġborn e
Ġer ad
Ġer oded
bo at
Ġ29 0
Ġbroad side
app ers
Ġbar ge
Ġbar ges
ĠEx odus
Äģ vÄ«
ĠSw aziland
Ġsepar ates
Ġcreat ors
Ġquar ry
Ġhy men
ĠBer man
ĠBer dych
ĠCr istina
ĠCr asswell
Ġrespect s
ĠPart ners
Ġinform s
ĠSy r
iol a
Ġsequ els
Ġflood plain
Ġren ted
ĠJew ell
Ġemploy s
Ġcost ly
ĠMad agas
stit utes
Ġcondu ctor
Ġcrew men
Ġnomin ate
Ġmot ives
Ġfree ze
Ġfree zing
Ġtreat ing
Ġtreat ies
Ġpast oral
Ġdi ocese
Ġhon ored
Ġlo ops
ĠCong reg
Ġdon ation
ĠCard ell
ĠHel p
Ġexec uting
Ġdiss atisf
ĠMac Donald
Ġtype writer
Ġforest ry
Ġtow ed
ĠAg nes
ĠAg assi
ĠRes olution
ĠAngel o
ĠMo e
Ġjourn als
ĠSuper ior
ĠStud ent
Ġhom age
ĠTer ri
ĠApp lic
ĠInf luence
aut la
ĠLa o
ĠSov al
Ġkeep ers
ĠWood y
Ġsett ings
ĠBrad ley
ĠAle c
Ġprem ier
ĠNic aragu
Ġsil ence
Ġunderst ory
Ġconsider ation
ruct ors
Ġsus ceptible
Ġthick er
Ġbox er
Ġdom est
Ġund irected
Ġbatter ed
ĠStorm s
ĠTw elve
Ġdism antled
ĠAnt iqu
Ġtor so
anas ieff
ĠIll ustrated
ĠInn ocent
Ġpil grim
Ġattend ees
Ġ182 6
Ġ182 8
ĠSomal iland
Ġcasual ty
ĠCrit ic
Ġamb itions
Ġamb ush
Ġang les
ĠColon ial
ĠSir ius
Ġcontrast s
Ġtax onomy
Ġconsec rated
Ġsoundtrack s
Ġ181 1
Ġ181 3
ĠTy r
Ġcombat ants
writ ing
Ġnortheast ward
Ġ180 8
Ġspl ash
Ġspl icing
Ġprec inct
Ġprec isely
ĠCommun ists
Ġnest lings
Ġcontain er
Ġyour self
Ġple a
ĠMax well
Ġemphas ised
Ġfeder ation
Ġdepth s
Ġneut rons
ĠPalest ro
ĠVen ice
ĠFA B
ĠLo is
ĠChap at
Ġminer al
ĠCam el
ĠPo eh
ĠMore over
Ġalter ations
ĠArm ored
ĠJur assic
sw llt
Ġcust oms
Ġspect acular
Ġaccompan iment
ĠJeff erson
ĠHart ford
Ġreform ed
ĠChe ese
ĠNaz areth
Ġfresh man
Ġfresh men
ĠUSA CE
Ġmo th
ĠId yll
inem an
ĠKir yat
ĠDaniel s
Ġ164 3
Ġ164 6
Ġflag s
ĠProt oceratops
Ġcalc ulations
ĠBas el
Ġstret ching
Ġ177 6
ĠBaby face
Ġsn ap
ĠMat ilda
Ġisol ation
ĠMarl ene
ĠRod rÃŃ
ĠConst ructors
ĠBond s
Ġbul b
ĠAst ron
ĠDream ers
Ġassemb lies
Ġgrav el
ĠBern stein
ĠRel ief
ĠRel igion
ĠMul daur
ĠPlunk ett
Ġpal m
ĠFar ley
ĠFar mington
Ġexception ally
ĠYe ah
Ġ69 0
Ġmunicip ality
Ġlov ing
Ġpros pective
Ġcard iac
ĠCop enh
ĠCop perfield
Ġpack aged
ĠMot oko
Ġproduct ive
Ã©t at
Ġdetail ing
Ġmotor ists
ĠNap les
Ġur anium
ĠMid lands
Ġtrail ing
ĠDev il
Ġemp ires
Ġbal anced
Ġgall eries
Ġconvin ces
Ġmis le
Ġbay on
Ġproport ional
Ġwilling ness
Ġsight ed
ogen ic
Ġ162 5
Ġansw ered
ĠMu ang
Ġ161 6
ĠGib bons
Ġbiographer s
Ġblow s
ĠMah ÄģvÄ«
Ġkingdom s
Ġliber ation
ĠMand ers
Ġmarry ing
Ġphr ases
Ġremember ing
Ġobst acle
ĠBudd h
ĠBudd ha
Ġimpl ications
ĠRain bow
Ġpoison ous
Ġaw kward
Ġ165 0
Ġcomed ies
Ġsucceed ing
Ġexplo it
Ġexplo ited
ĠAgain st
ĠBah rain
Ġintellect uals
Ġ123 4
Ġcarri ers
Ġcarri ageway
ĠNar vesen
ĠNob ody
Ġrenov ations
ĠHans en
ĠKnow les
Ġsuperv ising
Ġbom ber
Ġuniform s
ĠMichel in
ĠLet ters
Ġdisband ment
Ġwarn s
Ġaggreg ator
ĠFle ming
Ġguid elines
ĠFeel ing
Ġphenomen a
cour t
Ã£ o
Ġinfer red
Ġreop en
ĠMcD onald
Ġmir r
Ġlaugh ing
ĠCas ualties
ĠKau f
ĠKau ffman
Ġexcell ence
Ġscar ce
Ġaccum ulate
Ġsalv ation
ĠCit iz
ĠIv or
Ġgor illas
ĠDod gers
Ġdenomin ations
ĠAf anasieff
ĠFut a
Ġsimpl icity
Ġconsolid ation
Ġsoci ology
ĠBoss y
ĠHay es
Ġconsum ing
ĠColomb ian
Ġurg ent
Ġintend ing
Ġwrest led
Ġenroll ment
Ġremind s
Ġcontinu ity
Ġswit ched
ĠAppe als
Ġpetition ed
Ġtal ents
Ġconvey ed
ĠGy swllt
ĠIns ular
Ġreconc iliation
Ġwheel chair
ĠColl aboration
Ã©d Ã©
Ġconce aled
ĠOrd nance
Ġcounteratt acks
Ġemotion ally
Ġstere oty
ĠRen Ã©
Ġcyl inder
Ġnic he
ĠCall isto
Ġrepet ition
Ġconfron ts
ĠBour bon
ĠBerk shire
Ġphilosopher s
Ġhemmem as
Ġincl ined
ĠCow ard
Ġabnormal ities
Ġcock pit
Ġbot tle
Ġgif ted
ĠRound about
Ġvig orously
Ġrecapt ure
Ġmaneu ver
Ġecosystem s
ĠCandid ature
ĠMunicip al
ĠMunicip ality
ĠIber ian
ĠIber ia
Ġgam ma
ĠPil ot
ĠProp aganda
quir y
Ġsynd rome
Ġdissent ing
ĠSchm oke
ĠSchm idt
Ġrework ed
ĠBach chan
ĠRand olph
ĠNam eless
Ġparad ox
ĠTempl ar
ĠKras inski
ĠBabyl onian
ĠKin ney
Ġreluct ant
Ġoptim ism
Ġinac cessible
Ġlung s
ĠCoss acks
ĠPand u
ĠRut gers
ĠRhy mes
vig atum
ĠOk lah
ĠVo ices
ĠAnat olia
ĠAnim als
ĠIsa ac
ĠQin zong
Ġkilogram s
Ġdreadn oughts
ĠBri enne
ĠBend is
Ġwhit ish
ĠNet flix
ĠAntar ctic
ĠFlag ler
ĠIncre asing
Ġdiplom at
Ġhast ily
ĠDare us
ĠWins low
ĠGry llotalpa
ĠChay kovs
ĠAnders ons
Ġflex ible
ĠMut inus
ĠDup ri
ĠNW A
ĠGem ma
ĠEff ects
ĠChas uble
Ġsubpl ot
Ġconvinc ing
Ġslee ves
ĠSevent eenth
Ġsel dom
ĠCounter feit
ĠPengu ins
ĠRuf us
Ġcontam inated
Ġabdom en
ĠZomb ie
ĠMoroc co
ĠRestaur ant
Ġorient ation
Ġmitochond rial
ĠSpisevognselskap et
Ġhors emen
ĠSpr ings
ĠPars ons
ĠGaz ette
Ġparatro opers
Ġpersec ution
Afric aine
Ġais les
Ġwelf are
Ġcis tern
Ġcaut ious
Ġfoli age
role um
Ġhilar ious
ĠSpen cer
Ġlae vigatum
Ġlibr aries
Ġlanth an
Ġnect ar
ĠCaster man
ĠCumm ings
ĠCinqu emani
ĠMoin es
ĠMAC V
ĠHabit at
ĠHudders field
ĠPia zzi
ĠPied ras
ĠPend ragon
ĠFult on
ĠFij i
Ġconced ed
ĠNAT O
ĠGany mede
ĠGCS E
ĠJell icoe
Ġplaus ible
Ġplann ers
ocaly pse
ĠKá» ³
Ġtrigg ered
Ġabbre v
ĠAncon a
Ġacron ym
Ġindemn ity
ĠScrant on
ĠZygob allus
ĠCarne gie
ĠAmster dam
ĠCentiped e
Ġequilib rium
ĠNegr as
ĠNeosc apteriscus
Ġhymen ium
ĠCrasswell er
ĠMadagas car
ĠNicaragu a
Ġpilgrim age
ĠPoeh ler
ĠIdyll wild
ĠRodrÃŃ guez
ĠCopenh agen
ĠMahÄģvÄ« ra
ĠOklah oma
ĠChaykovs ky
M CA
P EC
Q HA
R PA
T RE
a ucr
b ett
c ow
c ious
c olm
f l
f ilm
f leet
f eld
g ae
g au
h orn
h ange
h urst
i at
i well
j Ã¡n
l itz
m us
m ate
m ons
m oon
m oil
n ected
n atural
n iest
o a
o ter
o ise
p ius
r n
t tern
u il
u ably
v ol
v als
v ann
w er
w ith
w alk
x imate
¼ m
Ġ q
Ġ ig
Ġ uter
ī ¤
İ le
Ġt ren
Ġt ails
Ġa ce
Ġa kin
in ities
Ġthe rop
er ation
er ah
on ographic
Ġs ails
Ġs idel
Ġs odium
Ġw ording
ed e
ed ia
ed ok
Ġ. .
at Ã¡n
or ge
or por
or jÃ¡n
Ġc ow
Ġc ant
Ġc oun
Ġc ared
Ġc ries
it o
Ġf ra
Ġf ence
Ġf ake
Ġf ron
Ġf ool
Ġf ades
Ġf ancy
Ġf ooth
Ġf resco
Ġf umbled
is i
is se
is ode
is aurus
es a
es el
Ġb ag
Ġb ure
Ġb icycle
Ġin act
ar atus
an ey
al ain
al ers
al ore
al ment
al ified
al uation
Ġp el
Ġp ac
Ġp av
Ġp ect
Ġp anned
Ġp awn
Ġp agod
ing ing
ing don
as man
as par
Ġm aker
ro be
Ġd re
Ġd up
ĠT act
ĠT asman
Ġre e
Ġre iss
Ġre ctor
ent e
ent ric
ou fl
ĠA CE
ĠA very
ĠA QHA
il ies
ĠS ak
ĠS tern
ĠS oy
ĠS ully
ĠS lo
ĠS oph
ĠS ogns
ĠS PEC
st ory
st ars
st ep
st hetic
Ġl es
Ġl ip
Ġl ub
Ġl iver
Ġl ucky
om ed
om ial
Ġe cc
Ġe ll
Ġe asterly
am ant
am ia
el ic
ac ios
Ġbe er
Ġbe et
ĠM ade
ĠM ered
ĠM ek
ĠM ouse
ĠM ansion
ĠM fume
ĠI one
ĠI ck
ĠI RA
Ġg um
Ġg rief
Ġfor bs
ol ac
ol ith
ĠB ess
ĠB ree
ĠB ody
ĠB isc
ĠB rest
ĠB irth
ĠB owie
ĠB iblical
ĠB Ã©d
ĠB SU
ĠB achelor
im us
im ier
id able
id uous
id feld
ir teen
Ġas ce
Ġas ym
ct ory
Ġst ad
Ġst ip
Ġst uck
ĠH az
ĠH ots
ĠH usband
ĠH itch
ĠH MC
ot us
ot amia
ĠP enc
ĠP ipe
ĠP aste
ch t
ĠR N
ĠR is
ĠR ied
ĠR ising
ĠR aven
Ġal igned
ĠF rit
ĠF inc
ĠF rey
ĠF anny
ĠD im
ĠD ore
ĠD ell
ĠD enn
ĠD arl
ĠD illon
Ġcon gestion
ul atory
ĠW ord
ĠW ily
ĠW end
ĠW inc
os hi
ĠN R
ĠN ant
ĠN ors
ĠN ights
ĠG at
ĠG ren
ĠG ins
ĠG rap
ĠG ives
ĠG ilda
ĠL ov
ĠL ie
ĠL ens
ĠL omb
ĠL anka
Ġhe ars
est y
est ones
est even
ag ements
ag orda
av ier
ĠJ ump
ĠJ orge
Ġse izing
um an
Ġde pr
Ġr p
Ġr idd
ĠO sh
ri als
ĠE is
und le
Ġpro w
Ġpro stitute
Ġv ivid
Ġv iaduct
Ġv iolet
ill tern
ew ater
op al
op oly
op otamia
art an
all ax
Ġch in
ab ro
ab ol
ab we
ab outs
Ġpl ated
Ġpl umes
Ġâ ī¤
qu alified
ĠK or
ĠK ov
ĠK ens
ĠK edar
ĠK edok
ĠK aspar
ĠK esteven
Ġle ak
ov iÄĩ
ĠSt ructure
ĠSt olac
Ġtr icks
ĠCh un
ĠCh ick
ĠCh aos
ia h
ra red
Ġar ising
Ġar terial
Ġun lock
og ie
Ġher ald
ition ers
Ġro s
Ġro ds
Ġro oted
Ġint ake
Ġint entional
ĠV ance
ĠV ale
ĠV ij
Ġcl ient
Ġcl ash
Ġcl utch
Ġcl ients
ign ant
Ġab d
Ġab ort
Ġab du
Ġad he
ff en
ĠHe ather
ĠHe br
ĠHe idfeld
Ġrec ounted
Ġres isted
Ġres iding
Ġres onance
ĠTh or
ĠTh urs
ĠTh irteen
ough by
Ġsc ener
Ġsc hem
ĠAl leg
Ġyear ly
Ġdes p
Ġman ning
ric ated
ric ia
ric ke
Ġdis qualified
Ġte a
ach an
Ġoff season
Ġup right
ang es
ang led
Ġsp anned
Ġen act
urn ed
ound ed
Ġim aging
Ġim pending
iz er
iz able
Ġout let
ress ing
ĠY at
ĠY ah
ĠY uc
ĠY MCA
Ġne ural
Ġinto x
Ġfin ances
Ġpre view
Ġmore l
Ġmore ls
Ġshe er
Ġcomm ittees
ens ation
ĠRe uter
Ġwork shop
Ġrem ade
Ġrem ission
Ġrem edy
ĠAs cle
ĠAr ish
ĠMar qu
ĠMar riage
ĠMar quis
Ġunder cover
Ġunder parts
ons cious
Ġchar ities
Ġ00 00
Ġinter vals
ey town
Ġpr ide
Ġform idable
Ġfl ot
Ġfl otilla
Ġreg ret
Ġreg eneration
Ġreg gae
Ġreg ulatory
Ġapp aratus
Ġqu artet
Ġacc ession
Ġsub mission
olog ically
Ġinc ense
ĠAt en
ĠLe af
ĠLe Ã³n
ĠLe gal
Ġam ass
Ġind ex
oh n
Ġco il
Ġco pe
Ġco ached
Ġsupp ose
Ġgro oves
Ġent ries
ten ham
Ġdec iduous
Ġpres ided
Ġpres erv
ject ed
Ġpo ols
Ġback story
ĠSh am
ĠSh rop
ĠSh ula
ĠSh arma
pr ises
Ġinv ade
Ġinv oked
Ġinv alid
Ġtrans missions
Ġorigin als
iet ta
Ġmon sters
Ġmon opoly
ĠAfter wards
Ġmin us
Ġmin istry
ĠShe ikh
Ġmill imetres
Ġdep osed
Ġinst antly
ĠMay o
ĠMay er
Ġdisc red
Ġoper ators
ĠZ imb
ĠZ artan
Ġinf rared
Ġgener ous
ĠWar ning
Ġimp art
ĠFr ame
Ġconst rained
xt ap
Ġstr ive
ĠCar rington
ĠPl ans
Ġhead quartered
Ġ13 2
ĠMe ch
ĠMe asure
ĠMe cca
ĠCl amp
ĠNorth umbria
ĠJan elle
ĠAd el
ĠAd orjÃ¡n
Ġpartic le
Ġpublic ized
Ġrest s
ĠCan on
Ġnow here
ĠTr ain
Ã© gÃ©
Ġ25 3
Ġserv ant
Ġcamp ed
Ġarr ange
Ġappro ximate
Ġref ined
Ġtri oxide
ĠGe ffen
Ġexpl ode
avy a
ĠBy way
Ġhum il
Ġmake up
Ġopp ose
Ġmed icine
Ġph ones
Ġeng agements
Ġstand out
Ġrepl ica
ĠPr Ã©
Ġdest iny
ĠWe ekend
ae us
ĠMan a
ĠBo ogie
ĠNo el
Ġstar board
Ġcr ude
Ġreal ise
ĠOr ange
ĠBro om
ĠPh onographic
lu or
Ġfield fare
Ġ21 5
Ġtw ist
ĠWill oughby
itar ies
Ġpar allax
rodu ced
ĠRoman o
ĠRoman esque
Ġfore limbs
ĠAb ingdon
ĠSim ultane
ĠSim mons
ĠAm iga
ĠAfric ans
Ġaff inity
Ġpat ent
Ġpat riotic
Ġhow itz
sequ ent
Ġequ ated
ĠSte eltown
ĠAir ways
ĠEv an
ĠEv aluation
Ġ27 1
Ġintrodu ctory
Ġdiv inities
Ġcast e
ĠBlack stone
Ġprot Ã©gÃ©
aren ts
Ġconv ince
Ġball ads
ĠEl aine
ĠPal acios
Ġfun nels
Ġfun niest
ĠAng els
rest rials
Ġste al
ĠCal cut
uck et
ĠMor hange
ĠCro we
ĠCro ats
Ġgl ory
Ġ31 0
Ġcomment aries
ĠHam mond
Ġident ities
com ed
Ġanim ations
Ġstri pes
Ġrecogn izes
Ġmor ality
Ġsuper b
Ġarg uably
Ġve in
ĠMon roe
ĠBer io
Ġmiss iles
Ġlaun ches
Ġvol can
ĠPart s
Ġ35 2
Ġwall ed
Ġwid ened
Ġren umber
Ġemploy er
Ġcost ing
Ġinsp ire
Ġbi ased
Ġfort ification
Ġmot iv
Ġmot ivation
Ġbur gh
ĠBay ern
ĠCap el
ĠBut ler
Ġthreat en
ĠSan ford
Ġesc aping
ĠKh mer
Ġmust er
ĠMcC ay
ĠMcC oy
Ġcycl es
ĠHall iwell
Ġpen al
Ġbreak out
Ġbreak through
Ġhard ware
Ġeconom ically
Ġpur ported
ĠGold man
ĠGold berg
Ġgrad ual
Ġgrad uation
ĠRou ge
Ġassist ing
ĠMont agne
ĠEm manuel
for cing
ĠPre fect
ĠMos cow
ĠOs ato
ĠÃ İle
Ġblock ing
Ġden oting
ĠJer ome
ĠJer emia
gl ers
Ġaut o
Ġconclud e
Ġpair ing
den berry
ĠMet eor
Ġaccess ories
Ġscript ed
Ġbound s
Ġbound ed
Ġ300 0
Ġunc onscious
ĠMer cy
ĠPat ricia
ruct ural
Ġimm une
ĠTre asure
Ġche ap
Ġche aper
ĠStr achan
Ġopt ional
Ġabandon ing
ĠCross ing
Ġpath ways
ĠSix teen
Ġrequest ing
Ġnecess itated
Ġattend ants
Ġ182 2
Ġ182 7
Ġkick er
ĠCrit icism
Ġspir al
Ġspir its
Ġamb ient
Ġphot ographer
Ġdrum ming
ĠSol itude
Ġinstit ute
Ġentr ances
ĠDam ietta
Ġmagn ificent
Ġhair s
Ġdemonst rates
ĠCharl ton
Ġ181 0
Ġ181 2
Ġboard ing
Ġ180 3
ĠReview ing
Ġspl its
ĠMal colm
Ġpun ish
ĠSpec ific
Ġrepe ats
Ġgrass lands
ĠSal a
Ġencour agement
ĠAv on
ĠProdu ctions
Ġmeasure ment
Ġhun ger
ĠSch afer
Ġfunction ing
Ġemphas izes
Ġunivers ally
Ġfolk t
Ġheart ed
Ġneut rin
Ġdoub les
ĠMass ive
ĠAnn ie
Ġrom antically
Ġmel ting
Ġ53 3
Ġtur moil
ĠBir kin
ĠPo ems
ĠLar gs
ĠBan ning
ĠCongress man
Ġimag ined
ĠSor i
ĠPet ra
Ġge ology
ĠHart man
Ġdelay ing
ĠAthlet es
ĠChe ers
ĠSha iva
Ġexpress es
Ġexpress ions
ĠChel tenham
Ġ179 3
ĠGreg orian
ĠDomin ic
ĠDo ct
ĠIsab el
ĠNH A
ĠDublin ers
Ġmist akes
Ġneck lace
Ġsurre al
Ġ177 2
Ġ177 5
ĠCD s
Ġvert ically
ĠSus anna
ĠMat agorda
Ġton ed
Ġfashion ed
ĠRod denberry
Ġquot ation
ĠFre eman
Ġcho oses
Ġmic rol
ĠRun way
ĠGre ens
ĠGre co
Ġtable ts
ĠHan over
ĠHan uman
Ġresist ant
ĠSub sequent
ĠLow ell
ĠHug o
ĠEdu ardo
Ġpound ers
Ġvic ar
Ġ66 0
intend ent
Ġcinem atic
ĠHo Ê»
ĠHard core
ĠVol umes
ĠEarl ier
Ġshore line
Ġshel f
Ġconte xts
Ġyouth ful
ĠYan jing
Ġdiscip lines
Ġsoul s
ĠDA RPA
Ġ121 9
Ġbright ness
ĠKel ley
Ġur ine
ĠMid land
Ġnick el
Ġpreced ent
Ġgall ons
Ġproceed ing
Ġserial ised
ĠLev y
Ġble w
Ġinaug urated
ĠCook e
Ġsam pling
Ġju xtap
Ġfold s
ĠTechn ical
Ġblow ing
ĠAld en
ĠPass age
Ġtip ped
Ġrecru its
Ġpredomin ant
Ġmerch and
ĠTs ung
Ġrect ory
Ġpsych iat
ĠSid ney
Ġcooper ate
Ġpossess es
Ġster oid
ĠTro ubles
ĠTro ttern
Ġconsult ing
Ġinnov ation
Ġexplo itation
ĠCP R
Ġyield ed
Ġ155 3
Ġwel comed
ĠSem itic
ĠWeb b
ĠWeb ber
ĠProgram me
ĠLincoln shire
Ġlat itude
Ġalt itude
Ġnotice able
ĠConc erto
Ġexpert ise
Ġsuperv ised
ĠMir ror
Ġhem isphere
Ġtru ce
ĠMagn etic
ĠAnti quaries
Ġdict ators
Ġneighb ours
ĠSign ificant
ĠBird s
Ġ117 0
iy ah
Ġhook ed
ĠBow man
Ġencl osure
ĠMcE n
ĠObserv ations
ĠRick y
Ġovert urned
ĠHop kins
ĠPoly nes
Ġevolution ary
ĠMantell isaurus
Ġfault s
Ġfeud al
Ġaudition ed
ĠImport ant
ĠTit us
Ġech oes
ĠPur itans
erm o
ĠLind a
ĠShadow s
ĠReturn ing
Ġsqu at
Ġcosm ic
Ġhapp iness
ĠGill ian
ĠLucas Ar
ĠLucas film
Ġsoci ologist
Ġward robe
Ġlumin ous
Ġpled ge
Ġconsum ers
Ġacceler ate
Ġtorn ado
Ġtoxic ity
ĠArn hem
Ġdeterior ation
Ġintend s
ĠMond ay
Ġknock ing
ĠLeban ese
Ġbrood s
Ġgenu inely
ĠCrab ble
ĠWed ding
ĠConstitution al
Ġmicroscop ic
ĠTan eytown
ĠSaf in
ĠFa ust
Ġshock ing
ĠHein z
Ġ115 0
pat rick
ĠÎ ¼m
Ġcam el
Ġcam oufl
ĠCN N
ĠMes olithic
ĠMes opotamia
ĠFat ality
ĠLyn ch
Ġrot ating
Ġfemin ine
ĠTai wan
Ġconform ity
Ġskelet al
rist y
ĠTalk ing
Ġnas al
Ġswallow ed
Ġca es
Ġecl ips
ĠIR B
ĠPresent ation
Ġincl ination
ĠSac red
Ġmanifest ations
ĠMcK ay
Ġalgorith ms
ĠTob ias
Ġproced ure
ĠKet awa
ĠKet tering
ĠHend erson
Ġinfl amm
ĠGalile o
Ġey ed
ĠClear water
ĠIb ari
Ġye ast
Ġsteambo ats
ĠSupport ing
Ġinconsist ent
ĠNam co
Ġhadrosaur ids
Ġparad igm
ĠPatriarch al
Ġdegener ate
ĠKras nyi
ĠDinosaur s
Ġrecip ient
ĠPrim ary
Ġextrater restrial
Ġextrater restrials
ĠNP R
abl ished
Ġdemocr atic
Ġjudg ment
Ġtaxon omic
ĠLlan illtern
Ġbefriend ed
Ġauthentic ity
ĠMiddles ex
Ġlament ed
ĠTele com
Ġderiv atives
ĠUpd ate
Ġeukary otic
Ġpew s
ĠSud an
Ġgest ure
ĠJama ica
ĠLoft y
Ġfluores cence
ĠCornwall is
Ġsav age
Ġnost alg
ĠCost a
Ġspik es
ĠZimmer man
Ġprevail ing
Ġhumid ity
ĠSwan sea
Ġnomine e
ĠRP G
ĠFing al
ĠWor cestershire
Ġfeas ible
Ġnoct urnal
ĠMacl agen
Ġnucleol us
ĠErn st
Ġeclip se
Ġpamph let
ĠEthiop ia
Ġsar c
Ġreef s
ĠST D
ĠMaj esty
ĠKress enstein
ĠVinc ent
Ġperce ive
Ġperipher al
Ġspeck les
Ġsubgen us
ĠCompet ition
ĠSteff y
Ġextravag ant
Ġplagiar ism
ĠScratch ley
Ġmim ic
Ġhone ye
ĠIB M
ĠRaph ael
ĠJov ian
ĠKow ang
Ġspru ce
Ġquadrup le
Ġincap able
ĠLex ington
Ġeleg ant
Ġempt ied
Ġdeton ated
ĠPresbyter ian
Ġgoalsc orer
Ġreinst ated
Ġprecurs or
ĠCulver house
Ġtren ches
Ġtherop od
orpor ated
Ġcoun sel
Ġfra ud
Ġfresco es
Ġbure aucr
alain en
Ġpect oral
Ġpagod as
ĠSoy uz
ĠSlo an
ĠSogns vann
ĠSPEC TRE
Ġecc entric
Ġell ip
ĠMered ith
ĠMek ong
ĠIck es
ĠBess in
ĠBÃ©d ard
imier z
Ġstip ulated
ĠHots pur
ĠHitch cock
ĠPenc erah
ĠRied esel
ĠFinc her
ĠDore mus
ĠNant ucket
ĠGins berg
ĠOsh ii
ĠKov alainen
ĠHebr ides
ĠThurs day
Ġscener y
Ġschem es
ĠYah oo
ĠYuc atÃ¡n
ĠAscle pius
Ġpreserv ing
ĠZimb abwe
ĠSimultane ously
Ġhowitz ers
ĠCalcut ta
Ġvolcan ic
Ġrenumber ing
ĠJeremia h
Ġneutrin os
ĠHoÊ» olulu
Ġpsychiat ric
ĠTrottern ish
ĠLucasAr ts
9 1
F C
F I
I D
I CE
L as
P C
P ro
R our
V all
X X
a ited
a ism
a bernacle
b t
b ula
b ucks
c up
c ely
c asters
c uli
d ress
f ere
f ork
g ement
g ling
h ore
h aska
h addon
i ates
j ust
k irts
l ue
m ind
m atic
m aine
o ors
p y
p ac
p erson
r als
r atory
s Äģ
s bury
s illon
t i
t ire
t hesis
u cc
u ana
v as
v ings
v ances
x is
y led
y ster
z an
½ ŀ
Ã ¥
Ã ®
Ù Ħ
ĥ sÄģ
Ġt art
Ġt apes
Ġt abernacle
he on
Ġa qu
Ġa ide
Ġa hi
in ating
in wood
Ġthe rape
on bury
Ġs ch
Ġs ars
Ġs ax
Ġs orts
Ġs ights
Ġs ago
Ġo re
Ġw ards
Ġw ires
Ġw iped
Ġw rapped
un s
un ge
at ars
Ġc ro
Ġc ite
Ġc ured
Ġc ogn
Ġc oven
it ory
Ġf its
Ġf rict
Ġf idelity
en obia
is ch
is em
is ine
Ġb ike
Ġb ah
Ġb ounc
Ġb atch
Ġin active
Ġin gestion
ar as
ar land
ar ms
ar tha
ar haddon
an aman
Ġp ent
Ġp ant
Ġp ub
Ġp enn
Ġp uck
Ġp acks
Ġp ads
Ġp ipe
as i
as ian
Ġm all
Ġm oss
Ġm oor
Ġm akers
Ġd uck
Ġd uel
Ġd rif
Ġd raught
Ġh ay
Ġh ats
ion ation
le ep
ĠT ric
ĠT ah
ĠT ape
ĠT yn
ĠT arant
ĠT LC
Ġre cl
Ġre used
ent ful
ou w
ĠA id
ĠA ther
ĠA CC
il ated
il icia
ĠS ie
ĠS under
ĠS ury
ĠS uc
ĠS inner
ĠS uv
st and
st op
Ġl uck
Ġl ays
Ġl ucr
Ġl ounge
om p
om aly
ĠC and
ĠC ame
ĠC oy
ĠC ities
ĠC ros
ĠC rew
ĠC ope
ĠC ilicia
ad ers
ad illy
Ġon ward
ur able
ĠM w
ĠM ind
ĠM ane
ĠM aking
ĠM erv
ĠM ama
ĠM Ã©t
ĠM anga
ĠI ch
ĠI ps
ĠI bar
ĠI roqu
Ġg reet
iv ities
ol er
ter ranean
ter fly
ĠB ole
ĠB rew
ĠB alk
ĠB ung
ĠB AF
ĠB DS
ĠB anner
ĠB ET
im urti
id ar
id ium
id ays
id ging
id emic
Ġas leep
ig s
ig ed
ig ua
Ġst int
Ġst yled
ĠH ight
ĠH ands
ĠH ersey
us ement
ver end
ut ic
ut ational
ut tle
ut iny
ĠP a
ĠP iz
ĠP ius
ĠP icc
ĠP uma
Ġwh ip
ch ase
ch fork
ĠR ated
ĠR acing
ĠR omm
ĠF ly
ĠF ew
ĠF ile
ĠF ury
ĠF ellow
ĠF acing
ĠF resh
ĠD ed
ĠD ate
ĠD ix
ĠD aly
ĠD urg
ĠD igg
Ġcon cl
Ġcon ning
Ġcon formation
em aker
ul an
ul se
ul ine
ĠW ign
ĠW ilm
ĠW ick
ĠW ool
ĠW inn
ĠW DTV
ĠW aiting
os er
os ome
ĠN a
ĠN c
ĠN ed
ĠN ice
Ġan omaly
ĠG ust
ĠG entle
ĠG har
ĠG enesis
ĠG uru
ĠL il
ĠL acy
ĠL uz
ĠL anger
ers ide
Ġhe ating
est a
est re
ag han
ĠJ ig
ĠJ all
Ġde ar
Ġde graded
Ġr ally
Ġr ides
Ġr iot
Ġr idden
Ġr iffs
Ġr arity
ĠO K
ĠO kin
ĠE y
ĠE z
ĠE mb
ĠE SA
ort als
Ġv ain
Ġv ener
Ġv ars
Ġv ibr
Ġv iney
Ġv audeville
ore nce
ill ion
ĠIn ez
op us
ard on
Ġch ast
Ġch amp
Ġex its
Ġex otic
ud ad
ant ed
oc re
oc es
oc ative
oc cup
Ġsh y
Ġsh ores
Ġk el
Ġk rypton
ĠU se
ĠK ass
ĠK are
ĠK nown
Ġle ap
ov ick
Ġnot ified
ment al
ast opol
ast onbury
ip le
ĠSt ro
ĠSt am
ĠSt ri
ĠSt atus
ish wan
ĠCh ong
ĠCh oir
Ġcomp ressed
Ġcomp elling
Ġcomp utational
Ġun he
Ġun iqu
Ġun ev
Ġun just
og ly
og amous
hed rals
ub ation
ie v
Ġro be
Ġro bed
Ġro osts
Ġint ro
Ġint oler
ĠV iew
ĠV ai
ĠV isions
ĠV oren
ĠV essel
ĠV esta
ĠV ishwan
Ġcl aret
Ġcl aws
Ġus eless
ff udd
ĠHe y
ĠHe ine
ĠHe yl
ĠHe be
ass ified
Ġrec on
Ġper f
Ġbo ating
Ġbo oms
ted ly
are a
Ġsc outs
Ġsc enic
Ġdes erves
Ġdes irable
Ġman power
Ġdis k
Ġdis organ
Ġte nder
Ġj oked
Ġj umped
Ġser geant
Ġover head
Ġup ro
Ġup ward
Ġsp ind
Ġsp ars
ĠY ard
ĠY ours
Ġfin ely
Ġpre cept
Ġpre acher
Ġspe nds
ces ter
Ġshe ets
Ġall ot
amp ire
ĠRe vel
ĠRe verend
Ġwork place
ĠSe pin
Ġme al
Ġme th
man ent
Ġfe ast
Ġear nest
ĠAn thodon
old e
Ġkn ot
ve z
ĠAs yl
ĠAs cot
ĠAr cade
Ġrel ics
Ġcan vas
ĠMar gin
ĠMar co
att i
Ġinter chang
Ġinter fere
Ġpe culi
Ġfl ats
Ġfl ax
Ġfl ashes
Ġass uming
Ġret itled
Ġacc olades
Ġsub terranean
ĠAt kinson
Ġam ids
Ġam usement
Ġgr unge
Ġgro ove
end ra
Ġep idemic
Ġsy ph
Ġent rep
pen ed
ll ier
Ġsever ed
Ġsing ular
Ġgo ats
ale z
ĠSh ang
Ġinv aders
Ġtrans mit
Ġtrans verse
ĠBr illiant
ert y
Ġmon ogamous
ĠSc outs
Ġshow case
Ġsign ings
Ġbr ack
Ġbr anc
Ġbr ush
Ġbr anded
Ġbr idging
Ġob ey
ĠInd ex
ĠInd och
ĠMay s
ĠAust en
Ġdisc ern
ĠZ ong
ĠZ ilt
ĠZ enobia
anc a
Ġinf ect
Ġinf ested
Ġexp ansions
Ġrep el
Ġrep ly
Ġrep elled
Ġprov oking
Ġimp ose
Ġimp lying
Ġcar vings
az aki
Ġsim ulate
Ġeff ig
Ġins ists
Ġpass port
Ġsix teenth
Ġcount down
ĠBe aver
uc le
uc ent
uc asian
ĠPl att
Ġhead dress
ole v
ĠAll an
ĠHer od
ĠHer ries
Ġann ular
ĠMe et
ĠCl iff
ash ing
Ġdr ag
Ġdr illing
ĠChrist ina
Ġ14 6
Ġ14 9
Ġclass ics
Ġclass rooms
ĠFe eding
ĠTr avel
ĠTr imurti
Ã© s
Ġ25 4
Ġconf eder
Ġconf ession
Ġvis ually
Ġref in
ĠAnd orian
ĠGr ass
ĠMus h
ĠPro haska
Ġpower house
ĠQ F
ĠGe opy
Ġsl am
Ġsl aughter
Ġbre thren
Ġsent encing
Ġhand b
Ġmed iate
Ġpresent er
por a
Ġeng ages
ĠMc Le
Ġaddition s
Ġlocal ities
ĠWe iss
ĠWe ev
ĠMan ufact
ĠMan ila
Ġdem os
be e
ĠFl ags
ĠFl orence
ĠSp ur
Ġtake over
Ġant ique
Ġant elope
Ġant isem
Ġlevel ed
Ġtw igs
Ġav ian
ĠAccording ly
Ġ23 2
Ġpar cel
Ġprop ag
Ġprop onents
ĠPer manent
ĠGener ally
Ġfr anc
ĠGeor ges
Ġfore head
Ġel astic
Ġtotal ing
Ġpopular ized
ĠBar ack
Ġproject iles
Ġcur iosity
ĠX ion
ĠX ia
sh ires
Ġfire power
ape ake
ĠSim Ã³n
ĠDes crib
ĠAm la
ĠAm nesty
vers ion
Ġpress ured
ĠEd gar
enc ia
Ġord ination
ĠPol a
Ġannoun cing
Ġequ ality
ĠSte ele
Ġ27 2
au x
au rolophus
int o
ĠBlack ley
ĠRich ter
Ġneed ing
ĠReg ular
Ġten or
Ġcor ros
Ġcat hedrals
ĠEl rane
ĠEl sewhere
Ġtechn ological
isc uous
Ġred oub
ĠGl astonbury
Ġnational ism
Ġhold ers
Ġhold ings
rie ze
Ġgoal ball
Ġtre ble
Ġgl iding
Ġgl ossy
Ġrev ive
Ġcomment ator
Ġcas ino
ĠBill s
ĠHam pton
ÃŃ b
gr ims
Ġsw ung
Ġsw ords
Ġsex es
Ġmor ally
Ġsepar ating
ĠRobert o
Ġcreat ivity
Ġspecial ists
ĠMon aghan
mar ionation
Ġhy per
ĠBer ardi
Ġmiss es
ĠIr resistible
Ġhost age
ĠHar ford
ĠHar ih
ĠMad ame
ĠDu Vall
Ġbi ology
ĠMed icine
Ġnomin al
Ġmot ions
ĠMy les
ĠGal a
Ġpoor er
ĠWal ton
ĠCo aching
ĠPhil os
Ġtreat s
Ġdi oces
ĠBut terfly
Ġthreat ens
Ġtrib bles
ett o
ĠDr ivers
ĠWhe el
Ġfly by
ĠVar rick
quar ian
ĠHel met
ĠRepublic ans
ĠScient ologists
Ġhard est
ĠSun shine
Ġdiss olve
Ġpur ity
ĠMac rian
Ġcertain ty
Ġ184 3
Ġgrad ed
ĠColle giate
for ward
Ġtest imon
Ġwood s
ĠOs aka
ĠSl ide
Ġpot atoes
ĠDon n
ĠAngel a
Ġanti quarian
ĠArt ificial
ĠJer maine
ĠSuper marionation
arm endra
ĠTer min
Ġsyn c
Ġprior ities
Ġscreen writer
Ġdisp osed
ĠStar bucks
Ġflow ed
ĠJe ep
Ġlay ered
ĠGo ose
Ġcolon ization
Ġprem ium
Ġunc ont
Ġbord ered
ĠPat rol
ĠMart y
ĠCour se
ĠMil ky
ĠTenn is
Ġult rav
Ġhero ine
Ġdom ains
Ġund en
Ġund es
Ġund oub
Ġund erside
Ġdig est
ĠPit chfork
ĠSam my
ĠAnt igua
Ġpolic eman
ĠOpen ing
Ġenjoy s
Ġstrength s
Ġtransl ucent
Ġpil grims
ĠInter action
Ġhands ome
Ġpurs ues
ĠOut world
Ġcontrovers ies
ĠBraat hen
ĠAlex andra
Ġquestion able
ĠSol o
Ġshell ed
ĠCast ile
oph on
Ġ51 91
Ġ76 7
Ġdescript ive
ĠIllino ise
Ġlif ting
ĠDem ographics
Ġviewers hip
Ġvocal ists
Ġchem ist
ĠNews p
Ġ180 4
Ġ180 6
Ġ180 9
ĠGreen land
Ġsust aining
Ġprec ision
Ġincorpor ation
Ġrecommend ing
Ġinh alation
Ġhol idays
Ġmission aries
Ġreact s
ĠSal em
Ġexhib itions
ĠDou bt
Ġmechan ic
Ġmechan isms
Ġillust rates
Ġmess enger
ĠAv a
Ġextr act
Ġconflict ing
ĠSch umann
Ġemphas ize
Ġthr iving
roll ed
Ġcondition al
ĠDue idar
Ġwa ist
Ġtun ed
Ġdefin itions
ĠPublic ations
Ġalter ing
Ġkilomet re
ĠClass ical
ĠClass ics
ĠClass ification
ĠBan aras
Ġstraight forward
ĠRog atti
Ġspect acle
ĠDen ver
ĠDen ise
Ġmob bing
ĠWork ers
Ġexpress way
ĠJes se
ĠJes uit
Ġcorre l
Ġcorre cted
Ġmig ratory
Ġsole mn
ĠDo es
Ġunp aid
Ġcool ed
Ġsouthwest ward
bl ad
ĠMic key
ĠVill iers
Ġ95 0
ĠHy pac
ĠProt esters
Ġcalc ulation
Ġlabor ers
ĠEll erbe
Ġglob ular
Ġgreen ish
ĠEs arhaddon
ĠMod el
Ġoverl apping
Ġundert ake
Ġundert aking
Ġdecre ases
Ġsort ies
ĠGab a
ĠGab oon
Ġdescend ing
ĠAdv anced
Ġencounter ing
Ġut ility
ĠRod ney
Ġ59 0
Ġassass in
Ġassass ins
Ġpoly pe
ĠJud aism
Ġ160 5
ĠMoz art
ĠCa ucasian
Ġrich ly
Ġ112 6
ĠLuc ie
ĠCle land
Ġaddress ing
Ġrevolution aries
ĠBern issart
Ġrob bery
Ġupd ates
ĠSnow y
ĠHon ours
Ġpal er
ĠFar ber
ĠDar ren
Ġvic ars
mans hip
Ġbond ing
Ġconve x
Ġenl ist
ĠFlow ers
ĠNether land
ĠAnton y
Ġ87 4
ĠTel escope
Ġlov ely
Ġvan ished
ĠTrack ing
ĠEliz a
Ġcommit ting
ĠHu bert
Ġdisapp ro
Ġstrateg ically
Ġlbw s
ĠWat ers
Ġ121 7
Ġharm onies
ĠIron ically
Ġtra vers
Ġib n
ĠPerson ality
ĠTerrit orial
Ġmut ually
ĠSa unders
ĠRos so
Ġcrest ed
Ġscientific ally
Ġfled gling
Ġ122 1
Ġimplement ation
Ġequal iser
Ġau ction
Ġwars hip
Ġmap le
ĠLev ant
Ġcorrect ly
ĠShakespeare an
Ġpric ed
ĠCook ery
onder osa
Ġmart yr
Ġrenew al
ĠProtest ants
Ġincom pet
Ġ161 5
Ġbrick s
ĠMel ancholy
ĠAlong side
ĠKrak Ã³w
Ġsunk en
ĠHou llier
ĠFree ville
Ġappropri ately
Ġrepr int
ĠMah ar
Ġorb iting
Ġloan ed
Ġfram ing
Ġpale ont
Ġoutl ook
Ġoutl aws
Ġacknowled ges
ĠKim i
Ġresign ing
Ġburial s
Ġrailroad s
Ġinstall ment
Ġinstall ations
aun ch
ĠLover s
Ġdeleg ation
Ġdeleg ated
Ġclim bed
ĠAsh bee
Ġreprodu ce
Ġturb ul
Ġrever ed
Ġrib bon
Ġrib osomal
Ġcondem ning
ĠShel ton
Ġinnov ations
Ġlam ina
Ġobl iged
ĠPle ase
Ġyield s
Ġobvious ly
Ġmathem atic
Ġisot ope
ĠNob le
Ġ163 2
Ġ163 9
Ġinhab its
ĠSant ander
Ġbeam s
ĠBab e
ĠPf lue
Ġdisagre ements
Ġtwent ies
ĠCooper ation
Ġï ½ŀ
Ġbarr age
Ġrepair ing
Ġfasc inating
Ġmargin al
ĠSab o
Ġadvoc ating
ĠAmb ition
ĠImm ortals
iy a
ĠSin atra
anag ara
Ġanch ored
ĠVic arious
Ġinternation als
Ġsleep ing
ĠBatter ies
Ġ127 0
Ġbrain w
Ġanticip ation
ĠSon thi
ĠDot A
ĠOak ley
Ġmanip ulation
Ġmanip ulating
Ġjet port
ĠManuel a
Ġirregular ly
Ġdod os
ĠMort on
ĠProm iscuous
Ġscar f
Ġveter ans
ĠHonor ius
Ġcraf ted
Ġfru ition
ĠMack enz
ĠPam ela
Ġbrut ality
ĠMcM anaman
Ġredes igned
Ġpenet rating
Ġfragment ary
Ġcosm etic
Ġcosm opolitan
Ġmand ated
Ġrecept ors
Ġliv elihood
ĠLam bert
ĠTu o
ĠBal estre
Ġcomprom ised
Ġcook book
Ġcorpor ations
ĠEle ven
Ġlect ure
Ġlect ures
Ġscr utiny
ĠSev astopol
Ġascend ing
ĠEp iph
Ġadequ ately
Ġlandmark s
Ġwrest ler
ĠTow ers
ĠAk ira
Ġeval uation
ĠCommer ce
ĠMonth ly
ĠMalays ian
Ã± o
ĠIns urance
ĠKam il
ĠCN S
Ġindirect ly
Ġcu isine
Ġspokes person
Ġmusc ular
ĠPopM art
Ġpray ers
Ġinteg ral
ĠPuppet eer
á¹ ĥsÄģ
ĠAx el
Ġnic hes
ĠHoll inwood
Ġnit rogen
Ġspr int
Ġdelight ful
ĠRegard less
Ġglac is
Ġhier archy
Ġhier ogly
oles cent
ĠHutch inson
ĠDh armendra
Ġseed lings
Ġsear ched
Ġsear ches
Ġproced ures
ĠExpl oration
ĠWinds or
ĠVolunte ers
ĠHomar inus
ĠHold en
Ġconif ers
ĠRecon struction
Ġfilmm akers
ĠChes apeake
Ġaren as
Ġunanim ous
Ġemig ration
Ġprogn ostic
Ġware house
Ġbra very
Ġment ally
Ġlod ged
ĠMult iple
ĠIst hm
Ġadmit ting
Ġoverr un
Ġreluct ance
Ġoptim istic
Ġcement ed
Ġpier cing
ĠMak ovick
ĠLed ge
abl anca
Ġscream ing
Ġouts kirts
Ġgras p
Ġdemocr acy
Ġjudg ement
Ġhaun ted
ĠNottingham shire
Ġbol ster
Ġhung ry
Ġproc ured
Ġspill way
ĠBrah ma
ĠTyp ically
Ġmanoeuv re
Ġmanoeuv res
Ġrept iles
Ġlon ely
Ġloot ing
ĠCort land
ĠFolk lore
ĠEuras ia
ĠKaw artha
Ġreli ability
Ġ139 0
ĠMcF arland
ĠSovets ky
Ġdialog ues
Ġnutri ents
Ġsubdiv isions
ĠTotten ham
Ġthunderst orm
ĠMons en
ĠGav in
ĠClar ke
Ġsawm ills
ĠPrevious ly
Ġutter ly
Ġfals etto
ĠAud io
ĠBuff alo
ĠRud olph
ĠDhang ar
ĠGonz alez
ĠLion el
Ġaristocr atic
ĠArmen ian
ĠCeratops ia
Ġmasc uline
Ġhaul ed
ĠMith ra
Ġembro iled
ĠBoliv ia
ĠBehav ior
ĠCould n
ĠCreat ive
Ġglow ing
ĠDraw s
Ġdisg ust
Ġapprent ice
Ġsubty pes
ĠShear er
ĠZo Ã«
ĠAmend ment
Ġquarterf inals
Ġcytogen etics
Ġectomy corrhizal
Ġiod ine
Ġnym phs
ĠPent wyn
Ġseaw all
Ġchlor ide
Ġrecycl ed
Ġperm its
Ġinspe ction
ĠTrin sey
ĠAndh ra
Ġengr aving
Ġsteeple chase
Ġautobi ographical
Ġtoile t
ĠCi udad
ĠMG B
ĠMau i
ĠMalt a
Ġgrie vances
ĠRous sillon
ĠGru ffudd
ĠElement ary
Ġdisemb ark
ĠArd an
Ġbless ing
Ġmonkey s
ĠCarly le
Ġmedi ocre
ĠParas aurolophus
ĠStephan ie
Ġnightcl ub
Ġlifes pan
ĠfaÃ§ ade
ĠLambe osaurus
Rour ke
ucc o
Ġaqu atic
Ġahi á¹ĥsÄģ
Ġtherape utic
Ġfrict ion
Ġbah t
Ġpant heon
ĠTric eratops
Ġrecl assified
ĠSunder land
ĠSuc re
Ġlucr ative
ĠCand ace
ĠCame o
ĠCros by
ĠMane ater
ĠMÃ©t is
ĠIps wich
ĠIroqu ois
Ġgreet ed
ĠBole t
ĠBung ie
ĠBAF TA
ĠHight ower
ĠPicc adilly
ĠRomm el
ĠDurg a
Ġconcl ave
ĠWign er
ĠWilm ington
ĠGust av
ĠJall on
ĠOkin awa
ĠEmb assy
Ġvars ity
Ġvibr ant
Ġviney ards
Ġchast ity
Ġchamp u
Ġunev entful
ĠVoren us
ĠVishwan ath
ĠHeyl in
ĠHebe i
Ġspars ely
ĠSepin wall
Ġinterchang es
Ġpeculi ar
Ġamids hips
Ġsyph ilis
Ġentrep rene
Ġbranc hed
ĠIndoch ina
ĠZilt oid
ĠGeopy xis
ĠWeev il
Ġantisem itic
ĠDescrib ing
ĠAmla ÃŃb
Ġredoub ts
ĠHarih ara
ĠMacrian us
Ġultrav iolet
Ġundoub tedly
ĠHypac rosaurus
ĠPflue ger
ĠMackenz ie
ĠEpiph any
ĠMakovick y
B I
[...]
