{"[UNK]":0,"[PAD]":1,"[CLS]":2,"[SEP]":3,"[MASK]":4,"!":5,"\"":6,"#":7,"$":8,"%":9,"&":10,"'":11,"(":12,")":13,"*":14,"+":15,",":16,"-":17,".":18,"/":19,"0":20,"1":21,"2":22,"3":23,"4":24,"5":25,"6":26,"7":27,"8":28,"9":29,":":30,";":31,"<":32,"=":33,">":34,"?":35,"@":36,"A":37,"B":38,"C":39,"D":40,"E":41,"F":42,"G":43,"H":44,"I":45,"J":46,"K":47,"L":48,"M":49,"N":50,"O":51,"P":52,"Q":53,"R":54,"S":55,"T":56,"U":57,"V":58,"W":59,"X":60,"Y":61,"Z":62,"[":63,"\\":64,"]":65,"^":66,"_":67,"`":68,"a":69,"b":70,"c":71,"d":72,"e":73,"f":74,"g":75,"h":76,"i":77,"j":78,"k":79,"l":80,"m":81,"n":82,"o":83,"p":84,"q":85,"r":86,"s":87,"t":88,"u":89,"v":90,"w":91,"x":92,"y":93,"z":94,"{":95,"|":96,"}":97,"~":98,"¡":99,"¢":100,"£":101,"¤":102,"¥":103,"¦":104,"§":105,"¨":106,"©":107,"ª":108,"«":109,"¬":110,"®":111,"¯":112,"°":113,"±":114,"²":115,"³":116,"´":117,"µ":118,"¶":119,"·":120,"¸":121,"¹":122,"º":123,"»":124,"¼":125,"½":126,"¾":127,"¿":128,"À":129,"Á":130,"Â":131,"Ã":132,"Ä":133,"Å":134,"Æ":135,"Ç":136,"È":137,"É":138,"Ê":139,"Ë":140,"Ì":141,"Í":142,"Î":143,"Ï":144,"Ð":145,"Ñ":146,"Ò":147,"Ó":148,"Ô":149,"Õ":150,"Ö":151,"×":152,"Ø":153,"Ù":154,"Ú":155,"Û":156,"Ü":157,"Ý":158,"Þ":159,"ß":160,"à":161,"á":162,"â":163,"ã":164,"ä":165,"å":166,"æ":167,"ç":168,"è":169,"é":170,"ê":171,"ë":172,"ì":173,"í":174,"î":175,"ï":176,"ð":177,"ñ":178,"ò":179,"ó":180,"ô":181,"õ":182,"ö":183,"÷":184,"ø":185,"ù":186,"ú":187,"û":188,"ü":189,"ý":190,"þ":191,"ÿ":192,"Ā":193,"ā":194,"Ă":195,"ă":196,"Ą":197,"ą":198,"Ć":199,"ć":200,"Ĉ":201,"ĉ":202,"Ċ":203,"ċ":204,"Č":205,"č":206,"Ď":207,"ď":208,"Đ":209,"đ":210,"Ē":211,"ē":212,"Ĕ":213,"ĕ":214,"Ė":215,"ė":216,"Ę":217,"ę":218,"Ě":219,"ě":220,"Ĝ":221,"ĝ":222,"Ğ":223,"ğ":224,"Ġ":225,"ġ":226,"Ģ":227,"ģ":228,"Ĥ":229,"ĥ":230,"Ħ":231,"ħ":232,"Ĩ":233,"ĩ":234,"Ī":235,"ī":236,"Ĭ":237,"ĭ":238,"Į":239,"į":240,"İ":241,"ı":242,"Ĳ":243,"ĳ":244,"Ĵ":245,"ĵ":246,"Ķ":247,"ķ":248,"ĸ":249,"Ĺ":250,"ĺ":251,"Ļ":252,"ļ":253,"Ľ":254,"ľ":255,"Ŀ":256,"ŀ":257,"Ł":258,"ł":259,"Ń":260,"Ġt":261,"he":262,"Ġa":263,"in":264,"Ġthe":265,"er":266,"on":267,"Ġ,":268,"re":269,"Ġs":270,"Ġo":271,"Ġw":272,"ed":273,"un":274,"Ġ.":275,"at":276,"nd":277,"or":278,"Ġc":279,"it":280,"Ġf":281,"en":282,"is":283,"Ġof":284,"es":285,"Ġb":286,"Ġin":287,"ar":288,"unk":289,"an":290,"Ġ<":291,"al":292,"Ġand":293,"Ġp":294,"ing":295,"as":296,"Ġto":297,"Ġm":298,"ro":299,"ic":300,"Ġd":301,"Ġh":302,"čĊ":303,"ĠčĊ":304,"ion":305,"le":306,"ĠT":307,"Ġ=":308,"Ġre":309,"Ġ\"":310,"Ġth":311,"ent":312,"ou":313,"ĠA":314,"Ġ1":315,"il":316,"ĠS":317,"st":318,"Ġl":319,"om":320,"Ġe":321,"Ġn":322,"Ġ@":323,"am":324,"ĠC":325,"el":326,"ad":327,"Ġwas":328,"ac":329,"ĠThe":330,"Ġon":331,"Ġbe":332,"ur":333,"ly":334,"ĠM":335,"Ġ'":336,"ĠI":337,"Ġg":338,"Ġfor":339,"iv":340,"ol":341,"ter":342,"ĠB":343,"-@":344,"Ġ@-@":345,"im":346,"id":347,"ir":348,"Ġas":349,"ct":350,"ig":351,"th":352,"ow":353,"ith":354,"Ġst":355,"ĠH":356,"us":357,"Ġ2":358,"ay":359,"Ġthat":360,"Ġwith":361,"her":362,"ot":363,"ce":364,"ver":365,"ut":366,"ation":367,"et":368,"Ġis":369,"ĠP":370,"Ġwh":371,"ch":372,"Ġby":373,"ĠR":374,"Ġ)":375,"Ġ(":376,"Ġal":377,"ĠF":378,"ĠD":379,"Ġcon":380,"em":381,"ul":382,"ĠW":383,"Ġat":384,"Ġit":385,"Ġ19":386,"and":387,"ain":388,"rom":389,"os":390,"ĠN":391,"Ġan":392,"ĠG":393,"ĠL":394,"ers":395,"Ġhe":396,"est":397,"ag":398,"av":399,"00":400,"ĠJ":401,"Ġse":402,"um":403,"Ġde":404,"Ġhis":405,"Ġr":406,"Ġfrom":407,"od":408,"ĠO":409,"ri":410,"Ġcom":411,"ĠE":412,"pe":413,"und":414,"ist":415,"Ġpro":416,"if":417,"ld":418,"ies":419,"ere":420,"ort":421,"Ġv":422,"res":423,"Ġsu":424,"ore":425,"Ġwere":426,"ill":427,"ĠIn":428,"ap":429,"ong":430,"ew":431,"op":432,"igh":433,"ich":434,"Ġor":435,"ate":436,"art":437,"all":438,"ard":439,"ak":440,"Ġch":441,"ber":442,"ame":443,"Ġex":444,"gh":445,"ab":446,"ud":447,"Ġpl":448,"se":449,"ated":450,"ant":451,"ity":452,"Ġare":453,"Ġâ":454,"oc":455,"ive":456,"ess":457,"qu":458,"Ġsh":459,"ĠâĢ":460,"Ġhad":461,"Ġk":462,"ack":463,"Ġwhich":464,"up":465,"ĠU":466,"red":467,"Ġy":468,"ĠK":469,"Ġle":470,"ov":471,"our":472,"Ġnot":473,"ment":474,"ast":475,"ip":476,"ĠSt":477,"rit":478,"ord":479,"ear":480,"pt":481,"Ġtr":482,"ge":483,"ally":484,"ian":485,"ther":486,"ost":487,"ine":488,"ave":489,"ight":490,"oun":491,"ell":492,"Ġ3":493,"ish":494,"cl":495,"ary":496,"ĠCh":497,"Ġ200":498,"ust":499,"irst":500,"ia":501,"Ġ;":502,"pp":503,"te":504,"Ġcomp":505,"Ġtheir":506,"Ġbut":507,"cc":508,"so":509,"ction":510,"fter":511,"Ġfirst":512,"ous":513,"ure":514,"Ġits":515,"ould":516,"ra":517,"ĠâĢĵ":518,"ide":519,"Ġwhe":520,"Ġcont":521,"Ġar":522,"ue":523,"ical":524,"ome":525,"Ġun":526,"wo":527,"og":528,"hed":529,"Ġ20":530,"Ġ:":531,"ial":532,"ub":533,"ie":534,"Ġher":535,"Ġalso":536,"ition":537,"Ġro":538,"Ġint":539,"ĠV":540,"own":541,"Ġcl":542,"ater":543,"out":544,"ign":545,"Ġus":546,"orm":547,"ork":548,"Ġab":549,"Ġad":550,"ok":551,"ff":552,"per":553,"Ġhave":554,"age":555,"ru":556,"ire":557,"ĠHe":558,"Ġone":559,"ass":560,"Ġhas":561,"Ġrec":562,"low":563,"mer":564,"ime":565,"Ġbeen":566,"Ġtwo":567,"Ġ4":568,"du":569,"Ġres":570,"ĠTh":571,"Ġ18":572,".@":573,"Ġ@.@":574,"Ġper":575,"ond":576,"Ġ5":577,"ree":578,"Ġbo":579,"Ġwho":580,"ence":581,"uring":582,"ough":583,"land":584,"ted":585,"Ġthis":586,"are":587,"Ġbec":588,"ile":589,"ry":590,"pl":591,"ory":592,"ance":593,"ugh":594,"ect":595,"ĠIt":596,"ans":597,"Ġsc":598,"Ġplay":599,"ĠAl":600,"Ġthey":601,"clud":602,"Ġyear":603,"Ġ201":604,"Ġpart":605,"Ġag":606,"ade":607,"Ġdes":608,"ations":609,"Ġman":610,"ric":611,"Ġother":612,"Ġdis":613,"ult":614,"Ġte":615,"ely":616,"Ġafter":617,"ach":618,"Ġj":619,"Ġser":620,"Ġover":621,"over":622,"Ġoff":623,"Ġup":624,",@":625,"Ġ@,@":626,"ang":627,"Ġinclud":628,"Ġsp":629,"ions":630,"Ġen":631,"ite":632,"urn":633,"act":634,"ound":635,"ount":636,"Ġim":637,"ace":638,"ice":639,"iz":640,"ib":641,"wn":642,"Ġout":643,"ke":644,"ress":645,"ĠY":646,"ark":647,"Ġtime":648,"Ġne":649,"Ġinto":650,"Ġfin":651,"Ġpre":652,"Ġev":653,"ced":654,"port":655,"we":656,"ĠOn":657,"Ġspe":658,"ces":659,"Ġwould":660,"Ġmore":661,"Ġshe":662,"Ġcomm":663,"ason":664,"Ġatt":665,"ward":666,"rough":667,"Ġall":668,"ren":669,"ose":670,"one":671,"ail":672,"ited":673,"Ġhim":674,"amp":675,"Ġwe":676,"tern":677,"ied":678,"ens":679,"oin":680,"ased":681,"Ġ6":682,"ĠUn":683,"Ġcent":684,"rib":685,"ĠRe":686,"Ġwork":687,"ents":688,"ild":689,"ĠSe":690,"ix":691,"Ġme":692,"ood":693,"ase":694,"les":695,"ings":696,"ts":697,"man":698,"round":699,"Ġ7":700,"Ġfe":701,"Ġthem":702,"able":703,"ious":704,"Ġwhen":705,"Ġbet":706,"Ġsong":707,"ake":708,"ors":709,"Ġsec":710,"ates":711,"als":712,"vel":713,"ubl":714,"Ġear":715,"Ġrem":716,"ĠAn":717,"old":718,"iss":719,"ered":720,"Ġkn":721,"form":722,"Ġmost":723,"Ġduring":724,"gan":725,"ath":726,"aus":727,"Ġonly":728,"fer":729,"under":730,"ilm":731,"Ġnew":732,"Ġgame":733,"oy":734,"ved":735,"ember":736,"ve":737,"orth":738,"ollow":739,"ween":740,"Ġ199":741,"reat":742,"ĠAs":743,"way":744,"outh":745,"ĠAr":746,"Ġ9":747,"Ġ8":748,"Ġrel":749,"Ġcan":750,"Ġabout":751,"ters":752,"Ġagain":753,"Ġseason":754,"Ġthree":755,"Ġcons":756,"Ġthan":757,"ĠEn":758,"ick":759,"ug":760,"ĠMar":761,"Ġbetween":762,"att":763,"aw":764,"ral":765,"Ġrecord":766,"Ġsome":767,"ational":768,"Ġunder":769,"ons":770,"Ġchar":771,"cted":772,"ular":773,"fore":774,"Ġthrough":775,"ind":776,"ict":777,"Ġlater":778,"hip":779,"iew":780,"Ġcol":781,"Ġnum":782,"Ġ00":783,"ĠCom":784,"ft":785,"ision":786,"Ġwrit":787,"Ġwhile":788,"ĠDe":789,"Ġprodu":790,"Ġpos":791,"Ġfilm":792,"Ġrele":793,"Ġver":794,"ames":795,"Ġend":796,"Ġinter":797,"ished":798,"Ġap":799,"ey":800,"Ġpe":801,"Ġmade":802,"Ġpr":803,"Ġform":804,"ning":805,"Ġfl":806,"Ġreg":807,"Ġass":808,"orld":809,"Ġwhere":810,"Ġso":811,"Ġspec":812,"ĠNew":813,"Ġmov":814,"ever":815,"meric":816,"ĠAmeric":817,"ury":818,"Ġlar":819,"bum":820,"Ġac":821,"Ġapp":822,"Ġret":823,"ron":824,"Ġfollow":825,"ener":826,"Ġno":827,"Ġbu":828,"Ġsuch":829,"Ġdef":830,"Ġsecond":831,"ived":832,"Ġfour":833,"ock":834,"aid":835,"Ġmus":836,"Ġqu":837,"Ġacc":838,"Ġused":839,"Ġsub":840,"olog":841,"Ġinc":842,"Ġact":843,"ike":844,"ĠAt":845,"rop":846,"Ġday":847,"ĠThis":848,"ars":849,"ĠLe":850,"Ġpubl":851,"ific":852,"Ġam":853,"ual":854,"Ġcall":855,"Ġalbum":856,"Ġind":857,"hes":858,"Ġ000":859,"Ġbefore":860,"Ġdo":861,"Ġappe":862,"ob":863,"ily":864,"oh":865,"Ġbeing":866,"ank":867,"Ġgr":868,"Ġco":869,"any":870,"Ġyears":871,"ĠEng":872,"Ġthere":873,"Ġsupp":874,"Ġgro":875,"end":876,"ck":877,"owever":878,"ating":879,"ane":880,"Ġfound":881,"Ġ0":882,"Ġele":883,"Ġhigh":884,"Ġset":885,"iel":886,"Ġep":887,"ife":888,"ics":889,"orn":890,"hen":891,"Ġsy":892,"ird":893,"Ġent":894,"other":895,"iver":896,"Ġsur":897,"ained":898,"Ġ10":899,"Ġseries":900,"igin":901,"Ġnumber":902,"pen":903,"ten":904,"ll":905,"ince":906,"Ġloc":907,"ause":908,"Ġdec":909,"Ġpres":910,"ph":911,"velop":912,"Ġboth":913,"ode":914,"Ġsever":915,"ities":916,"cept":917,"Ġ12":918,"Ġthen":919,"Ġincluding":920,"ines":921,"Ġepis":922,"son":923,"ĠBrit":924,"Ġ/":925,"Ġagainst":926,"Ġwell":927,"Ġbecame":928,"Ġknown":929,"ject":930,"ĠâĢĶ":931,"ros":932,"ised":933,"Ġpo":934,"ton":935,"Ġcharac":936,"Ġadd":937,"Ġperform":938,"Ġdesc":939,"Ġsing":940,"Ġbl":941,"Ġgo":942,"Ġcap":943,"Ġ198":944,"Ġdire":945,"urch":946,"ĠJoh":947,"aj":948,"Ġ16":949,"ale":950,"Ġback":951,"Ġmany":952,"ĠSh":953,"Ġpop":954,"pr":955,"Ġmain":956,"ident":957,"though":958,"ĠUnited":959,"Ġinv":960,"Ġstud":961,"its":962,"Ġlong":963,"ise":964,"ather":965,"ures":966,"Ġtrans":967,"Ġorigin":968,"io":969,"ĠJohn":970,"ĠBr":971,"iet":972,"ert":973,"ement":974,"Ġcentury":975,"Ġmon":976,"Ġteam":977,"ober":978,"ĠAfter":979,"ool":980,"ĠSc":981,"Ġest":982,"Ġdevelop":983,"Ġshow":984,"ann":985,"Ġmin":986,"ield":987,"ek":988,"ower":989,"Ġem":990,"ier":991,"elf":992,"Ġ194":993,"air":994,"ute":995,"Ġcre":996,"Ġseveral":997,"ĠShe":998,"Ġlead":999,"uch":1000,"Ġ17":1001,"ared":1002,"Ġbegan":1003,"Ġ196":1004,"ful":1005,"ivers":1006,"ern":1007,"Ġ11":1008,"Ġ15":1009,"Ġmill":1010,"Ġdif":1011,"Ġcontin":1012,"Ġ197":1013,"overn":1014,"Ġsign":1015,"ually":1016,"ram":1017,"view":1018,"Ġsm":1019,"ired":1020,"ative":1021,"Ġmay":1022,"Ġship":1023,"Ġcomple":1024,"Ġbr":1025,"Ġcould":1026,"Ġearly":1027,"Ġcrit":1028,"Ġdid":1029,"Ġcalled":1030,"ains":1031,"Ġart":1032,"Ġepisode":1033,"til":1034,"Ġnear":1035,"Ġob":1036,"ĠInd":1037,"Ġhist":1038,"Ġpol":1039,"Ġdescrib":1040,"led":1041,"Ġbel":1042,"emb":1043,"ued":1044,"Ġrece":1045,"ople":1046,"iam":1047,"une":1048,"Ġalong":1049,"Ġrun":1050,"ins":1051,"Ġter":1052,"imes":1053,"ments":1054,"Ġdep":1055,"Ġbro":1056,"ccess":1057,"Ġsaid":1058,"ley":1059,"ĠWh":1060,"Ġfeat":1061,"ĠAmerican":1062,"Ġdown":1063,"ven":1064,"ĠIs":1065,"Ġinst":1066,"Ġthese":1067,"aking":1068,"ĠMay":1069,"der":1070,"Ġmil":1071,"Ġdist":1072,"ĠAust":1073,"Ġthough":1074,"gest":1075,"ĠGer":1076,"ross":1077,"Ġdisc":1078,"yl":1079,"ĠBritish":1080,"Ġoper":1081,"Ġuntil":1082,"ĠZ":1083,"ove":1084,"ting":1085,"oot":1086,"Ġstart":1087,"anc":1088,"Ġcity":1089,"Ġsame":1090,"rap":1091,"Ġinf":1092,"ured":1093,"Ġprev":1094,"Ġreleased":1095,"els":1096,"Ġgener":1097,"ty":1098,"ange":1099,"Ġexp":1100,"Ġown":1101,"ized":1102,"Ġany":1103,"Ġreturn":1104,"tend":1105,"amed":1106,"ĠThey":1107,"ially":1108,"ĠWar":1109,"Ġkm":1110,"ided":1111,"Ġland":1112,"Ġdesign":1113,"Ġwar":1114,"Ġrep":1115,"Ġmusic":1116,"Ġprov":1117,"Ġimp":1118,"Ġmillion":1119,"Ġbecause":1120,"Ġarea":1121,"Ġuse":1122,"ajor":1123,"ĠCon":1124,"Ġcar":1125,"Ġfam":1126,"Ġair":1127,"az":1128,"ĠAug":1129,"ĠAugust":1130,"oman":1131,"Ġlike":1132,"Ġopen":1133,"Ġsuccess":1134,"Ġmat":1135,"osed":1136,"Ġsim":1137,"ĠFr":1138,"ĠChr":1139,"Ġocc":1140,"erson":1141,"ink":1142,"ep":1143,"enn":1144,"Ġconst":1145,"ook":1146,"Ġpeople":1147,"ull":1148,"Ġeff":1149,"hy":1150,"ium":1151,"Ġins":1152,"Ġpass":1153,"chool":1154,"Ġoffic":1155,"stem":1156,"ible":1157,"xt":1158,"Ġsix":1159,"Ġcount":1160,"Ġ195":1161,"Ġsupport":1162,"ĠBl":1163,"ĠBe":1164,"Ġaround":1165,"my":1166,"ĠHowever":1167,"Ġsmall":1168,"ah":1169,"Ġwin":1170,"Ġ%":1171,"ĠSept":1172,"uc":1173,"Ġnorth":1174,"Ġadv":1175,"Ġdam":1176,"Ġgroup":1177,"Ġstr":1178,"ĠCar":1179,"Ġpoin":1180,"Ġeach":1181,"ĠSeptember":1182,"ues":1183,"ony":1184,"Ġconsid":1185,"Ġmet":1186,"ouse":1187,"Ġfollowing":1188,"ĠPl":1189,"Ġcharacter":1190,"ĠJu":1191,"erv":1192,"ists":1193,"wards":1194,"ĠWorld":1195,"Ġlife":1196,"ms":1197,"Ġed":1198,"ĠAustral":1199,"Ġhead":1200,"Ġ13":1201,"aining":1202,"Ġfive":1203,"Ġmod":1204,"Ġcontro":1205,"Ġgovern":1206,"Ġattack":1207,"ole":1208,"Ġ193":1209,"ording":1210,"ĠComm":1211,"ient":1212,"ales":1213,"Ġvar":1214,"oss":1215,"uth":1216,"ĠAll":1217,"Ġwill":1218,"ĠTe":1219,"Ġlarge":1220,"Ġever":1221,"ution":1222,"ets":1223,"Ġ191":1224,"ĠII":1225,"ĠHer":1226,"Ġgu":1227,"ĠCol":1228,"Ġann":1229,"Ġreport":1230,"row":1231,"Ġconc":1232,"ague":1233,"ural":1234,"ĠUS":1235,"ĠMe":1236,"ĠCl":1237,"rote":1238,"lish":1239,"ĠJune":1240,"Ġbook":1241,"ĠNorth":1242,"aving":1243,"aced":1244,"ĠEu":1245,"ash":1246,"ĠFor":1247,"Ġtit":1248,"ĠGerman":1249,"dom":1250,"Ġsince":1251,"ĠStates":1252,"ik":1253,"Ġprom":1254,"Ġsouth":1255,"Ġreceived":1256,"Ġmajor":1257,"Ġfinal":1258,"ilt":1259,"med":1260,"ped":1261,"Ġname":1262,"ately":1263,"ivision":1264,"ĠJan":1265,"ĠAd":1266,"pect":1267,"ĠOct":1268,"Ġpartic":1269,"Ġsystem":1270,"ĠSouth":1271,"Ġpublic":1272,"Ġcare":1273,"Ġstate":1274,"Ġdr":1275,"ĠChrist":1276,"Ġwhat":1277,"ĠKing":1278,"ives":1279,"Ġdirect":1280,"uary":1281,"Ġlast":1282,"Ġhel":1283,"Ġdescribed":1284,"tle":1285,"hel":1286,"Ġext":1287,"ĠOctober":1288,"ored":1289,"Ġ14":1290,"Ġline":1291,"Ġ$":1292,"Ġappear":1293,"Ġrest":1294,"ĠCan":1295,"Ġbatt":1296,"Ġweek":1297,"Ġplayed":1298,"cess":1299,"Ġclass":1300,"Ġbuild":1301,"Ġincre":1302,"Ġtook":1303,"ropical":1304,"Ġnow":1305,"ĠFe":1306,"ĠNov":1307,"arl":1308,"Ġ[":1309,"Ġ]":1310,"ĠYork":1311,"gin":1312,"Ġworld":1313,"aged":1314,"ĠJuly":1315,"Ġwrote":1316,"Ġlate":1317,"ages":1318,"..":1319,"ĠTr":1320,"iving":1321,"empt":1322,"Ã©":1323,"ional":1324,"ble":1325,"Ġwon":1326,"Ġspecies":1327,"ology":1328,"ideo":1329,"Ġstru":1330,"aim":1331,"Ġchild":1332,"Ġ...":1333,"Ġmuch":1334,"Ġ25":1335,"ĠDuring":1336,"Ġdue":1337,"ody":1338,"ified":1339,"Ġserv":1340,"ĠApr":1341,"Ġsingle":1342,"ĠApril":1343,"Ġcamp":1344,"Ġallow":1345,"ats":1346,"iod":1347,"min":1348,"ĠGu":1349,"Ġshort":1350,"Ġport":1351,"Ġdeath":1352,"Ġvers":1353,"Ġjust":1354,"ball":1355,"Ġty":1356,"Ġmar":1357,"Ġanother":1358,"Ġincluded":1359,"ĠEuro":1360,"Ġposs":1361,"ĠJanuary":1362,"Ġold":1363,"ility":1364,"ively":1365,"Ġstorm":1366,"get":1367,"Ġeven":1368,"Ġdiffer":1369,"Ġgun":1370,"Ġwithin":1371,"ĠEngland":1372,"Ġlist":1373,"ission":1374,"Ġleft":1375,"Ġresult":1376,"ism":1377,"omin":1378,"Ġposition":1379,"Ġnamed":1380,"Ġbased":1381,"Ġestab":1382,"Ġif":1383,"Ġconf":1384,"ants":1385,"Ġarr":1386,"Ġalthough":1387,"Ġvis":1388,"Ġprog":1389,"Ġattempt":1390,"ax":1391,"ont":1392,"Ġ30":1393,"Ġvery":1394,"Ġappro":1395,"ina":1396,"Ġthird":1397,"Ġgames":1398,"by":1399,"ital":1400,"Ġtop":1401,"Ġref":1402,"ĠAnd":1403,"akes":1404,"Ġbelie":1405,"Ġtrack":1406,"ctions":1407,"ĠMarch":1408,"ner":1409,"ple":1410,"Ġlit":1411,"ĠGr":1412,"Ġprevious":1413,"Ġfamily":1414,"ĠMus":1415,"ĠPro":1416,"ĠNovember":1417,"Ġpower":1418,"Ġtri":1419,"Ġreview":1420,"Ġperiod":1421,"Ġevent":1422,"ĠQ":1423,"Ġbest":1424,"Ġhome":1425,"ĠGe":1426,"mber":1427,"Ġway":1428,"ilar":1429,"urric":1430,"Ġschool":1431,"Ġresp":1432,"ĠRo":1433,"ĠEurope":1434,"Ġwater":1435,"ĠHis":1436,"Ġgovernment":1437,"ances":1438,"ograp":1439,"ently":1440,"cember":1441,"Ġexpl":1442,"ĠDecember":1443,"Ġ192":1444,"Ġmen":1445,"ret":1446,"Ġthose":1447,"avy":1448,"raft":1449,"ĠThere":1450,"ĠBy":1451,"ger":1452,"Ġturn":1453,"Ġconstru":1454,"ience":1455,"Ġhum":1456,"Ġplace":1457,"ĠCity":1458,"ulation":1459,"Ġorgan":1460,"Ġsl":1461,"Ġbuilt":1462,"ature":1463,"Ġbre":1464,"pend":1465,"ards":1466,"urther":1467,"Ġgreat":1468,"ians":1469,"ides":1470,"Ġstory":1471,"Ġprote":1472,"Ġcommand":1473,"ached":1474,"Ġkill":1475,"Ġmonth":1476,"ĠWhen":1477,"Ġcolle":1478,"ched":1479,"hest":1480,"Ġsent":1481,"Ġperson":1482,"Ġoriginal":1483,"ript":1484,"iversity":1485,"itary":1486,"Ġmake":1487,"Ġhand":1488,"Ġopp":1489,"eder":1490,"Ġ100":1491,"Ġ2009":1492,"Ġ2010":1493,"Ġmed":1494,"Ġvideo":1495,"ĠNational":1496,"ĠÂ":1497,"Ġ2008":1498,"Ġauth":1499,"Ġrequ":1500,"Ġhal":1501,"ention":1502,"Ġpresent":1503,"oci":1504,"aur":1505,"por":1506,"Ġmark":1507,"Ġph":1508,"Ġsug":1509,"ham":1510,"Ġclub":1511,"Ġeng":1512,"ences":1513,"riend":1514,"iven":1515,"aster":1516,"elt":1517,"ene":1518,"Ġview":1519,"ĠMc":1520,"ically":1521,"self":1522,"ĠRiver":1523,"Ġmoved":1524,"Ġled":1525,"Ġrole":1526,"Ġaddition":1527,"Ġcapt":1528,"Ġstand":1529,"Ġstill":1530,"Ġcame":1531,"Ġleg":1532,"Ġlocal":1533,"Ġiss":1534,"Ġrepl":1535,"rench":1536,"gy":1537,"ense":1538,"ĠPr":1539,"aff":1540,"Ġoften":1541,"Ġhistory":1542,"urricane":1543,"Ġcommon":1544,"Ġcaus":1545,"Ġdest":1546,"ival":1547,"ĠWe":1548,"Ġcour":1549,"ae":1550,"ison":1551,"ĠMan":1552,"Ġdem":1553,"aken":1554,"Ġeffect":1555,"ery":1556,"Ġfew":1557,"be":1558,"ĠBo":1559,"ady":1560,"ĠNo":1561,"ops":1562,"Ġ2007":1563,"Ġnext":1564,"Ġconsidered":1565,"ĠFl":1566,"Ġtrad":1567,"ories":1568,"eng":1569,"Ġplayer":1570,"Ġsuggest":1571,"ling":1572,"lev":1573,"Ġstar":1574,"astern":1575,"ĠSp":1576,"ĠFrench":1577,"Ġexper":1578,"side":1579,"Ġmy":1580,"Ġsimilar":1581,"Ġcareer":1582,"ĠOne":1583,"Ġrecorded":1584,"ĠEnglish":1585,"Ġside":1586,"uss":1587,"Ġright":1588,"ĠPe":1589,"ined":1590,"Ġcr":1591,"Ġinit":1592,"let":1593,"Ġimport":1594,"Ġreal":1595,"ĠOr":1596,"Ġclaim":1597,"que":1598,"ĠBatt":1599,"Ġcompany":1600,"ai":1601,"Ġcover":1602,"Ġpublished":1603,"ĠBro":1604,"Ġdeb":1605,"Ġcontinued":1606,"Ġcontr":1607,"rew":1608,"arn":1609,"idge":1610,"Ġrefer":1611,"Ġyou":1612,"Ġtake":1613,"Ġbas":1614,"Ġwithout":1615,"Ġsold":1616,"Ġmid":1617,"ĠPh":1618,"ternational":1619,"Ġsongs":1620,"Ġdifferent":1621,"Ġsay":1622,"Ġtown":1623,"Ġformer":1624,"ĠWith":1625,"Ġant":1626,"ior":1627,"Ġwind":1628,"Ġheld":1629,"ĠComp":1630,"atter":1631,"ister":1632,"uted":1633,"ĠAcc":1634,"Ġamong":1635,"ness":1636,"Ġmemb":1637,"Ġlevel":1638,"lu":1639,"Ġtot":1640,"Ġarch":1641,"Ġroad":1642,"Ġtem":1643,"Ġpolit":1644,"Ġfield":1645,"ged":1646,"Ġwritten":1647,"arch":1648,"thing":1649,"ĠState":1650,"bs":1651,"Ġplan":1652,"Ġevery":1653,"ps":1654,"Ġes":1655,"ĠPort":1656,"Ġhalf":1657,"alk":1658,"Ġ21":1659,"ĠDivision":1660,"ampions":1661,"Ġtw":1662,"Ġ2011":1663,"Ġrelease":1664,"resent":1665,"ves":1666,"estern":1667,"iment":1668,"ĠWill":1669,"ead":1670,"Ġbecome":1671,"Ġav":1672,"Ġfurther":1673,"Ġmag":1674,"Ġ2006":1675,"Ġcommun":1676,"tended":1677,"ĠAccording":1678,"ĠAlthough":1679,"ensive":1680,"Ġwest":1681,"Ġhowever":1682,"Ġchurch":1683,"Ġ23":1684,"Ġdays":1685,"Ġstrong":1686,"ĠCanad":1687,"yle":1688,"itar":1689,"Ġeast":1690,"Ġfind":1691,"Ġversion":1692,"roy":1693,"lear":1694,"Ġjoin":1695,"ung":1696,"br":1697,"bru":1698,"Ġ&":1699,"ott":1700,"ried":1701,"ĠChurch":1702,"Ġcompet":1703,"Ġtitle":1704,"ĠCount":1705,"Ġparticular":1706,"ne":1707,"pite":1708,"mp":1709,"Ġlow":1710,"Ġmilitary":1711,"Ġpar":1712,"Ġdel":1713,"par":1714,"Ġbeh":1715,"rodu":1716,"ĠRoman":1717,"Ġorder":1718,"ĠLeague":1719,"Ġauthor":1720,"Ġprop":1721,"ĠMin":1722,"Ġdefe":1723,"Ġcontrol":1724,"Ġfoot":1725,"aly":1726,"outher":1727,"ĠSong":1728,"ĠFebru":1729,"outhern":1730,"ĠFebruary":1731,"ĠPer":1732,"ĠGener":1733,"Ġtimes":1734,"fric":1735,"Ġgave":1736,"Ġ22":1737,"Ġless":1738,"Ġ!":1739,"Ġsit":1740,"Ġ26":1741,"Ġreported":1742,"Ġmembers":1743,"Ġfr":1744,"Ġband":1745,"ĠDyl":1746,"Ġvict":1747,"raw":1748,"ĠDylan":1749,"Ġ24":1750,"ots":1751,"Ġchang":1752,"ĠGeor":1753,"Ġfore":1754,"ĠAb":1755,"Ġnort":1756,"Ġproduced":1757,"ches":1758,"Ġ2012":1759,"levision":1760,"Ġprof":1761,"Ġel":1762,"Ġtotal":1763,"augh":1764,"ices":1765,"ĠPark":1766,"ĠOld":1767,"ailed":1768,"ering":1769,"urs":1770,"Ġstat":1771,"ĠWest":1772,"line":1773,"aces":1774,"Ġproduction":1775,"Ġpopular":1776,"iety":1777,"Ġfre":1778,"Ġdecl":1779,"ception":1780,"Ġtropical":1781,"ĠBar":1782,"Ġnov":1783,"ront":1784,"hern":1785,"oung":1786,"Ġproject":1787,"Ġsol":1788,"Ġforces":1789,"ĠJap":1790,"itions":1791,"Ġpoint":1792,"Ġchildren":1793,"ĠJapan":1794,"Ġcur":1795,"Ġcult":1796,"Ġhaving":1797,"ĠPar":1798,"Ġinclude":1799,"reen":1800,"Ġcritic":1801,"Ġobs":1802,"Ġhistor":1803,"pec":1804,"ler":1805,"Ġ28":1806,"Ġinvol":1807,"ĠX":1808,"alion":1809,"Ġlost":1810,"Ġinflu":1811,"Ġgiven":1812,"Ġwant":1813,"ĠAss":1814,"inc":1815,"ression":1816,"Ġcountry":1817,"sh":1818,"Ġtro":1819,"Ġfire":1820,"Ġsignific":1821,"Ġrepresent":1822,"Ġmanag":1823,"ape":1824,"omen":1825,"ize":1826,"Ġ2013":1827,"ĠSim":1828,"chn":1829,"Ġsite":1830,"omet":1831,"Ġseen":1832,"osp":1833,"Ġeight":1834,"ĠDes":1835,"Ġprogram":1836,"Ġmaking":1837,"ĠAm":1838,"vers":1839,"Ġnever":1840,"Ġfar":1841,"ĠMiss":1842,"Ġstated":1843,"Ġestabl":1844,"Ġpress":1845,"Ġdet":1846,"ĠAfric":1847,"Ġcomb":1848,"ĠEd":1849,"ĠGeneral":1850,"Ġbody":1851,"Ġshould":1852,"Ġaff":1853,"ĠCent":1854,"ĠWhile":1855,"Ġmatch":1856,"ither":1857,"Ġfact":1858,"ploy":1859,"Ġreturned":1860,"reet":1861,"ising":1862,"Ġpat":1863,"ĠDav":1864,"ĠUniversity":1865,"rent":1866,"craft":1867,"Ġfem":1868,"enc":1869,"Ġord":1870,"Ġft":1871,"Ġpost":1872,"ĠPol":1873,"ours":1874,"ĠThese":1875,"Ġ190":1876,"ĠAmerica":1877,"ĠEar":1878,"Ġships":1879,"Ġestablished":1880,"Ġsound":1881,"Ġhow":1882,"Ġisland":1883,"sequ":1884,"Ġearl":1885,"ampionship":1886,"Ġpopulation":1887,"Ġannoun":1888,"Ġreached":1889,"Ġequ":1890,"ĠSte":1891,"Ġstruct":1892,"ĠJack":1893,"Ġchart":1894,"Ġ50":1895,"Ġaway":1896,"reland":1897,"Ġsoc":1898,"ades":1899,"ĠIreland":1900,"ably":1901,"Ġnoted":1902,"ĠAir":1903,"igade":1904,"ĠHa":1905,"Ġtoo":1906,"play":1907,"aul":1908,"ope":1909,"Ġfriend":1910,"Ġgod":1911,"Ġground":1912,"Ġthroughout":1913,"Ġacross":1914,"Ġdeveloped":1915,"Ġthought":1916,"Ġlight":1917,"ĠEv":1918,"fic":1919,"ox":1920,"Ġseven":1921,"me":1922,"Ġgen":1923,"Ġ27":1924,"ĠLond":1925,"Ġintrodu":1926,"ĠLondon":1927,"Ġdiv":1928,"Ġusing":1929,"Ġhimself":1930,"ground":1931,"Ġdevelopment":1932,"ĠNe":1933,"ĠWilliam":1934,"Ġgood":1935,"Ġdestroy":1936,"Ġla":1937,"ĠFeder":1938,"ford":1939,"Ġhig":1940,"Ġlim":1941,"aint":1942,"ument":1943,"most":1944,"Ġfelt":1945,"ese":1946,"ĠMich":1947,"Ġsignificant":1948,"used":1949,"reek":1950,"ĠAustralia":1951,"yn":1952,"idence":1953,"ctor":1954,"ological":1955,"Ġperformed":1956,"Ġimportant":1957,"au":1958,"Ġcast":1959,"work":1960,"Ġpra":1961,"amb":1962,"Ġwriting":1963,"ĠAtl":1964,"Ġmiles":1965,"Ġcou":1966,"Ġfather":1967,"arr":1968,"ords":1969,"Ġtelevision":1970,"oon":1971,"Ġide":1972,"int":1973,"ream":1974,"Ġinterest":1975,"ĠBlack":1976,"Ġvarious":1977,"atic":1978,"ivil":1979,"Ġareas":1980,"Ġhuman":1981,"imately":1982,"Ġtour":1983,"Ġnight":1984,"Ġblack":1985,"ones":1986,"Ġfull":1987,"Ġdied":1988,"Ġtyp":1989,"Ġwent":1990,"Ġlook":1991,"utes":1992,"Ġprot":1993,"Ġwat":1994,"Ġwhite":1995,"ĠRich":1996,"Ġrad":1997,"ĠChar":1998,"aren":1999,"Ġactiv":2000,"Ġdoes":2001,"Ġsuccessful":2002,"aign":2003,"ĠRober":2004,"Ġevents":2005,"Ġneed":2006,"ĠReg":2007,"Ġsk":2008,"Ġlaw":2009,"ief":2010,"ĠRoad":2011,"Ġplayers":2012,"Ġstarted":2013,"ges":2014,"ĠRoy":2015,"ĠJames":2016,"Ġmodern":2017,"Ġten":2018,"ask":2019,"Ġmm":2020,"Ġdiscover":2021,"Ġsee":2022,"Ġfeet":2023,"Ġformed":2024,"Ġcor":2025,"itive":2026,"Ġpoem":2027,"tain":2028,"Ġrange":2029,"antic":2030,"Ġconv":2031,"Ġperformance":2032,"ĠCounty":2033,"Ġmix":2034,"Ġhouse":2035,"Ġstyle":2036,"rick":2037,"Ġrelations":2038,"Ġbuilding":2039,"Ġball":2040,"Ġcaused":2041,"Ġcat":2042,"Ġforce":2043,"na":2044,"Ġage":2045,"Ġread":2046,"Ġprim":2047,"Ġput":2048,"ald":2049,"ster":2050,"ration":2051,"ĠEl":2052,"Ġvill":2053,"Ġtrav":2054,"Ġtechn":2055,"ĠYou":2056,"Ġcy":2057,"alth":2058,"Ġcreated":2059,"af":2060,"ael":2061,"ico":2062,"ĠPal":2063,"Ġ189":2064,"Ġofficial":2065,"Ġnovel":2066,"con":2067,"Ġ2004":2068,"Ġsuff":2069,"Ġ2005":2070,"ublic":2071,"Ġentire":2072,"isc":2073,"ĠTo":2074,"ush":2075,"Ġke":2076,"ogn":2077,"Ġable":2078,"Ġpolitical":2079,"ec":2080,"Ġfun":2081,"ourn":2082,"Ġcharacters":2083,"Ġsum":2084,"Ġget":2085,"Ġothers":2086,"Ġrelig":2087,"Ġcoast":2088,"ĠMag":2089,"ĠHigh":2090,"Ġconstruction":2091,"omb":2092,"Ġbird":2093,"Ġbegin":2094,"aves":2095,"abor":2096,"iness":2097,"oll":2098,"Ġoccur":2099,"ring":2100,"Ġson":2101,"Ġpit":2102,"Ġpri":2103,"epend":2104,"Ġcert":2105,"ĠTown":2106,"ĠâĢĻ":2107,"day":2108,"ying":2109,"Ġred":2110,"ĠGl":2111,"ressed":2112,"Ġonce":2113,"ample":2114,"Ġremained":2115,"ĠAng":2116,"Ġlocated":2117,"ination":2118,"rest":2119,"iting":2120,"asing":2121,"ĠCare":2122,"Ġste":2123,"isted":2124,"Ġbecom":2125,"Ġsurv":2126,"Ġpromot":2127,"Ġbattle":2128,"fall":2129,"Ġlik":2130,"Ġnational":2131,"ĠCor":2132,"Ġscored":2133,"Ġworks":2134,"Ġdiffic":2135,"ĠKingdom":2136,"Ġdifficult":2137,"ĠHist":2138,"ected":2139,"Ġproduc":2140,"Ġmeet":2141,"Ġcompleted":2142,"ĠIsland":2143,"ĠAustralian":2144,"Ġcampaign":2145,"Ġtradition":2146,"Ġannounced":2147,"ĠSom":2148,"ĠCal":2149,"Ġrank":2150,"ĠSec":2151,"uck":2152,"Ġstars":2153,"Ġregion":2154,"ator":2155,"Ġfig":2156,"Ġhold":2157,"Ġrock":2158,"Ġguns":2159,"ĠCup":2160,"ĠMor":2161,"ĠCompany":2162,"iers":2163,"rie":2164,"Ġprocess":2165,"Ġlittle":2166,"hem":2167,"Ġfav":2168,"Ġfight":2169,"ĠRec":2170,"Ġhighway":2171,"Ġgoal":2172,"Ġinstead":2173,"Ġhelp":2174,"Ġtre":2175,"ivid":2176,"irc":2177,"Ġpred":2178,"ĠCro":2179,"Ġval":2180,"Ġgrow":2181,"Ġadded":2182,"itted":2183,"ament":2184,"Ġgl":2185,"rought":2186,"Ġcross":2187,"ĠOl":2188,"Ġlet":2189,"Ġleast":2190,"Ġfollowed":2191,"Ġfac":2192,"Ġfront":2193,"Ġredu":2194,"ounc":2195,"Ġ31":2196,"Ġpeak":2197,"Ġappeared":2198,"Ġborn":2199,"Ġrev":2200,"quad":2201,"ĠKe":2202,"Ġknow":2203,"Ġkilled":2204,"leet":2205,"Ġoriginally":2206,"Ġmonths":2207,"Ġer":2208,"reg":2209,"Ġwife":2210,"Ġcomment":2211,"elling":2212,"ĠArmy":2213,"Ġsouthern":2214,"orse":2215,"ĠDavid":2216,"oice":2217,"Ġcas":2218,"Ġloss":2219,"ĠBill":2220,"ĠGrand":2221,"Ġfif":2222,"enced":2223,"ality":2224,"Ġhurricane":2225,"enth":2226,"Ġnuc":2227,"ĠHam":2228,"ries":2229,"Ġwomen":2230,"Ġassoci":2231,"Ġident":2232,"Ġeastern":2233,"Ġagre":2234,"ĠMusic":2235,"bo":2236,"Ġ29":2237,"angu":2238,"Ġrelationship":2239,"Ã¡":2240,"ÃŃ":2241,"Ġmass":2242,"Ġ2003":2243,"Ġcritics":2244,"off":2245,"Ġmother":2246,"ĠSome":2247,"Ġaccom":2248,"ĠFrance":2249,"Ġeventually":2250,"Ġaward":2251,"ĠSup":2252,"acy":2253,"Ġ40":2254,"Ġ185":2255,"Ġfeatures":2256,"gr":2257,"Ġbus":2258,"lect":2259,"idd":2260,"ĠOther":2261,"Ġ2015":2262,"field":2263,"Ġlive":2264,"Ġbroad":2265,"com":2266,"Ġaud":2267,"Ġcond":2268,"Ġanim":2269,"Ġyoung":2270,"ray":2271,"Ġtaken":2272,"Ġcell":2273,"Ġstri":2274,"app":2275,"Ġroute":2276,"Ġrecogn":2277,"Ġappoin":2278,"Ġfourth":2279,"ĠTwo":2280,"Ġserved":2281,"here":2282,"Ġbar":2283,"ully":2284,"ĠEx":2285,"Äģ":2286,"ota":2287,"emy":2288,"Ġestim":2289,"Ġdamage":2290,"Ġprofess":2291,"Ġlack":2292,"Ġheavy":2293,"antry":2294,"arliam":2295,"ique":2296,"inal":2297,"Ġsw":2298,"Ġbase":2299,"Ġeither":2300,"Ġsex":2301,"Ġdecided":2302,"ĠBattalion":2303,"Ġaver":2304,"osaur":2305,"ĠLove":2306,"Ġproble":2307,"Ġvoc":2308,"ĠSw":2309,"olution":2310,"Ġcondom":2311,"Ġcommer":2312,"Ġbehind":2313,"Ġtoget":2314,"aper":2315,"azine":2316,"Ġbelieved":2317,"Ġtogether":2318,"Ġmor":2319,"Ġsepar":2320,"ĠRobert":2321,"chie":2322,"Ġsuper":2323,"Ġarg":2324,"ille":2325,"ĠGod":2326,"ought":2327,"Ġplaying":2328,"ountain":2329,"Ġindivid":2330,"ĠCarey":2331,"arliament":2332,"Ġve":2333,"Ġimpro":2334,"igned":2335,"ization":2336,"lo":2337,"Ġcreat":2338,"Ġexample":2339,"Ġspecial":2340,"ĠRoyal":2341,"ouncil":2342,"ĠMon":2343,"Ġalmost":2344,"Ġclos":2345,"Ġclose":2346,"Ġ188":2347,"Ġmove":2348,"Ġaccept":2349,"ements":2350,"Ġquar":2351,"Ġleading":2352,"hys":2353,"ĠMex":2354,"ĠEuropean":2355,"cial":2356,"mar":2357,"Ġburn":2358,"Ġlangu":2359,"Ġask":2360,"Ġgenerally":2361,"Ġservice":2362,"ĠFederer":2363,"Ġtowards":2364,"Ġmater":2365,"Ġround":2366,"aching":2367,"Ġelements":2368,"Ġopened":2369,"Ġfall":2370,"Ġhy":2371,"Ġarm":2372,"Ġsour":2373,"Ġbrought":2374,"Ġdou":2375,"ĠSer":2376,"urb":2377,"ĠBer":2378,"ĠBrigade":2379,"Ġweeks":2380,"Ġmiss":2381,"Ġnon":2382,"ĠInternational":2383,"Ġfinished":2384,"iction":2385,"Ġce":2386,"Ġcirc":2387,"ĠCr":2388,"ĠIr":2389,"ĠWales":2390,"Ġra":2391,"illa":2392,"rict":2393,"Ġlaun":2394,"Ġsaw":2395,"icated":2396,"ceed":2397,"Ġstudy":2398,"Ġfeatured":2399,"Ġhost":2400,"ĠViet":2401,"Ġrespect":2402,"Ġaircraft":2403,"iation":2404,"Ġregular":2405,"ĠFlor":2406,"Ġdraw":2407,"ida":2408,"Ġenc":2409,"iron":2410,"ests":2411,"Ġvol":2412,"ĠWhite":2413,"Ġgeneral":2414,"Ġpoints":2415,"ned":2416,"read":2417,"Ġrese":2418,"ston":2419,"ĠHen":2420,"etwork":2421,"ĠPart":2422,"ways":2423,"Ġelect":2424,"Ġdirected":2425,"uter":2426,"ze":2427,"ounted":2428,"ĠChampionship":2429,"Ġcentral":2430,"Ġprovided":2431,"hic":2432,"Ġaction":2433,"ordan":2434,"Ġmeas":2435,"val":2436,"Ġfund":2437,"Ġinform":2438,"ĠAct":2439,"ĠSy":2440,"ĠHar":2441,"Ġ35":2442,"Ġupon":2443,"ĠPlay":2444,"Ġdirector":2445,"ography":2446,"iol":2447,"Ġwall":2448,"ĠGame":2449,"Ġmean":2450,"Ġappearance":2451,"eum":2452,"Ġwid":2453,"ĠFollow":2454,"ĠJordan":2455,"umb":2456,"ĠEast":2457,"Ġ186":2458,"Ġcoll":2459,"Ġearlier":2460,"Ġmi":2461,"ĠFrom":2462,"odes":2463,"Ġyard":2464,"ĠThom":2465,"ency":2466,"ĠPres":2467,"Ġsequ":2468,"Ġrather":2469,"Ġking":2470,"Ġ2014":2471,"Ġflood":2472,"Ġfemale":2473,"ĠAtlantic":2474,"bit":2475,"ino":2476,"irl":2477,"Ġindust":2478,"medi":2479,"Ġcurrent":2480,"Ġtroops":2481,"Ġlargest":2482,"Ġvictory":2483,"ĠFollowing":2484,"oring":2485,"Ġren":2486,"Ġreve":2487,"ĠJew":2488,"Ġdev":2489,"Ġsubsequ":2490,"Ġemploy":2491,"Ġoperations":2492,"ĠChristian":2493,"Ġparticularly":2494,"ĠGeorge":2495,"Ġmanager":2496,"ming":2497,"Ġachie":2498,"Ġcost":2499,"ĠMad":2500,"ĠHouse":2501,"ĠDay":2502,"ĠHero":2503,"cher":2504,"oid":2505,"ĠMary":2506,"ude":2507,"ĠRep":2508,"Ġopening":2509,"Ġwanted":2510,"stit":2511,"Ġbeg":2512,"ĠDu":2513,"Ġcondu":2514,"mb":2515,"eler":2516,"ĠRed":2517,"orts":2518,"Ġyards":2519,"Ġevidence":2520,"iber":2521,"Ġcut":2522,"Ġreason":2523,"ouri":2524,"Ġriver":2525,"Ġprob":2526,"Ġexc":2527,"ounter":2528,"ĠCommand":2529,"Ġnorthern":2530,"ĠFlorida":2531,"Ġmember":2532,"Ġstage":2533,"Ġinsp":2534,"cast":2535,"Ġleng":2536,"ĠRock":2537,"ĠStreet":2538,"Ġ500":2539,"Ġoutside":2540,"Ġcrew":2541,"Ġallowed":2542,"Ġpossible":2543,"Ġengine":2544,"oo":2545,"Ġfoc":2546,"Ġbi":2547,"Ġstren":2548,"action":2549,"Ġsaying":2550,"sel":2551,"Ġill":2552,"ĠMed":2553,"ellow":2554,"ĠOliv":2555,"cript":2556,"erous":2557,"atural":2558,"ania":2559,"Ġhit":2560,"Ġhours":2561,"Ġwhom":2562,"west":2563,"Ġcase":2564,"anch":2565,"ential":2566,"Ġnomin":2567,"conom":2568,"ators":2569,"Ġfort":2570,"Ġdeter":2571,"Ġexist":2572,"Ġ2001":2573,"Ġworked":2574,"Ġregard":2575,"ĠMissouri":2576,"alt":2577,"ĠMost":2578,"ĠOd":2579,"Ġpract":2580,"Ġstreng":2581,"eal":2582,"atin":2583,"Ġmot":2584,"ama":2585,"ĠBra":2586,"Ġworking":2587,"Ġterrit":2588,"Ġrespons":2589,"Ġlength":2590,"cent":2591,"nder":2592,"ĠMy":2593,"Ġnews":2594,"Ġreb":2595,"osition":2596,"ĠGal":2597,"artment":2598,"Ġdefend":2599,"board":2600,"Ġmaterial":2601,"ata":2602,"Ġbur":2603,"Ġmach":2604,"Ġgold":2605,"Ġpoor":2606,"Ġdesigned":2607,"Ġfree":2608,"Ġlove":2609,"ĠBay":2610,"ĠPaul":2611,"Ġseem":2612,"ump":2613,"Ġrul":2614,"Ġneg":2615,"ĠTech":2616,"thod":2617,"Ġstay":2618,"ĠWal":2619,"anding":2620,"Ġpraised":2621,"uel":2622,"ĠCo":2623,"ĠMark":2624,"Ġforced":2625,"ĠFirst":2626,"ights":2627,"ishing":2628,"Ġremains":2629,"ĠIndian":2630,"Ġavail":2631,"Ġfootball":2632,"ores":2633,"ĠBest":2634,"Ġ187":2635,"Ġ1970":2636,"ĠPhil":2637,"Ġbill":2638,"ana":2639,"Ġthink":2640,"Ġstation":2641,"Ġwinds":2642,"ĠMichael":2643,"less":2644,"Ġtreat":2645,"Ġcop":2646,"ĠWil":2647,"Ġquick":2648,"Ġgoals":2649,"Ġincreased":2650,"Ġcontract":2651,"heast":2652,"ened":2653,"Ġpast":2654,"Ġdi":2655,"aps":2656,"Ġpreviously":2657,"ĠÂ£":2658,"ius":2659,"vest":2660,"ica":2661,"Ġgre":2662,"ago":2663,"ĠEgy":2664,"Ġabove":2665,"Ġreplaced":2666,"ĠEgypt":2667,"gg":2668,"ule":2669,"xas":2670,"ĠCap":2671,"ĠBut":2672,"vert":2673,"Ġsoon":2674,"Ġinvest":2675,"ĠRichard":2676,"Ġcivil":2677,"Ġly":2678,"ĠBus":2679,"Ġviol":2680,"ĠDespite":2681,"Ġbusiness":2682,"Ġhon":2683,"Ġinterview":2684,"Ġmer":2685,"Ġthreat":2686,"ession":2687,"Ġ2000":2688,"ributed":2689,"Ġwriter":2690,"ĠÂ°":2691,"Ġcommercial":2692,"ĠHenry":2693,"erved":2694,"asion":2695,"Ġmph":2696,"irth":2697,"ĠHill":2698,"Ġunits":2699,"hens":2700,"ĠCanada":2701,"Ġestimated":2702,"Ġclear":2703,"ara":2704,"ĠSan":2705,"Ġ1990":2706,"Ġaccount":2707,"anned":2708,"ĠQue":2709,"Ġesc":2710,"Ġquarter":2711,"Ġsomet":2712,"Ġpain":2713,"ĠKh":2714,"Ġclaimed":2715,"Ġjoined":2716,"ĠJapanese":2717,"Ġhighest":2718,"uation":2719,"Ġtrib":2720,"utive":2721,"Ġplaced":2722,"Ġspecific":2723,"Ġsurf":2724,"ĠBrown":2725,"ĠOldham":2726,"Ġinvolved":2727,"wh":2728,"ye":2729,"Ġz":2730,"Ġmust":2731,"ĠTimes":2732,"Ġlo":2733,"Ġsigned":2734,"Ġdiscuss":2735,"Ġsuggested":2736,"ĠPresident":2737,"ĠTor":2738,"ĠVir":2739,"Ġparts":2740,"ĠDep":2741,"Ġcourt":2742,"Ġwestern":2743,"oms":2744,"ett":2745,"Ġintens":2746,"Ġ183":2747,"ĠOlivier":2748,"BC":2749,"iter":2750,"Ġproper":2751,"Ġleague":2752,"clus":2753,"Ġitself":2754,"Ġpriv":2755,"ĠCarol":2756,"ĠVietn":2757,"lic":2758,"Ġpers":2759,"ĠDr":2760,"ĠWhe":2761,"ĠLater":2762,"istic":2763,"wood":2764,"Ġobject":2765,"ĠIndia":2766,"Ġaverage":2767,"ĠMexico":2768,"tt":2769,"Ġtaking":2770,"thlet":2771,"Ġchange":2772,"Ġshot":2773,"ĠArab":2774,"Ġavailable":2775,"ington":2776,"ĠSchool":2777,"olic":2778,"osing":2779,"ĠGovern":2780,"Ġcome":2781,"Ġscene":2782,"ĠMcC":2783,"Ġintroduced":2784,"Ġcycl":2785,"ving":2786,"Ġfly":2787,"ĠIm":2788,"Ġwhose":2789,"Ġrecording":2790,"Ġtransport":2791,"Ġterm":2792,"Ġvillage":2793,"now":2794,"ita":2795,"Ġinj":2796,"Ġhous":2797,"ĠCong":2798,"achel":2799,"Ġheav":2800,"ĠVal":2801,"Ġtransfer":2802,"Ġbrother":2803,"ĠThomas":2804,"bor":2805,"nes":2806,"ximately":2807,"ĠHall":2808,"ĠVar":2809,"Ġreligious":2810,"ĠIrish":2811,"ready":2812,"Ġpen":2813,"lected":2814,"Ġrace":2815,"quar":2816,"ibility":2817,"Ġbreak":2818,"porary":2819,"Ġtravel":2820,"AF":2821,"band":2822,"onst":2823,"Ġslow":2824,"Ġtold":2825,"Ġdon":2826,"Ġnetwork":2827,"acing":2828,"ĠPac":2829,"Ġ36":2830,"ĠBritain":2831,"Ġshows":2832,"Ġ1960":2833,"Ġdamaged":2834,"rated":2835,"Ġ-":2836,"Ġnames":2837,"ĠCard":2838,"Ġstop":2839,"ĠHel":2840,"Ġrail":2841,"pected":2842,"Ġexec":2843,"abit":2844,"Ġremov":2845,"Ġincreasing":2846,"Ġturned":2847,"ĠRepublic":2848,"Ġmult":2849,"Ġlines":2850,"Ġgive":2851,"ĠHurricane":2852,"ĠThat":2853,"Ġsubject":2854,"Ġnine":2855,"ĠMany":2856,"ĠGreat":2857,"Ġdespite":2858,"ĠScient":2859,"Ġnearly":2860,"ĠGuitar":2861,"Ġappointed":2862,"Ġsize":2863,"Ġpie":2864,"ĠSm":2865,"ĠNot":2866,"oney":2867,"Ġfeel":2868,"Ġcomplet":2869,"ĠZeal":2870,"Ġcommunity":2871,"Ġstructure":2872,"ĠZealand":2873,"Ġ?":2874,"Ġop":2875,"Ġphys":2876,"Ġdate":2877,"Ġhard":2878,"ĠSun":2879,"Ġeconom":2880,"elled":2881,"Ġdiss":2882,"Ġindepend":2883,"Ġsurround":2884,"Ġpassed":2885,"Ġeduc":2886,"ault":2887,"Ġinternational":2888,"Ġpur":2889,"ĠMac":2890,"iding":2891,"ĠNY":2892,"ĠGold":2893,"ruction":2894,"ĠUnion":2895,"ronic":2896,"Ġestablish":2897,"Ġliter":2898,"Ġinitially":2899,"pecially":2900,"Ġcertain":2901,"head":2902,"Ġwithd":2903,"Ġalready":2904,"Ġ184":2905,"Ġimmedi":2906,"Ġgrad":2907,"Ġgoing":2908,"Ġsocial":2909,"Ġfailed":2910,"Ġmight":2911,"ĠAc":2912,"ĠRou":2913,"ume":2914,"Ġdeal":2915,"Ġrap":2916,"Ġchap":2917,"ĠChines":2918,"Ġdisplay":2919,"Ġ60":2920,"Ġassist":2921,"anna":2922,"Ġwinning":2923,"Ġarchae":2924,"ĠEarly":2925,"ĠChinese":2926,"Ġstates":2927,"ĠEver":2928,"Ġtraining":2929,"hedral":2930,"Ġ45":2931,"Ġscore":2932,"Ġaccording":2933,"Ġcapital":2934,"Ġoccup":2935,"Ġtype":2936,"Ġespecially":2937,"Ġlanguage":2938,"Ġprobably":2939,"ĠPacific":2940,"Ġfood":2941,"arily":2942,"Ġdoc":2943,"ĠMont":2944,"ĠEm":2945,"iff":2946,"Ġ2002":2947,"Ġminor":2948,"ĠColle":2949,"Ġissue":2950,"Ġdebut":2951,"Ġforest":2952,"for":2953,"Ġtest":2954,"Ġwood":2955,"Ġfut":2956,"aled":2957,"Ġmale":2958,"Ġdaugh":2959,"urt":2960,"ĠPre":2961,"Ġstudio":2962,"ĠIII":2963,"ties":2964,"Ġtow":2965,"ĠMos":2966,"Ġconn":2967,"ĠOs":2968,"Ġincludes":2969,"Ġspent":2970,"Ġarrived":2971,"Ġordered":2972,"ĠHistory":2973,"ĠWheeler":2974,"ĠÃ":2975,"ĠAg":2976,"ĠAwards":2977,"ĠSl":2978,"ĠFilm":2979,"ĠJin":2980,"Ġarmy":2981,"Ġenough":2982,"Ġremaining":2983,"Ġparticip":2984,"Ġvisit":2985,"ĠCanadian":2986,"onse":2987,"Ġfail":2988,"Ġmem":2989,"ĠCath":2990,"Ġforward":2991,"ĠNavy":2992,"odies":2993,"Ġmixed":2994,"Ġsometimes":2995,"atory":2996,"Ġcru":2997,"ula":2998,"ĠUK":2999,"Ġcomplete":3000,"Ġapproximately":3001,"Ġreviews":3002,"Ġrequired":3003,"ĠPeter":3004,"fect":3005,"nel":3006,"aries":3007,"Ġpot":3008,"Ġlatter":3009,"ĠCreek":3010,"ays":3011,"ĠRes":3012,"ulated":3013,"ilities":3014,"ĠSing":3015,"ĠRose":3016,"ĠDon":3017,"Ġrain":3018,"Ġabs":3019,"Ġcenter":3020,"Ġremain":3021,"ference":3022,"ĠAssoci":3023,"ĠAfrica":3024,"Ġbeginning":3025,"hib":3026,"ulf":3027,"ĠLaw":3028,"Ġblock":3029,"ĠAngel":3030,"eth":3031,"tation":3032,"Ġlower":3033,"ateg":3034,"Ġdecision":3035,"Ġanti":3036,"Ġlimited":3037,"enes":3038,"Ġdro":3039,"ste":3040,"chol":3041,"Ġusually":3042,"ĠArt":3043,"Ġadditional":3044,"Ġchanges":3045,"ĠRegiment":3046,"ites":3047,"Ġden":3048,"ĠMo":3049,"ĠRachel":3050,"ĠJer":3051,"rian":3052,"Ġjourn":3053,"Ġbetter":3054,"Ġindic":3055,"Ġpresident":3056,"Ġrunning":3057,"Ġresponse":3058,"ĠVirgin":3059,"itz":3060,"ĠSoc":3061,"Ġkey":3062,"Ġpositive":3063,"Ġended":3064,"Ġlarger":3065,"Ġstudents":3066,"ĠSuper":3067,"Ġwoman":3068,"Ġmention":3069,"ĠNort":3070,"Ġdead":3071,"Ġsupported":3072,"Ġmagazine":3073,"quadron":3074,"Ġtouch":3075,"ĠAward":3076,"lymp":3077,"ĠPenn":3078,"ĠOlymp":3079,"Ġnotes":3080,"ĠStud":3081,"rics":3082,"ĠScott":3083,"Ġpolice":3084,"Ġdepression":3085,"Ġpressure":3086,"Ġwide":3087,"Ġcal":3088,"aval":3089,"ĠVer":3090,"Ġpoet":3091,"ĠCharles":3092,"Ġbirds":3093,"gl":3094,"tr":3095,"edy":3096,"enty":3097,"Ġshown":3098,"Ġ1995":3099,"Ġquest":3100,"Ġprevent":3101,"ĠBillboard":3102,"ases":3103,"aph":3104,"aker":3105,"Ġspace":3106,"Ġrelated":3107,"Ġfuture":3108,"back":3109,"Ġ38":3110,"Ġ1980":3111,"Ġprovide":3112,"Ġdefeated":3113,"Ġfifth":3114,"go":3115,"rd":3116,"uf":3117,"Ġface":3118,"arm":3119,"Ġhom":3120,"ĠTV":3121,"ĠTom":3122,"stant":3123,"ĠPri":3124,"uments":3125,"Ġdiscovered":3126,"ih":3127,"leg":3128,"ĠTer":3129,"owl":3130,"Ġstaff":3131,"ĠFort":3132,"Ġsyn":3133,"Ġfeature":3134,"Ġtemper":3135,"ĠRoute":3136,"men":3137,"ss":3138,"Ġanc":3139,"Ġ80":3140,"Ġprior":3141,"Ġbecoming":3142,"co":3143,"uals":3144,"Ġaut":3145,"Ġbirth":3146,"Ġdoll":3147,"ids":3148,"irt":3149,"ands":3150,"ifa":3151,"mitted":3152,"Ġcm":3153,"ĠWestern":3154,"Ġsection":3155,"ĠOff":3156,"riage":3157,"Ġexam":3158,"Ġsmaller":3159,"Ġfrequ":3160,"gely":3161,"inct":3162,"onc":3163,"Ġintended":3164,"ĠApp":3165,"idents":3166,"bert":3167,"aby":3168,"Ġscreen":3169,"Ġdisp":3170,"Ġgroups":3171,"Ġidea":3172,"ĠScientology":3173,"aring":3174,"Ġconclud":3175,"ĠInf":3176,"ishop":3177,"Ġpercent":3178,"Ġthemsel":3179,"Ġmostly":3180,"ĠFrank":3181,"Ġmetres":3182,"ĠHaifa":3183,"stein":3184,"Ġthemselves":3185,"aut":3186,"ney":3187,"orial":3188,"Ġfleet":3189,"anies":3190,"ĠTur":3191,"ĠHot":3192,"agon":3193,"quare":3194,"ĠStar":3195,"Ġ2016":3196,"ĠYear":3197,"Ġminutes":3198,"Ġcaptured":3199,"Ġreferred":3200,"Ġlikely":3201,"Ġresearch":3202,"Ġsurface":3203,"Ġword":3204,"Ġfir":3205,"enon":3206,"Ġdomin":3207,"ĠSince":3208,"ching":3209,"ĠLa":3210,"iforn":3211,"Ġoffice":3212,"Ġlargely":3213,"Ġmusical":3214,"rief":3215,"ĠCroat":3216,"Ġprofessional":3217,"Ġproblems":3218,"ĠAssociation":3219,"down":3220,"Ġflow":3221,"ĠParliament":3222,"ĠFI":3223,"ĠLight":3224,"rael":3225,"Ġ75":3226,"Ġentered":3227,"Ġmedia":3228,"ee":3229,"gar":3230,"Ġsem":3231,"Ġmakes":3232,"Ġcontem":3233,"Ġmoving":3234,"Ġamount":3235,"Ġbroadcast":3236,"ners":3237,"Ġcer":3238,"Ġder":3239,"ĠSov":3240,"omm":3241,"Ġlearn":3242,"Ġcontains":3243,"Ġemb":3244,"Ġconstructed":3245,"ĠPortug":3246,"Ġradio":3247,"quarters":3248,"gu":3249,"uk":3250,"Ã³":3251,"oul":3252,"Ġlink":3253,"ĠOper":3254,"sec":3255,"Ġens":3256,"Ġ1999":3257,"Ġkeep":3258,"Ġsummer":3259,"ĠCaliforn":3260,"bers":3261,"ises":3262,"Ġpair":3263,"Ġmoney":3264,"acted":3265,"ĠRuss":3266,"ĠJe":3267,"pped":3268,"ples":3269,"Ġguitar":3270,"Ġeffects":3271,"Ġcele":3272,"ios":3273,"to":3274,"ville":3275,"ergy":3276,"itte":3277,"isions":3278,"anish":3279,"Ġnature":3280,"ĠCouncil":3281,"Ġstories":3282,"ĠHow":3283,"cean":3284,"Ġsea":3285,"Ġvoice":3286,"Ġgrant":3287,"ĠIsrael":3288,"Ġ1950":3289,"Ġmajority":3290,"Ġlisted":3291,"Ġobserv":3292,"ĠEarth":3293,"Ġranked":3294,"ĠJewish":3295,"uz":3296,"Ġself":3297,"Ġparen":3298,"Ġlay":3299,"Ġadop":3300,"Ġcreate":3301,"Ġarrang":3302,"Ġexperience":3303,"ĠGalvest":3304,"ĠGalveston":3305,"den":3306,"uing":3307,"eding":3308,"ĠMet":3309,"ĠWood":3310,"ĠOtt":3311,"Ġleaving":3312,"Ġcritical":3313,"Ġthus":3314,"ĠChic":3315,"Ġprimary":3316,"Ġfavor":3317,"ires":3318,"lor":3319,"Ġschol":3320,"Ġlived":3321,"urity":3322,"owler":3323,"Ġalways":3324,"ĠAnother":3325,"Ġconsist":3326,"Ġlocation":3327,"ylv":3328,"minist":3329,"Ġgods":3330,"Ġagreed":3331,"Ġlyrics":3332,"iest":3333,"reak":3334,"Ġbrief":3335,"Ġpay":3336,"Ġlab":3337,"imate":3338,"ĠFin":3339,"ĠGo":3340,"aven":3341,"Ġrare":3342,"teen":3343,"Ġcompl":3344,"Ġfilms":3345,"Ġruns":3346,"Ġofficers":3347,"Ġcontroll":3348,"Ġlaunched":3349,"ĠCalifornia":3350,"ping":3351,"pool":3352,"tar":3353,"Ġcoin":3354,"ĠServ":3355,"ĠCamp":3356,"ĠBey":3357,"Ġcolon":3358,"Ġsett":3359,"Ġteams":3360,"Ġculture":3361,"Ġfriends":3362,"osaurus":3363,"Ġquickly":3364,"ĠCatholic":3365,"ĠHol":3366,"change":3367,"Ġmeant":3368,"Ġepisodes":3369,"ĠBrad":3370,"Ġminute":3371,"hester":3372,"Ġproposed":3373,"Ġoccurred":3374,"oor":3375,"pan":3376,"ror":3377,"ĠAle":3378,"urg":3379,"ĠIf":3380,"arts":3381,"ĠUp":3382,"Ġwhether":3383,"oke":3384,"key":3385,"Ġprem":3386,"Ġattr":3387,"Ġassigned":3388,"Ġaccess":3389,"Ġsettle":3390,"Ġincrease":3391,"Ġequip":3392,"kan":3393,"zy":3394,"Ġsat":3395,"atively":3396,"Ġfans":3397,"Ġpian":3398,"ĠSaint":3399,"Ġvot":3400,"illery":3401,"Ġtraff":3402,"Ġadap":3403,"Ġforms":3404,"ification":3405,"Ġappears":3406,"Ġdefeat":3407,"Ġchanged":3408,"Ġdestroyed":3409,"Ġtraffic":3410,"Ġtons":3411,"ĠMr":3412,"imum":3413,"ĠNic":3414,"ĠNix":3415,"ability":3416,"Ġ400":3417,"Ġscript":3418,"Ġcommission":3419,"Ġearth":3420,"Ġlonger":3421,"ospital":3422,"ĠCentral":3423,"Ġmeaning":3424,"ĠChicago":3425,"rup":3426,"asy":3427,"ĠRoss":3428,"Ġjob":3429,"Ġ70":3430,"Ġtheme":3431,"Ġnumbers":3432,"Ġ1940":3433,"Ġconcern":3434,"ĠBattle":3435,"Ġsoldiers":3436,"Ġcompetition":3437,"sis":3438,"Ġmom":3439,"Ġreach":3440,"aded":3441,"ĠHaw":3442,"andon":3443,"Ġleave":3444,"Ġtrade":3445,"ruit":3446,"Ġbound":3447,"ĠAlice":3448,"vey":3449,"Ġcarried":3450,"onym":3451,"Ġawarded":3452,"Ġfocus":3453,"ĠNorthern":3454,"Ġcelebr":3455,"Ġhop":3456,"Ġgirl":3457,"ĠLatin":3458,"undred":3459,"Ġ33":3460,"Ġ1998":3461,"ĠEnter":3462,"ĠQu":3463,"Ġconducted":3464,"Ġprivate":3465,"Ġdaughter":3466,"Ġsil":3467,"Ġcred":3468,"Ġnatural":3469,"ĠLou":3470,"Ġdeep":3471,"ĠOver":3472,"bery":3473,"Ġrecords":3474,"Ġunderst":3475,"Ġsubsequently":3476,"Ġnewsp":3477,"Ġcause":3478,"Ġtourn":3479,"ĠMey":3480,"Ġanaly":3481,"Ġran":3482,"ortun":3483,"Ġplans":3484,"Ġ300":3485,"Ġunc":3486,"ĠVilla":3487,"ĠScot":3488,"Ġconsider":3489,"Ġ1930":3490,"Ġfighting":3491,"oir":3492,"Ġtakes":3493,"itect":3494,"Ġbord":3495,"ari":3496,"Ġded":3497,"ĠMer":3498,"iva":3499,"ĠDj":3500,"Ġshoot":3501,"ĠAlkan":3502,"Ġoverall":3503,"Ġ1993":3504,"Ġinfluence":3505,"ĠPolish":3506,"ĠSecond":3507,"Ġcommented":3508,"Ġindustry":3509,"Ġ+":3510,"Ġcle":3511,"Ġbomb":3512,"ĠMa":3513,"usband":3514,"ĠPat":3515,"ĠFore":3516,"ĠLiver":3517,"ruct":3518,"ĠItal":3519,"Ġserious":3520,"Ġfinally":3521,"Ġelection":3522,"Ġbring":3523,"Ġconcert":3524,"Ġasked":3525,"ĠNixon":3526,"ĠLiverpool":3527,"tained":3528,"ĠTay":3529,"Ġemer":3530,"ĠForm":3531,"Ġdeg":3532,"Ġkil":3533,"Ġ32":3534,"Ġcompared":3535,"Ġwhole":3536,"Ġimm":3537,"Ġmethod":3538,"Ġending":3539,"Ġgreater":3540,"hou":3541,"oly":3542,"sen":3543,"Ġdone":3544,"ĠBC":3545,"ĠGro":3546,"Ġunable":3547,"ĠIts":3548,"ĠSever":3549,"ĠTexas":3550,"ĠChristm":3551,"Ġmarried":3552,"Ġpositions":3553,"Ġdouble":3554,"stitute":3555,"well":3556,"inent":3557,"Ġour":3558,"Ġinn":3559,"anced":3560,"ĠTre":3561,"ĠTour":3562,"aches":3563,"ĠLady":3564,"erset":3565,"Ġupper":3566,"Ġcann":3567,"Ġbuildings":3568,"ĠSomerset":3569,"gian":3570,"Ġtar":3571,"Ġsus":3572,"Ġche":3573,"Ġdram":3574,"ĠTropical":3575,"Ġthick":3576,"ĠMart":3577,"Ġgot":3578,"umn":3579,"ills":3580,"Ġyet":3581,"Ġcentre":3582,"Ġearned":3583,"Ġflight":3584,"anks":3585,"ĠMosley":3586,"unt":3587,"Ġcounter":3588,"Ġbig":3589,"Ġliving":3590,"ĠCour":3591,"ĠMil":3592,"ĠThree":3593,"Ġparty":3594,"Ġenv":3595,"aily":3596,"Ġ1996":3597,"Ġ90":3598,"Ġacqu":3599,"Ġpersonal":3600,"Ġstandard":3601,"Ġissued":3602,"Ġnucle":3603,"Ġbegins":3604,"ĠBusch":3605,"Ġrapid":3606,"gen":3607,"Ġpurch":3608,"ĠTenn":3609,"Ġthrow":3610,"Ġlog":3611,"ĠMount":3612,"Ġkind":3613,"ĠStr":3614,"Ġbox":3615,"Ġterms":3616,"Ġdirectly":3617,"Ġmarked":3618,"Ġmarket":3619,"ittee":3620,"dle":3621,"Ġult":3622,"ĠSk":3623,"amer":3624,"ĠBel":3625,"ulted":3626,"ĠLake":3627,"Ġhero":3628,"Ġhealth":3629,"Ġscenes":3630,"ails":3631,"Ġmovement":3632,"Ġbooks":3633,"Ġmarriage":3634,"ĠSpanish":3635,"Ġstatus":3636,"ĠTaylor":3637,"ĠChristmas":3638,"Ġdom":3639,"ĠBack":3640,"ĠFowler":3641,"Ġconcept":3642,"Ġhelped":3643,"Ġportray":3644,"Ġslight":3645,"ĠSeveral":3646,"Ġund":3647,"Ġtell":3648,"Ġbatter":3649,"ĠJo":3650,"umed":3651,"istics":3652,"Ġplanned":3653,"Ġsched":3654,"Ġstarting":3655,"Ġattacks":3656,"Ġschools":3657,"Ġexperi":3658,"ĠAfrican":3659,"Ġsuffered":3660,"Ġtraditional":3661,"Ġinformation":3662,"Ġopt":3663,"itor":3664,"iser":3665,"Ġdig":3666,"Ġdark":3667,"Ġgiving":3668,"ĠPit":3669,"alled":3670,"ĠStorm":3671,"Ġjud":3672,"Ġspeed":3673,"Ġperformances":3674,"Ġfigure":3675,"Ġassociated":3676,"Ġinspired":3677,"ĠInfantry":3678,"AS":3679,"ma":3680,"Ġx":3681,"itude":3682,"Ġdivision":3683,"Ġhusband":3684,"ĠTw":3685,"ĠSam":3686,"ĠJane":3687,"Ġclosed":3688,"Ġabandon":3689,"athan":3690,"ĠArch":3691,"Ġleaders":3692,"embly":3693,"Ġpresented":3694,"Ġcondoms":3695,"Ġsource":3696,"ĠParty":3697,"Ġmachine":3698,"ĠSoviet":3699,"awn":3700,"Ġmur":3701,"ĠFoot":3702,"Ġvia":3703,"Ġpresence":3704,"Ġgreatest":3705,"Ġinitial":3706,"ĠSeries":3707,"Ġraised":3708,"Ġdetermin":3709,"II":3710,"iant":3711,"mium":3712,"Ġwound":3713,"ĠCross":3714,"ĠBob":3715,"Ġexcept":3716,"Ġunit":3717,"Ġroom":3718,"ĠVict":3719,"Ġuses":3720,"Ġwriters":3721,"Ġcontinue":3722,"Ġnearby":3723,"aught":3724,"ĠParis":3725,"ĠCarolina":3726,"Ġeducation":3727,"Ġdocument":3728,"ĠRosebery":3729,"ĠVirginia":3730,"Ã³n":3731,"ylvania":3732,"ks":3733,"itation":3734,"Ġnorm":3735,"ĠBoy":3736,"ĠLive":3737,"Ġplot":3738,"raf":3739,"Ġuns":3740,"Ġdism":3741,"Ġimage":3742,"iami":3743,"Ġcollection":3744,"Ġcovered":3745,"Ġcyclone":3746,"ĠPenns":3747,"cing":3748,"oration":3749,"Ġhundred":3750,"Ġrein":3751,"olk":3752,"ĠBen":3753,"ĠJam":3754,"ĠJust":3755,"Ġchall":3756,"Ġcomposed":3757,"Ġweap":3758,"ĠAnt":3759,"Ġcomplex":3760,"Ġannual":3761,"Ġservices":3762,"incip":3763,"ĠQueen":3764,"ĠCollege":3765,"erve":3766,"atre":3767,"Ġbodies":3768,"Ġreally":3769,"ĠCer":3770,"ĠRob":3771,"eway":3772,"Ġextended":3773,"Ġ1997":3774,"Ġnumerous":3775,"Ġpolic":3776,"Ġcommander":3777,"Ġcathedral":3778,"Ġproducer":3779,"Ġfigures":3780,"Ġterritory":3781,"oncÃ©":3782,"ĠBeyoncÃ©":3783,"bar":3784,"joy":3785,"ken":3786,"Ġtor":3787,"Ġfell":3788,"Ġpark":3789,"Ġpath":3790,"icted":3791,"Ġthings":3792,"ĠSix":3793,"ĠMiami":3794,"etic":3795,"aging":3796,"Ġdepend":3797,"ĠOpen":3798,"essa":3799,"Ġenjoy":3800,"ĠGermany":3801,"ĠMuseum":3802,"Ġproteins":3803,"Ġvocals":3804,"rical":3805,"erbe":3806,"anded":3807,"ĠNations":3808,"Ġsev":3809,"ift":3810,"Ġ39":3811,"ously":3812,"Ġprep":3813,"Ġsomething":3814,"Ġoperation":3815,"ĠClub":3816,"Ġwaters":3817,"anz":3818,"anas":3819,"ĠTheir":3820,"estival":3821,"Ġcompanies":3822,"ĠThrough":3823,"Ġhighly":3824,"Ġattacked":3825,"Ġattempts":3826,"Ġrequest":3827,"Ġmorning":3828,"Ġstrength":3829,"Ġinvestig":3830,"ĠService":3831,"ny":3832,"Ġtalk":3833,"Ġreject":3834,"admium":3835,"ĠIll":3836,"Ġaspect":3837,"ander":3838,"ĠInn":3839,"Ġdise":3840,"Ġfinanc":3841,"Ġtransl":3842,"Ġmetal":3843,"Ġconfir":3844,"ĠPrince":3845,"Ġera":3846,"Ġindividual":3847,"Ġimmediately":3848,"ĠPennsylvania":3849,"lim":3850,"Ġpil":3851,"ĠSur":3852,"ĠSquadron":3853,"ademy":3854,"uries":3855,"Ġstone":3856,"ĠGames":3857,"ĠInter":3858,"apo":3859,"Ġnecess":3860,"Ġinterse":3861,"Ġincor":3862,"Ġartist":3863,"Ġdistance":3864,"Ġallowing":3865,"Ġpowerful":3866,"Ġsituation":3867,"Ġnuclear":3868,"Ġremoved":3869,"Ġpiano":3870,"NA":3871,"mon":3872,"ply":3873,"vement":3874,"Ġhabit":3875,"olf":3876,"ĠHum":3877,"ĠWater":3878,"Ġselected":3879,"ipp":3880,"Ġrecover":3881,"lands":3882,"Ġoffered":3883,"ibly":3884,"Ġstudies":3885,"Ġartillery":3886,"Ġinside":3887,"Ġadvance":3888,"Ġvariety":3889,"ĠJackson":3890,"Ġneeded":3891,"Ġpeaked":3892,"ĠScotland":3893,"TV":3894,"Ġhot":3895,"Ġnative":3896,"chan":3897,"Ġattend":3898,"ĠJose":3899,"Ġrate":3900,"ĠUnder":3901,"Ġ42":3902,"Ġ182":3903,"Ġmeans":3904,"Ġ1991":3905,"ĠChris":3906,"Ġcountries":3907,"Ġheadquarters":3908,"Ġattempted":3909,"ĠSomal":3910,"Ġcopies":3911,"pole":3912,"Ġsaf":3913,"rol":3914,"ĠAI":3915,"adium":3916,"imony":3917,"ether":3918,"ĠLos":3919,"Ġsearch":3920,"ria":3921,"anta":3922,"Ġkick":3923,"ĠChina":3924,"Ġscoring":3925,"ribution":3926,"Ġprincip":3927,"Ġcoach":3928,"Ġtracks":3929,"Ġhands":3930,"Ġarchitect":3931,"Ġcasual":3932,"Ġrespectively":3933,"Ġresponsible":3934,"Ġpurp":3935,"track":3936,"een":3937,"Ġpurs":3938,"Ġmole":3939,"ĠMajor":3940,"Ġrule":3941,"ĠOut":3942,"Ġ47":3943,"Ġsymb":3944,"Ġdescribes":3945,"Ġimpact":3946,"Ġadvant":3947,"Ġappearances":3948,"ĠAnderson":3949,"ĠBoth":3950,"Ġgenus":3951,"Ġhigher":3952,"Ġwidely":3953,"ĠDepartment":3954,"Ġtouchdown":3955,"cer":3956,"ha":3957,"ĠCrit":3958,"cend":3959,"ĠDan":3960,"andid":3961,"ĠNor":3962,"Ġtext":3963,"anger":3964,"Ġspir":3965,"orship":3966,"Ġ1992":3967,"Ġsets":3968,"Ġcontrovers":3969,"Ġcourse":3970,"Ġobserved":3971,"ĠCorps":3972,"Ġsexual":3973,"ĠBraat":3974,"Ġheavily":3975,"ĠFootball":3976,"of":3977,"rey":3978,"reme":3979,"Ġpick":3980,"oud":3981,"ĠAre":3982,"Ġadult":3983,"Ġ44":3984,"ports":3985,"Ġ1994":3986,"Ġrelief":3987,"Ġamb":3988,"Ġbelow":3989,"Ġphot":3990,"Ġmiddle":3991,"Ġmeeting":3992,"Ġreduced":3993,"ĠAlex":3994,"Ġxenon":3995,"iny":3996,"Ġintern":3997,"icient":3998,"Ġang":3999,"ĠLi":4000,"ĠLike":4001,"Ġplat":4002,"Ġadminist":4003,"Ġresulted":4004,"Ġboy":4005,"Ġsecret":4006,"Ġactive":4007,"Ġsinger":4008,"Ġmatches":4009,"Ġsixth":4010,"ĠMinnes":4011,"ricket":4012,"Ġaudience":4013,"Ġconcluded":4014,"ĠMinnesota":4015,"aen":4016,"car":4017,"ga":4018,"lict":4019,"ship":4020,"Ġsal":4021,"ĠTem":4022,"ĠTime":4023,"ils":4024,"akapo":4025,"Ġtrue":4026,"Ġlands":4027,"ĠFranc":4028,"inkel":4029,"Ġactivity":4030,"Ġactivities":4031,"Ġcompletely":4032,"ĠVictor":4033,"Ġess":4034,"isher":4035,"ĠSouthern":4036,"cts":4037,"Ġstating":4038,"ĠDel":4039,"send":4040,"Ġmanaged":4041,"Ġopportun":4042,"ĠCenter":4043,"ĠTownsend":4044,"Ġrevealed":4045,"Ġcontemporary":4046,"like":4047,"atives":4048,"Ġfill":4049,"Ġhour":4050,"ems":4051,"ocr":4052,"ĠSea":4053,"Ġquality":4054,"Ġgraph":4055,"ĠColon":4056,"Ġrefused":4057,"Ġlevels":4058,"Ġdeclared":4059,"Ġtrees":4060,"Ġseparate":4061,"ĠItalian":4062,"cause":4063,"iated":4064,"Ġbad":4065,"ication":4066,"ĠSir":4067,"ĠMidd":4068,"ĠFinkel":4069,"ĠLong":4070,"ologist":4071,"Ġblue":4072,"annel":4073,"Ġconstit":4074,"ĠBecause":4075,"rowd":4076,"ĠForce":4077,"Ġdrum":4078,"ĠWalpole":4079,"Ġquestion":4080,"ĠHawai":4081,"ĠMeyerbe":4082,"ĠFinkelstein":4083,"ĠMeyerbeer":4084,"MS":4085,"iqu":4086,"ining":4087,"Ġtoday":4088,"lement":4089,"ĠTessa":4090,"ĠSol":4091,"ify":4092,"aped":4093,"Ġuniversity":4094,"peror":4095,"Ġrecent":4096,"Ġshell":4097,"athus":4098,"Ġblood":4099,"Ġbackground":4100,"ĠShiva":4101,"Ġfeaturing":4102,"Ġinstit":4103,"Ġcarry":4104,"Ġmodel":4105,"Ġapproach":4106,"Ġcontrast":4107,"Ġhistorical":4108,"Ġtypically":4109,"Ġparents":4110,"ares":4111,"Ġiron":4112,"Ġactions":4113,"Ġpaper":4114,"ĠCast":4115,"Ġris":4116,"oph":4117,"Ġexpected":4118,"Ġ51":4119,"ĠYue":4120,"Ġ76":4121,"Ġdescript":4122,"Ġissues":4123,"Ġconditions":4124,"Ġmultip":4125,"ĠSmith":4126,"ĠSociety":4127,"ĠOttoman":4128,"ĠNicole":4129,"uff":4130,"Ġtax":4131,"hew":4132,"Ġwing":4133,"alty":4134,"ican":4135,"Ġreception":4136,"ĠMill":4137,"ĠBet":4138,"utch":4139,"ĠWild":4140,"ĠLit":4141,"Ġrhy":4142,"Ġcompos":4143,"rawn":4144,"Ġplays":4145,"Ġattention":4146,"Ġweaken":4147,"oint":4148,"Ġpeace":4149,"Ġentr":4150,"Ġmainly":4151,"Ġefforts":4152,"Ġbecomes":4153,"Ġhouses":4154,"force":4155,"cle":4156,"Ġwit":4157,"Ġpow":4158,"Ġnation":4159,"ĠBalt":4160,"ĠJim":4161,"ĠEmp":4162,"Ġ37":4163,"Ġresidents":4164,"Ġoffer":4165,"ounds":4166,"Ġwebs":4167,"Ġspecim":4168,"Ġsubs":4169,"Ġgrand":4170,"Ġemot":4171,"Ġbrown":4172,"ervation":4173,"Ġstrugg":4174,"shire":4175,"ĠHighway":4176,"Ġvehic":4177,"ĠBraathens":4178,"ging":4179,"rate":4180,"Ġsense":4181,"isl":4182,"Ġlot":4183,"Ġnarr":4184,"ado":4185,"ĠDam":4186,"Ġconsec":4187,"Ġactually":4188,"Ġcalling":4189,"Ġtitles":4190,"Ġmagn":4191,"Ġsoundtrack":4192,"ĠHait":4193,"ufact":4194,"bed":4195,"ware":4196,"Ġtask":4197,"het":4198,"eds":4199,"Ġhair":4200,"ĠDire":4201,"ĠNes":4202,"ellig":4203,"Ġroy":4204,"Ġroles":4205,"Ġseasons":4206,"Ġwrite":4207,"ĠJohnson":4208,"ĠBlue":4209,"ĠAdam":4210,"Ġstruck":4211,"Ġdemonst":4212,"Ġaccepted":4213,"Ġachieved":4214,"Ġcannot":4215,"ĠCourt":4216,"ĠIllino":4217,"uated":4218,"Ġathlet":4219,"Ġwear":4220,"Ġbene":4221,"icip":4222,"Ġlif":4223,"imin":4224,"ĠDem":4225,"ĠCharl":4226,"Ġrecomm":4227,"Ġresc":4228,"Ġinstr":4229,"Ġfamil":4230,"uese":4231,"Ġrespond":4232,"Ġprotein":4233,"Ġviewers":4234,"arent":4235,"Ġvocal":4236,"Ġpractice":4237,"ĠVietnam":4238,"ĠPortuguese":4239,"hood":4240,"onents":4241,"Ġcorn":4242,"Ġcrowd":4243,"Ġfiction":4244,"Ġthous":4245,"Ġbeat":4246,"ĠFey":4247,"aine":4248,"ĠJul":4249,"rial":4250,"appen":4251,"Ġ48":4252,"ĠThunder":4253,"Ġ181":4254,"Ġscient":4255,"Ġelev":4256,"Ġavoid":4257,"Ġprimarily":4258,"Ġsequence":4259,"ĠGovernment":4260,"ĠAcademy":4261,"Ġchem":4262,"itual":4263,"ĠTy":4264,"ĠTod":4265,"Ġlb":4266,"ĠCivil":4267,"ĠGar":4268,"ĠOf":4269,"ĠEr":4270,"essions":4271,"Ġ52":4272,"Ġboard":4273,"Ġspread":4274,"ĠRev":4275,"Ġelected":4276,"Ġ1986":4277,"venue":4278,"Ġinfantry":4279,"Ġowned":4280,"ĠColumb":4281,"Ġtwenty":4282,"Ġcombat":4283,"Ġtypes":4284,"Ġslightly":4285,"ding":4286,"hold":4287,"writ":4288,"Ġsales":4289,"Ġsister":4290,"anes":4291,"Ġmax":4292,"Ġnin":4293,"acher":4294,"ĠRam":4295,"Ġaltern":4296,"ulations":4297,"ĠLand":4298,"Ġplant":4299,"ĠKr":4300,"Ġscale":4301,"Ġoffensive":4302,"Ġsport":4303,"ĠNews":4304,"Ġinches":4305,"ĠEngine":4306,"Ġ150":4307,"Ġexpressed":4308,"Ġconcent":4309,"ĠSpain":4310,"Ġrights":4311,"Ġnortheast":4312,"Ġaffected":4313,"ĠCaptain":4314,"Ġwords":4315,"Ġhorse":4316,"ĠMog":4317,"ĠHorse":4318,"ulpt":4319,"estic":4320,"Ġ34":4321,"Ġrough":4322,"Ġ180":4323,"Ġsculpt":4324,"Ġneigh":4325,"ĠReview":4326,"Ġshowed":4327,"Ġofficer":4328,"aha":4329,"ograph":4330,"Äģd":4331,"ceeded":4332,"cription":4333,"ĠLouis":4334,"ĠGroup":4335,"bury":4336,"uit":4337,"vin":4338,"Ġsout":4339,"Ġspl":4340,"Ġwalk":4341,"Ġpup":4342,"road":4343,"ĠTint":4344,"ĠMal":4345,"ushed":4346,"ĠWels":4347,"ĠGreen":4348,"Ġsuc":4349,"Ġability":4350,"ĠYoung":4351,"Ġthemes":4352,"ledge":4353,"ĠZhou":4354,"Ġcounty":4355,"Ġbattalion":4356,"Ġwindow":4357,"Ġcombined":4358,"ĠSecret":4359,"ĠVaranas":4360,"ĠLittle":4361,"ĠEmpire":4362,"ĠTintin":4363,"ĠWelsh":4364,"ĠVaranasi":4365,"FA":4366,"house":4367,"light":4368,"nh":4369,"Ġfruit":4370,"arrow":4371,"Ġpun":4372,"ingu":4373,"Ġrear":4374,"Ġsust":4375,"ĠThough":4376,"Ġprec":4377,"Ġtitled":4378,"Ġprogress":4379,"ĠAndrew":4380,"Ġcultural":4381,"bitt":4382,"onymous":4383,"Ġincorpor":4384,"Ġcasualties":4385,"ĠNesbitt":4386,"BA":4387,"mun":4388,"Ġsquare":4389,"Ġmountain":4390,"ĠManc":4391,"ĠBurn":4392,"ĠDist":4393,"emic":4394,"umber":4395,"Ġremark":4396,"Ġproduce":4397,"Ġcontinues":4398,"Ġsays":4399,"Ġearliest":4400,"ĠEva":4401,"ironment":4402,"Ġexcav":4403,"ĠOdaen":4404,"ĠAngeles":4405,"Ġmentioned":4406,"Ġancient":4407,"Ġnewspaper":4408,"Ġmurder":4409,"ĠCeres":4410,"Ġrecommend":4411,"ĠOdaenathus":4412,"Mont":4413,"eter":4414,"Ġfully":4415,"Ġinh":4416,"Ġdyn":4417,"Ġhol":4418,"ĠTurn":4419,"ĠSarn":4420,"ĠSpec":4421,"omer":4422,"ĠBook":4423,"ĠHome":4424,"etts":4425,"oses":4426,"Ġchampionship":4427,"Ġmanufact":4428,"Ġactor":4429,"Ġartists":4430,"Ġdistinct":4431,"ĠConf":4432,"ĠCommun":4433,"pedo":4434,"ĠTrans":4435,"Ġresulting":4436,"Ġ1920":4437,"Ġauthorities":4438,"Ġinfluenced":4439,"ĠRecords":4440,"Ġflooding":4441,"ĠDuMont":4442,"ĠOlympic":4443,"Ġcerem":4444,"Ġadopted":4445,"Ġdisease":4446,"ĠSarnia":4447,"ev":4448,"gal":4449,"enant":4450,"Ġmission":4451,"utions":4452,"ĠRad":4453,"Ġreports":4454,"ĠAdd":4455,"ĠOrigin":4456,"Ġbasis":4457,"ĠPerÃ³n":4458,"Ġrepresented":4459,"while":4460,"Ġadvantage":4461,"ĠIllinois":4462,"bird":4463,"nown":4464,"Ġtoward":4465,"Ġhar":4466,"Ġrepe":4467,"ĠBol":4468,"Ġalone":4469,"ĠJos":4470,"ĠOm":4471,"Ġcoming":4472,"ovic":4473,"ĠArg":4474,"Ġassault":4475,"Ġapparent":4476,"Ġdefense":4477,"Ġqual":4478,"Ġgrass":4479,"ĠCont":4480,"helm":4481,"Ġletters":4482,"Ġtower":4483,"ĠApple":4484,"Ġtournament":4485,"ĠThunderbird":4486,"ĠMogad":4487,"ĠManchester":4488,"Ġsides":4489,"nds":4490,"orus":4491,"Ġreign":4492,"Ġreact":4493,"ĠSR":4494,"ĠSal":4495,"imb":4496,"ĠFred":4497,"ĠWash":4498,"Ġexhib":4499,"Ġkakapo":4500,"Ġarmed":4501,"Ġworkers":4502,"Ġrelatively":4503,"ĠDef":4504,"ocks":4505,"Ġfounded":4506,"Ġbridge":4507,"Ġalongside":4508,"Ġoccasion":4509,"Ġnorthwest":4510,"Ġencour":4511,"Ġwithdraw":4512,"Ġtorpedo":4513,"ĠWashington":4514,"lin":4515,"mir":4516,"Ġcadmium":4517,"Ġfa":4518,"room":4519,"Ġlosing":4520,"Ġnest":4521,"Ġnarrow":4522,"ĠPost":4523,"ĠFour":4524,"ĠDou":4525,"Ġattended":4526,"ĠOcean":4527,"Ġyellow":4528,"Ġcontain":4529,"Ġmechan":4530,"Ġ1988":4531,"Ġdirection":4532,"Ġtermin":4533,"Ġofficially":4534,"Ġedition":4535,"Ġtried":4536,"Ġorganized":4537,"Ġcapture":4538,"Ġlegal":4539,"Ġindividuals":4540,"Ġillust":4541,"Ġtransferred":4542,"Ġmess":4543,"Ġmile":4544,"ĠAv":4545,"ĠWay":4546,"osen":4547,"Ġproved":4548,"abama":4549,"eller":4550,"ogue":4551,"Ġperman":4552,"ĠAlabama":4553,"ension":4554,"Ġacting":4555,"Ġeffort":4556,"ĠClark":4557,"ĠProdu":4558,"Ġrequire":4559,"Ġofficials":4560,"Ġmeasure":4561,"Ġphysical":4562,"Ġsurrounding":4563,"Ġdedicated":4564,"ĠMiddle":4565,"ĠOmaha":4566,"AA":4567,"mes":4568,"Ġcandid":4569,"Ġdu":4570,"Ġthir":4571,"Ġlives":4572,"Ġeye":4573,"ĠMD":4574,"Ġstarl":4575,"usion":4576,"Ġrang":4577,"ricult":4578,"Ġenergy":4579,"Ġprin":4580,"Ġdoing":4581,"prise":4582,"Ġemph":4583,"Ġedge":4584,"Ġextr":4585,"Ġconflict":4586,"Ġcouple":4587,"Ġrainfall":4588,"ien":4589,"right":4590,"wen":4591,"ading":4592,"adel":4593,"imore":4594,"ishu":4595,"Ġprepar":4596,"ĠReception":4597,"Ġfollows":4598,"Ġdesignated":4599,"ĠMean":4600,"Ġshortly":4601,"Ġpossibly":4602,"Ġpattern":4603,"Ġdivided":4604,"Ġintensity":4605,"ĠHelms":4606,"Ġfinancial":4607,"ĠMogadishu":4608,"mond":4609,"Ġir":4610,"Ġfaced":4611,"Ġpaid":4612,"Ġhun":4613,"ĠSch":4614,"ols":4615,"ĠHal":4616,"ĠFam":4617,"ĠFant":4618,"ĠLord":4619,"Ġvo":4620,"Ġven":4621,"Ġshape":4622,"Ġyour":4623,"Ġyoun":4624,"Ġ49":4625,"Ġimages":4626,"Ġ65":4627,"Ġalbums":4628,"Ġ1964":4629,"Ġsimply":4630,"Ġwinter":4631,"Ġolder":4632,"ĠEdward":4633,"Ġsociety":4634,"Ġsources":4635,"ĠWilhelm":4636,"Ġdetermined":4637,"ĠInnis":4638,"Ġmaximum":4639,"lied":4640,"mit":4641,"rane":4642,"Ġaid":4643,"Ġple":4644,"ĠCons":4645,"Ġonto":4646,"ĠMax":4647,"ĠBre":4648,"Ġstep":4649,"ĠNC":4650,"Ġrat":4651,"Ġraid":4652,"Ġcomedy":4653,"Ġchief":4654,"Ġplaces":4655,"ĠKent":4656,"orses":4657,"ugby":4658,"ĠIndepend":4659,"Ġbroken":4660,"Ġportion":4661,"Ġbehav":4662,"ĠAssembly":4663,"Ġkept":4664,"Ġfunction":4665,"ĠHistor":4666,"Ġpiece":4667,"Ġdissip":4668,"Ġpotential":4669,"Ġjournal":4670,"uzz":4671,"Ġborder":4672,"ĠJoseph":4673,"Ġemphas":4674,"onna":4675,"Ġsac":4676,"Ġcities":4677,"ental":4678,"igan":4679,"use":4680,"ĠFleet":4681,"ĠJup":4682,"ĠJourn":4683,"Ġunivers":4684,"Ġadvert":4685,"Ġcharge":4686,"Ġmovie":4687,"ĠCommission":4688,"Ġprotect":4689,"Ġargued":4690,"ĠMcCall":4691,"Station":4692,"rid":4693,"Ġwild":4694,"Ġfeder":4695,"Ġfolk":4696,"Ġmind":4697,"Ġthr":4698,"ada":4699,"Ġgrew":4700,"ĠRih":4701,"ĠFer":4702,"Ġheart":4703,"oper":4704,"Ġcontent":4705,"ĠVan":4706,"Ġcolor":4707,"Ġdepth":4708,"Ġsuggests":4709,"Ġauthority":4710,"Ġsites":4711,"Ġprojects":4712,"Ġmanagement":4713,"ĠHamels":4714,"ĠPlayStation":4715,"Ġdomestic":4716,"ĠBaltimore":4717,"ĠArgent":4718,"ĠRihanna":4719,"Ġwor":4720,"Ġwave":4721,"edar":4722,"atops":4723,"Ġpaint":4724,"rown":4725,"Ġdut":4726,"lection":4727,"iled":4728,"acement":4729,"Ġgained":4730,"ĠBowl":4731,"ĠRh":4732,"ĠDest":4733,"ĠGreek":4734,"Ġroll":4735,"Ġscience":4736,"Ġweak":4737,"Ġ64":4738,"Ġprison":4739,"Ġmuseum":4740,"Ġbelong":4741,"Ġdepart":4742,"ĠCommon":4743,"Ġlegisl":4744,"Ġcausing":4745,"Ġtwice":4746,"Ġcriticized":4747,"Ġstructures":4748,"Ġletter":4749,"ĠValley":4750,"Ġtarget":4751,"Ġultimately":4752,"Ġschedul":4753,"Ġentrance":4754,"Ġwebsite":4755,"Ġroyal":4756,"ex":4757,"je":4758,"kare":4759,"lies":4760,"Ġunk":4761,"edkare":4762,"Ġfit":4763,"Ġfung":4764,"ening":4765,"ani":4766,"ĠTru":4767,"ented":4768,"enture":4769,"ĠCra":4770,"Ġvess":4771,"Ġshare":4772,"Ġcontaining":4773,"Ġneut":4774,"Ġformation":4775,"Ġextra":4776,"Ġresults":4777,"ĠWeek":4778,"Ġdebuted":4779,"ĠPalest":4780,"Ġdoub":4781,"Ġhomes":4782,"ĠDjedkare":4783,"ĠJupiter":4784,"mission":4785,"wide":4786,"Ġhospital":4787,"ĠMass":4788,"ĠWrit":4789,"ĠGall":4790,"Ġdeploy":4791,"Ġchosen":4792,"Ġkg":4793,"asty":4794,"claim":4795,"ĠVen":4796,"Ġagg":4797,"Ġdefence":4798,"Ġdefensive":4799,"Ġ1947":4800,"Ġartic":4801,"ĠConstant":4802,"Ġbattles":4803,"Ġforeign":4804,"ĠTorres":4805,"Ġopin":4806,"Ġlabel":4807,"VD":4808,"bour":4809,"Ġcore":4810,"Ġinch":4811,"Ġmouth":4812,"Ġmaster":4813,"ĠSen":4814,"ĠSar":4815,"ĠHib":4816,"ĠHorn":4817,"ĠDVD":4818,"ĠNight":4819,"ĠLis":4820,"ĠLew":4821,"umes":4822,"ĠEastern":4823,"resh":4824,"acks":4825,"ĠKore":4826,"Ġsecurity":4827,"Ġbrigade":4828,"Ġprominent":4829,"Ġstanding":4830,"Ġreference":4831,"Ġfrag":4832,"Ġgrowing":4833,"Ġanimal":4834,"Ġburied":4835,"Ġgranted":4836,"Ġabandoned":4837,"Ġdismiss":4838,"Ġrejected":4839,"Ġconsecutive":4840,"inary":4841,"ĠSil":4842,"ĠFA":4843,"ĠOnce":4844,"ĠAnn":4845,"Ġcolony":4846,"Ġtherefore":4847,"Ġ1941":4848,"Ġvisited":4849,"Ġorganization":4850,"Ġclaims":4851,"Ġtemple":4852,"Ġorders":4853,"Ġcells":4854,"white":4855,"ĠScottish":4856,"ĠForest":4857,"Ġrisk":4858,"ĠApplewhite":4859,"met":4860,"Ġrom":4861,"nding":4862,"Ġmel":4863,"roll":4864,"stone":4865,"ĠLo":4866,"Ġseek":4867,"iana":4868,"ĠChap":4869,"Ġjump":4870,"Ġspot":4871,"Ġremix":4872,"Ġregions":4873,"Ġseconds":4874,"phia":4875,"Ġsingles":4876,"Ġ1987":4877,"ĠShort":4878,"Ġstudent":4879,"Ġminer":4880,"Ġbroke":4881,"ĠAirport":4882,"Ġcondition":4883,"Ġindependent":4884,"Ġwounded":4885,"adelphia":4886,"ML":4887,"mark":4888,"Ġahead":4889,"Ġfix":4890,"isters":4891,"ĠTri":4892,"Ġreaching":4893,"ĠAp":4894,"ĠCam":4895,"ĠBig":4896,"ĠPop":4897,"ĠInstitute":4898,"ĠChild":4899,"Ġintellig":4900,"Ġadj":4901,"Ġenemy":4902,"ĠAtt":4903,"Ġenter":4904,"ertain":4905,"ancy":4906,"Ġversions":4907,"Ġcollect":4908,"Ġplanet":4909,"Ġsolo":4910,"Ġcases":4911,"Ġidentified":4912,"Ġcollabor":4913,"Ġnominated":4914,"Ġseems":4915,"ĠEgyptian":4916,"Ġtemperature":4917,"Ġequipment":4918,"Ġmoment":4919,"ĠBackground":4920,"ech":4921,"Ġaired":4922,"Ġbott":4923,"Ġmales":4924,"ĠSAF":4925,"ĠBBC":4926,"ims":4927,"ĠFurther":4928,"ĠDue":4929,"Ġconver":4930,"Ġheight":4931,"ĠUs":4932,"Ġunique":4933,"Ġ53":4934,"Ġnewly":4935,"Ġelement":4936,"Ġ120":4937,"Ġ1984":4938,"Ġ1989":4939,"Ġ1972":4940,"Ġreturning":4941,"Ġsupporting":4942,"ĠBefore":4943,"Ġcampus":4944,"Ġopposed":4945,"Ġknowledge":4946,"Ġproblem":4947,"ĠCroatia":4948,"ĠSAFE":4949,"uous":4950,"Ġtur":4951,"rete":4952,"Ġwa":4953,"Ġfle":4954,"Ġfear":4955,"Ġfired":4956,"Ġdress":4957,"iles":4958,"ĠMike":4959,"ĠBir":4960,"ety":4961,"ĠGood":4962,"ĠLock":4963,"ĠEach":4964,"ocated":4965,"astic":4966,"Ġteacher":4967,"Ġweight":4968,"Ġinterp":4969,"Ġ1985":4970,"ĠIndust":4971,"Ġoperated":4972,"Ġlooking":4973,"Ġincreasingly":4974,"Ġliterature":4975,"Ġconnect":4976,"ĠOperation":4977,"Ġanalysis":4978,"Ġunknown":4979,"bon":4980,"iate":4981,"Ġtun":4982,"Ġtheory":4983,"Ġcouncil":4984,"asters":4985,"igg":4986,"ĠHMS":4987,"ĠPo":4988,"ĠField":4989,"ĠLar":4990,"Ġhere":4991,"Ġshr":4992,"Ġcompr":4993,"Ġwrites":4994,"Ġdefin":4995,"Ġbelieve":4996,"Ġexplained":4997,"Ġbreeding":4998,"Ġcommonly":4999,"ĠBarrow":5000,"Ġhistorian":5001,"Ġideas":5002,"Ġburns":5003,"ĠCardiff":5004,"Ġsettlement":5005,"Ġenvironment":5006,"Ġconfirmed":5007,"mosp":5008,"Ġox":5009,"Ġoil":5010,"atch":5011,"orter":5012,"Ġcricket":5013,"Ġbud":5014,"ĠSum":5015,"ĠMore":5016,"Ġstations":5017,"ĠPublic":5018,"ĠRA":5019,"Ġalter":5020,"Ġatmosp":5021,"ĠOx":5022,"ortal":5023,"Ġarrest":5024,"Ġherself":5025,"Ġperfect":5026,"Ġ55":5027,"ibr":5028,"ĠOnly":5029,"Ġconsisted":5030,"hips":5031,"Ġsinging":5032,"Ġ1944":5033,"Ġadvanced":5034,"Ġsystems":5035,"Ġphil":5036,"Ġfemales":5037,"ĠMichigan":5038,"ĠPhiladelphia":5039,"Ġproperty":5040,"Ġeconomic":5041,"Ġscholars":5042,"Ġcontrolled":5043,"ĠEntertain":5044,"Ġmolec":5045,"yes":5046,"Ġfast":5047,"Ġfox":5048,"alions":5049,"Ġparliament":5050,"Ġmount":5051,"Ġhappen":5052,"ĠMounted":5053,"ĠNorm":5054,"ĠNever":5055,"ĠJon":5056,"Ġdeities":5057,"odon":5058,"ĠEven":5059,"Ġmaintained":5060,"Ġgrowth":5061,"ĠKeats":5062,"appy":5063,"ĠSwed":5064,"Ġdevot":5065,"Ġstrengt":5066,"Ġpieces":5067,"Ġfailure":5068,"Ġdropped":5069,"Ġkilomet":5070,"ĠMeanwhile":5071,"tav":5072,"Ġawards":5073,"Ġsens":5074,"isation":5075,"Ġpan":5076,"ĠBon":5077,"ĠDutch":5078,"istry":5079,"Ġcompar":5080,"ĠAlbum":5081,"ĠArm":5082,"Ġfilmed":5083,"Ġcreation":5084,"Ġlandfall":5085,"ĠCarl":5086,"ĠClass":5087,"Ġkilling":5088,"Ġfreeway":5089,"ĠWilliams":5090,"Ġpitched":5091,"ĠMorr":5092,"Ġstrike":5093,"Ġhonor":5094,"Ġflying":5095,"Ġinjury":5096,"ĠAddition":5097,"aling":5098,"Ġmounted":5099,"Ġhorses":5100,"ĠBan":5101,"Ġconne":5102,"ĠNathan":5103,"agan":5104,"ĠJur":5105,"ighth":5106,"Ġextend":5107,"Ġtry":5108,"ieval":5109,"Ġ43":5110,"Ġresemb":5111,"Ġboats":5112,"ĠItaly":5113,"Ġserve":5114,"Ġspeak":5115,"Ġ600":5116,"Ġretired":5117,"Ġactress":5118,"airs":5119,"Ġexped":5120,"ĠAndy":5121,"Ġbelief":5122,"Ġhumans":5123,"ĠSteve":5124,"Ġpromoted":5125,"Ġvalue":5126,"urban":5127,"ĠCongress":5128,"ĠPrem":5129,"Ġrapidly":5130,"Ġbattery":5131,"Ġweapons":5132,"lers":5133,"sw":5134,"Ġselling":5135,"Ġbid":5136,"Ġpict":5137,"stream":5138,"Ġstra":5139,"Ġ56":5140,"Ġimag":5141,"Ġweather":5142,"ĠAmericans":5143,"Ġinvasion":5144,"ĠConference":5145,"Ġpasses":5146,"Ġpassing":5147,"Ġpublication":5148,"ĠMinister":5149,"ĠAbu":5150,"Ġsignificantly":5151,"Ġcougar":5152,"Ġreligion":5153,"Ġpromotion":5154,"Ġrecognized":5155,"Ġcreating":5156,"Ġconnected":5157,"Ġsemi":5158,"Ġpremi":5159,"Ġprepared":5160,"Ġdescription":5161,"Ġmultiple":5162,"Ġfederal":5163,"Ġstraight":5164,"Le":5165,"haps":5166,"more":5167,"pass":5168,"uge":5169,"Ġast":5170,"Ġsought":5171,"itch":5172,"Ġbats":5173,"asure":5174,"Ġdata":5175,"oured":5176,"ĠSor":5177,"oty":5178,"ĠFinal":5179,"ĠGord":5180,"Ġchose":5181,"ĠVideo":5182,"ampion":5183,"Ġcolumn":5184,"ĠDevelop":5185,"Ġleader":5186,"Ġfamous":5187,"Ġmatter":5188,"Ġrestaur":5189,"ĠGuard":5190,"Ġdeliver":5191,"Ġpopularity":5192,"arrison":5193,"Ġprotest":5194,"Ġproducers":5195,"Ġvolume":5196,"Ġwalls":5197,"Ġregarded":5198,"Ġseventh":5199,"Ġaspects":5200,"Ġnecessary":5201,"Ġscheduled":5202,"gn":5203,"uild":5204,"Ġsand":5205,"Ġcust":5206,"ano":5207,"Ġreaction":5208,"Ġlaid":5209,"ĠMatt":5210,"ĠPet":5211,"ĠRog":5212,"Ġconvers":5213,"ersey":5214,"agement":5215,"Ġrise":5216,"ella":5217,"Ġ46":5218,"Ġagricult":5219,"Ġspect":5220,"icks":5221,"amese":5222,"Ġflank":5223,"Ġ1981":5224,"Ġstarts":5225,"Ġlanding":5226,"Ġguest":5227,"heless":5228,"Ġaccompan":5229,"ĠVietnamese":5230,"ĠJeff":5231,"Ġnucleus":5232,"Ġsustained":5233,"eer":5234,"Ġtim":5235,"Ġtact":5236,"Ġfought":5237,"isy":5238,"Ġdated":5239,"ĠCamb":5240,"Ġbeaut":5241,"Ġge":5242,"ĠBost":5243,"ĠHart":5244,"ĠHaven":5245,"ulate":5246,"ĠGulf":5247,"Ġrival":5248,"ĠStan":5249,"ieut":5250,"izing":5251,"ographer":5252,"Ġdelay":5253,"ĠAmong":5254,"Ġcastle":5255,"Ġstrik":5256,"Ġcurrently":5257,"Ġemployed":5258,"clusion":5259,"Ġfamilies":5260,"ĠThunderbirds":5261,"Ġphilos":5262,"ĠCambod":5263,"che":5264,"crib":5265,"ees":5266,"heastern":5267,"inity":5268,"Ġouter":5269,"ĠAthlet":5270,"omy":5271,"ads":5272,"ĠLine":5273,"Ġrating":5274,"Ġvirt":5275,"apt":5276,"appe":5277,"Ġtrain":5278,"Ġcontained":5279,"Ġarms":5280,"Ġ41":5281,"ansion":5282,"Ġ700":5283,"Ġunderground":5284,"Ġends":5285,"Ġsupply":5286,"Ġ1939":5287,"Ġprompt":5288,"Ġdrive":5289,"Ġtrial":5290,"Ġphase":5291,"Ġfacilities":5292,"ĠSlam":5293,"Ġfrequently":5294,"Ġbudget":5295,"RA":5296,"lines":5297,"rain":5298,"Ġtree":5299,"Ġsave":5300,"itable":5301,"Ġfict":5302,"Ġbank":5303,"Ġdrop":5304,"Ġreform":5305,"ĠSat":5306,"ĠChe":5307,"iring":5308,"ĠFestival":5309,"ĠNaz":5310,"ĠGi":5311,"ĠGirl":5312,"ĠLes":5313,"ĠOp":5314,"ĠUl":5315,"Ġcontact":5316,"Ġcontributed":5317,"Ġunus":5318,"Ġspring":5319,"ĠAnth":5320,"Ġactors":5321,"orney":5322,"Ġ1942":5323,"insula":5324,"Ġallows":5325,"Ġreflect":5326,"Ġcollected":5327,"ĠPho":5328,"Ġfinds":5329,"Ġnegative":5330,"Ġexecutive":5331,"rupt":5332,"Ġsilver":5333,"Ġclean":5334,"Ġdegree":5335,"ĠRevolution":5336,"Ġbottom":5337,"ĠOxford":5338,"ĠGordon":5339,"yond":5340,"onent":5341,"Ġsen":5342,"Ġcited":5343,"Ġfresh":5344,"standing":5345,"amic":5346,"Ġbeyond":5347,"olved":5348,"ĠFriend":5349,"ĠDen":5350,"ĠNBA":5351,"aved":5352,"ĠEnd":5353,"illo":5354,"Ġshaped":5355,"Ġcomputer":5356,"angers":5357,"ĠSha":5358,"Ġopera":5359,"Ġ130":5360,"Ġ1918":5361,"ĠUSA":5362,"Ġeffective":5363,"Ġentirely":5364,"Ġanimals":5365,"Ġimproved":5366,"Ġsubsequent":5367,"ĠCoast":5368,"ĠStudios":5369,"ĠBetween":5370,"ĠTurner":5371,"ĠCrazy":5372,"ĠEntertainment":5373,"ĠPremier":5374,"ieutenant":5375,"uccess":5376,"Ġbow":5377,"alle":5378,"asc":5379,"Ġmob":5380,"Ġdraft":5381,"Ġgain":5382,"Ġgives":5383,"thur":5384,"ĠWork":5385,"ĠObs":5386,"Ġnotable":5387,"Ġrecently":5388,"Ġ54":5389,"ansas":5390,"ĠMario":5391,"ropium":5392,"Ġ1968":5393,"Ġ1969":5394,"Ġexpress":5395,"Ġsimple":5396,"ashion":5397,"Ġextensive":5398,"ĠMuslim":5399,"Ġmedical":5400,"ĠBoise":5401,"Ġfinding":5402,"ushing":5403,"Ġgradually":5404,"ĠToday":5405,"ĠLewis":5406,"Ġkilometres":5407,"ĠBoston":5408,"cy":5409,"Ġdates":5410,"Ġegg":5411,"ĠCold":5412,"ĠChel":5413,"iments":5414,"Ġstages":5415,"ĠPen":5416,"ĠDer":5417,"ĠGard":5418,"ĠJain":5419,"sea":5420,"Ġ57":5421,"Ġfinals":5422,"Ġsecondary":5423,"ocked":5424,"ĠLeg":5425,"Ġsevere":5426,"Ġ179":5427,"Ġ1975":5428,"Ġexpanded":5429,"azz":5430,"Ġserving":5431,"ĠPeople":5432,"Ġantimony":5433,"Ġprograms":5434,"ĠRussian":5435,"ĠMartin":5436,"cel":5437,"ki":5438,"rong":5439,"Ġtail":5440,"unte":5441,"Ġcamer":5442,"ishes":5443,"Ġbit":5444,"Ġham":5445,"ĠSo":5446,"stead":5447,"ĠCre":5448,"ĠCole":5449,"ĠRail":5450,"Ġitems":5451,"ĠGreg":5452,"ĠJes":5453,"Ġcomes":5454,"ĠKey":5455,"Ġcomposition":5456,"Ġboat":5457,"weet":5458,"Ġcenturies":5459,"Ġ800":5460,"Ġ1965":5461,"Ġ1974":5462,"Ġoccas":5463,"ĠEvita":5464,"Ġcorre":5465,"ĠMagazine":5466,"ĠSystem":5467,"Ġoccupied":5468,"ĠTurk":5469,"ĠUpon":5470,"ĠDemocr":5471,"iations":5472,"ero":5473,"Ġwed":5474,"unction":5475,"unicip":5476,"Ġmo":5477,"Ġmig":5478,"icc":5479,"Ġdaily":5480,"ĠSund":5481,"Ġnaval":5482,"ura":5483,"urches":5484,"ĠId":5485,"ĠDomin":5486,"Ġchair":5487,"berg":5488,"udd":5489,"rence":5490,"oys":5491,"Ġfloor":5492,"Ġsole":5493,"Ġmush":5494,"hess":5495,"Ġdecades":5496,"ancing":5497,"ĠJuan":5498,"Ġdeaths":5499,"Ġcriticism":5500,"Ġfarm":5501,"Ġsuccessfully":5502,"Ġlosses":5503,"Ã¡nh":5504,"ĠCommander":5505,"Ġtreatment":5506,"ĠKhÃ¡nh":5507,"Ġslowly":5508,"Ġindependence":5509,"Ġcommissioned":5510,"Ġexperienced":5511,"Äģda":5512,"Ġfictional":5513,"kin":5514,"ket":5515,"ux":5516,"inem":5517,"Ġsquad":5518,"Ġod":5519,"Ġdial":5520,"ĠAvenue":5521,"aming":5522,"ĠRy":5523,"ĠRome":5524,"ĠFox":5525,"uli":5526,"ĠKir":5527,"ĠStone":5528,"Ġrow":5529,"ĠBridge":5530,"anny":5531,"Ġdidn":5532,"Ġvisual":5533,"Ġsentence":5534,"Ġpersonnel":5535,"Ġengaged":5536,"Ġmyth":5537,"ĠSongs":5538,"ĠCrown":5539,"ĠMacLe":5540,"Ġpurchased":5541,"ĠJamal":5542,"Ġpolicy":5543,"ĠDaniel":5544,"Ġfaith":5545,"ĠJurc":5546,"TC":5547,"hat":5548,"yson":5549,"Ġbass":5550,"iced":5551,"Ġec":5552,"lywood":5553,"lyss":5554,"ĠBart":5555,"ĠBrian":5556,"ĠDo":5557,"ĠLl":5558,"Ġchorus":5559,"Ġunp":5560,"ĠAlf":5561,"Ġsports":5562,"Ġprefer":5563,"Ġ96":5564,"Ġcoal":5565,"Ġcool":5566,"Ġ164":5567,"ĠScience":5568,"Ġ1946":5569,"ĠIsab":5570,"Ġconcrete":5571,"Ġsouthwest":5572,"Ġworldwide":5573,"ĠProv":5574,"Ġcaptain":5575,"Ġpropos":5576,"Ġdeclined":5577,"Ġprotagon":5578,"Ġbegun":5579,"Ġreasons":5580,"Ġnegot":5581,"borough":5582,"ategory":5583,"Ġbriefly":5584,"Ġattract":5585,"ĠTennyson":5586,"Ġchalleng":5587,"ĠThroughout":5588,"ĠDistrict":5589,"bl":5590,"fort":5591,"pet":5592,"Ġfat":5593,"Ġdrawn":5594,"Ġeas":5595,"Ġbeach":5596,"ĠMic":5597,"ĠDubl":5598,"ĠNH":5599,"Ġexclus":5600,"ĠUN":5601,"ĠKn":5602,"Ġnote":5603,"ĠVill":5604,"perial":5605,"ĠAlso":5606,"Ġ73":5607,"Ġ95":5608,"Ġflag":5609,"Ġmoves":5610,"Ġnothing":5611,"Ġincident":5612,"Ġconcer":5613,"ĠProject":5614,"Ġorganiz":5615,"Ġimportance":5616,"Ġroads":5617,"Ġelimin":5618,"ĠBarb":5619,"ĠSimone":5620,"Ġescape":5621,"ĠLiu":5622,"uccessful":5623,"ĠDublin":5624,"iro":5625,"iences":5626,"rang":5627,"Ġ#":5628,"Ġworship":5629,"Ġfur":5630,"Ġhired":5631,"Ġrend":5632,"Ġnor":5633,"ĠCy":5634,"ĠCub":5635,"ĠIgu":5636,"ĠBru":5637,"Ġstreet":5638,"ĠHy":5639,"ĠDun":5640,"ĠLiber":5641,"quake":5642,"ĠKa":5643,"ĠKang":5644,"Ġarc":5645,"ĠHead":5646,"aret":5647,"Ġtend":5648,"Ġ61":5649,"Ġfoundation":5650,"Ġdecade":5651,"Ġlongest":5652,"Ġ1966":5653,"Ġ1952":5654,"Ġ1919":5655,"Ġpossibility":5656,"Ġarrival":5657,"ĠProt":5658,"Ġfavour":5659,"Ġhyd":5660,"chers":5661,"Ġbillion":5662,"Ġchapter":5663,"Ġparticipated":5664,"Ġcalc":5665,"Ġfirm":5666,"Ġenjoyed":5667,"ĠArea":5668,"ĠTemple":5669,"Ġwitness":5670,"Ġresponded":5671,"ĠProduction":5672,"ĠFamily":5673,"Ġpaintings":5674,"Ġaccompanied":5675,"Ġtall":5676,"Ġtheat":5677,"Ġwides":5678,"Ġpul":5679,"Ġmist":5680,"Ġlabor":5681,"ĠMem":5682,"Ġgas":5683,"ĠBas":5684,"Ġstret":5685,"ayer":5686,"ĠRet":5687,"ĠFive":5688,"ĠGA":5689,"Ġheard":5690,"ĠEll":5691,"apes":5692,"ĠUlyss":5693,"iance":5694,"ĠChart":5695,"ĠChains":5696,"ĠAli":5697,"izes":5698,"Ġneck":5699,"Ġ97":5700,"ĠMaria":5701,"Ġapplic":5702,"Ġsetting":5703,"Ġsurre":5704,"Ġdeveloping":5705,"Ġ177":5706,"Ġowners":5707,"Ġ1936":5708,"Ġguard":5709,"Ġoldest":5710,"Ġglob":5711,"Ġagreement":5712,"ĠGovernor":5713,"Ġdollar":5714,"Ġnormal":5715,"Ġplatform":5716,"Ġroughly":5717,"ĠDevelopment":5718,"Ġsenior":5719,"ĠMacLeod":5720,"ĠUlysses":5721,"chest":5722,"iable":5723,"ls":5724,"pread":5725,"Ġhor":5726,"ĠAer":5727,"ĠCD":5728,"ĠMur":5729,"Ġgreen":5730,"ĠBand":5731,"ĠBaby":5732,"ĠRon":5733,"ĠFall":5734,"ĠEs":5735,"istan":5736,"ĠInstead":5737,"Ġchoice":5738,"Ġremn":5739,"Ġconsists":5740,"Ġvert":5741,"Ġacad":5742,"Ġaccident":5743,"Ġadding":5744,"Ġpopulations":5745,"Ġ1973":5746,"ĠIsl":5747,"ĠAdmir":5748,"Ġlasted":5749,"Ġtrip":5750,"ĠBoard":5751,"Ġcombination":5752,"Ġskin":5753,"Ġtechnology":5754,"Ġexistence":5755,"Ġregarding":5756,"Ġviolence":5757,"Ġpoetry":5758,"Ġdominated":5759,"ĠFrancisc":5760,"Ġathletes":5761,"ĠDougl":5762,"ĠAnthony":5763,"ĠTurkish":5764,"iot":5765,"rem":5766,"Ġsn":5767,"eda":5768,"ĠSus":5769,"Ġeth":5770,"adow":5771,"ĠTheatre":5772,"ĠMat":5773,"ĠMod":5774,"iday":5775,"usal":5776,"Ġisol":5777,"ager":5778,"umpt":5779,"Ġcomic":5780,"antly":5781,"gend":5782,"Ġreserv":5783,"Ġspons":5784,"Ġcommittee":5785,"Ġfilming":5786,"Ġacres":5787,"Ġapplied":5788,"Ġsubmar":5789,"Ġcalls":5790,"Ġperforming":5791,"Ġ1967":5792,"ĠTeam":5793,"Ġcollege":5794,"Ġclubs":5795,"Ġcompetitions":5796,"Ġassociation":5797,"Ġclosely":5798,"Ġresear":5799,"Ġexisting":5800,"Ġunsuccessful":5801,"Ġhabitat":5802,"Ġweakened":5803,"ĠIguan":5804,"come":5805,"rum":5806,"Ġaer":5807,"era":5808,"aton":5809,"isers":5810,"aser":5811,"ĠAston":5812,"ĠMov":5813,"ĠMountain":5814,"Ġaltar":5815,"resp":5816,"Ġperhaps":5817,"Ġoverl":5818,"Ġneither":5819,"Ġ62":5820,"ĠMarl":5821,"Ġundert":5822,"Ġinteract":5823,"Ġappeal":5824,"Ġdecre":5825,"Ġcapable":5826,"Ġtransit":5827,"Ġ110":5828,"Ġdistingu":5829,"Ġprovides":5830,"Ġ1914":5831,"Ġbattalions":5832,"Ġserves":5833,"Ġgreatly":5834,"ĠPhill":5835,"Ġdetails":5836,"Ġpainting":5837,"Ġarchaeological":5838,"Ġderived":5839,"Ġlearned":5840,"Ġtells":5841,"Ġreinforce":5842,"Ġpilot":5843,"Ġpurpose":5844,"Ġadministration":5845,"Ġopportunity":5846,"Ġbenef":5847,"Ġceremony":5848,"Ġoccasionally":5849,"aver":5850,"ection":5851,"set":5852,"Ġsort":5853,"Ġfellow":5854,"Ġbought":5855,"Ġdance":5856,"Ġthing":5857,"ĠAri":5858,"ĠAML":5859,"Ġones":5860,"ĠMen":5861,"ĠBishop":5862,"ĠDota":5863,"ĠGab":5864,"Ġseat":5865,"opes":5866,"ichol":5867,"Ġchurches":5868,"Ġcontrib":5869,"Ġreconst":5870,"ĠAlbert":5871,"Ġdescend":5872,"ibbe":5873,"Ġspeaking":5874,"ĠAnonymous":5875,"Ġ85":5876,"Ġsupposed":5877,"Ġsurvey":5878,"pring":5879,"Ġinvited":5880,"Ġreceiving":5881,"ĠCaribbe":5882,"Ġeditor":5883,"Ġheaded":5884,"ĠAdv":5885,"Ġstoryline":5886,"Ġbasket":5887,"Ġtowns":5888,"Ġparalle":5889,"Ġtechnique":5890,"Ġsufficient":5891,"Ġencounter":5892,"ĠOde":5893,"ĠBraz":5894,"Ġinnings":5895,"Ġfilled":5896,"Ġvehicles":5897,"Ġdissipated":5898,"ĠHornung":5899,"ĠChelsea":5900,"ĠDouglas":5901,"ĠCaribbean":5902,"uate":5903,"Ġut":5904,"Ġton":5905,"inner":5906,"erc":5907,"Ġsom":5908,"ato":5909,"Ġfashion":5910,"Ġdrew":5911,"amy":5912,"lying":5913,"ules":5914,"ĠLife":5915,"ĠLieutenant":5916,"Ġseg":5917,"ĠERA":5918,"Ġplum":5919,"ĠKenn":5920,"ĠStew":5921,"ĠStep":5922,"Ġ71":5923,"ĠAsia":5924,"ĠLeon":5925,"Ġdoor":5926,"Ġgoes":5927,"Ġ1945":5928,"Ġ1971":5929,"Ġbranch":5930,"Ġreceive":5931,"Ġdepict":5932,"Ġanything":5933,"pective":5934,"Ġclassified":5935,"ographic":5936,"Ġviewed":5937,"ĠPerry":5938,"ĠGeorg":5939,"ĠAbout":5940,"Ġislands":5941,"Ġtypical":5942,"Ġsurvived":5943,"ÃŃa":5944,"Ġmassive":5945,"Ġaccompl":5946,"ĠCardinal":5947,"Ġstopped":5948,"ĠMaeda":5949,"ructure":5950,"Ġdrama":5951,"Ġsymbol":5952,"ĠConstantine":5953,"ĠHibari":5954,"ĠSummer":5955,"Ġastron":5956,"Ġwidespread":5957,"hu":5958,"pson":5959,"ruli":5960,"win":5961,"Ġaim":5962,"Ġsail":5963,"Ġcrop":5964,"arian":5965,"ala":5966,"ications":5967,"ĠAge":5968,"ĠMTV":5969,"uting":5970,"Ġwhy":5971,"ĠRol":5972,"ĠRod":5973,"agle":5974,"Ġring":5975,"Ġrif":5976,"Ġshared":5977,"Ġtruth":5978,"Ġtrying":5979,"usted":5980,"rait":5981,"Ġ59":5982,"Ġflights":5983,"Ġassass":5984,"Ġacid":5985,"Ġquot":5986,"Ġpoly":5987,"Ġ1982":5988,"ĠWhat":5989,"Ġdistrict":5990,"ĠConst":5991,"ĠQedar":5992,"Ġprotection":5993,"Ġauthors":5994,"ĠBrook":5995,"ĠRomani":5996,"ĠGeorgian":5997,"ĠSimon":5998,"ĠStev":5999,"Ġhousehold":6000,"Ġmissing":6001,"Ġmotion":6002,"ĠGolden":6003,"glades":6004,"Ġsynt":6005,"Ġsettlers":6006,"Ġacquired":6007,"Ġdigital":6008,"Ġsafety":6009,"Ġsoutheast":6010,"Ġrepeated":6011,"ĠFantasy":6012,"Ġconverted":6013,"ibrary":6014,"ati":6015,"Ġha":6016,"ĠTra":6017,"entially":6018,"ĠBond":6019,"ĠBull":6020,"idges":6021,"utation":6022,"ĠRio":6023,"ĠFre":6024,"ĠJud":6025,"iston":6026,"ĠIng":6027,"essed":6028,"ĠUr":6029,"ips":6030,"ĠStadium":6031,"uble":6032,"Ġroutes":6033,"Ġroof":6034,"Ġspacing":6035,"Ġfinish":6036,"Ġevac":6037,"issance":6038,"Ġsubstant":6039,"cki":6040,"Ġlocations":6041,"Ġ160":6042,"Ġ1976":6043,"Ġdepicted":6044,"Ġ1956":6045,"Ġ1913":6046,"Ġ1916":6047,"Ġturns":6048,"Ġexperiment":6049,"Ġplanning":6050,"Ġwatched":6051,"Ġholding":6052,"Ġbaseball":6053,"Ġfunding":6054,"Ġfocused":6055,"ĠOslo":6056,"ĠMoz":6057,"Ġarranged":6058,"ĠHaiti":6059,"Ġsucceeded":6060,"ĠRadio":6061,"ĠFreder":6062,"Ġpermanent":6063,"Ġopinion":6064,"ĠShortly":6065,"Ġatmosphere":6066,"Ġwedding":6067,"VN":6068,"ture":6069,"tty":6070,"Ġi":6071,"Ġign":6072,"inn":6073,"Ġfuel":6074,"Ġbul":6075,"Ġbowl":6076,"Ġindu":6077,"Ġdub":6078,"ĠTim":6079,"ĠCa":6080,"acity":6081,"ĠRow":6082,"ĠJones":6083,"ĠOh":6084,"Ġcho":6085,"Ġchance":6086,"Ġchannel":6087,"Ġexact":6088,"iege":6089,"Ġresident":6090,"Ġ72":6091,"Ġknew":6092,"Ġ81":6093,"Ġdefined":6094,"ifications":6095,"Ġ1943":6096,"Ġ175":6097,"Ġproviding":6098,"ĠAllied":6099,"Ġiniti":6100,"Ġreality":6101,"bridge":6102,"Ġdecline":6103,"Ġcorresp":6104,"idden":6105,"Ġcreator":6106,"Ġpenalty":6107,"Ġearthquake":6108,"Ġcredited":6109,"hetic":6110,"ĠVenus":6111,"ĠIguanodon":6112,"ĠBrazil":6113,"Ġcorrespond":6114,"GN":6115,"eed":6116,"ky":6117,"uan":6118,"Ġtied":6119,"indu":6120,"Ġwins":6121,"Ġinner":6122,"Ġmic":6123,"Ġdating":6124,"ĠAst":6125,"stances":6126,"Ġeu":6127,"ĠIGN":6128,"ivered":6129,"ĠHindu":6130,"ĠRangers":6131,"ĠDream":6132,"ĠGully":6133,"ĠLenn":6134,"agre":6135,"Ġrich":6136,"okes":6137,"Ġjack":6138,"Ġpregn":6139,"ĠArts":6140,"Ġ94":6141,"awa":6142,"Ġcharter":6143,"Ġflu":6144,"Ġassemb":6145,"Ġgrav":6146,"Ġsupplies":6147,"Ġ1963":6148,"Ġ112":6149,"Ġdownlo":6150,"Ġairport":6151,"Ġheads":6152,"Ġ250":6153,"Ġways":6154,"Ġexplos":6155,"Ġdelivered":6156,"Ġlaws":6157,"Ġglass":6158,"Ġseparated":6159,"Ġrenamed":6160,"ĠEverglades":6161,"Ġthousands":6162,"ĠSecretary":6163,"ĠMorrison":6164,"ĠAdditionally":6165,"uilding":6166,"ĠPhoen":6167,"ĠStevens":6168,"Å¡":6169,"Ġice":6170,"inated":6171,"Ġwick":6172,"Ġcit":6173,"itan":6174,"isf":6175,"Ġeyes":6176,"ĠBh":6177,"ĠHomer":6178,"ĠRun":6179,"anda":6180,"ĠGre":6181,"ĠGram":6182,"ĠLuc":6183,"estone":6184,"Ġrac":6185,"Ġrural":6186,"sey":6187,"ĠUTC":6188,"iece":6189,"Ġrose":6190,"outs":6191,"Ġteaching":6192,"Ġoverse":6193,"Ġsecure":6194,"Ġregime":6195,"Ġemperor":6196,"Ġ176":6197,"ĠAustralians":6198,"ĠCommittee":6199,"Ġturning":6200,"Ġcommanded":6201,"Ġopposition":6202,"ĠBroad":6203,"ĠSimilar":6204,"Ġcertified":6205,"Ġinspir":6206,"Ġremainder":6207,"Ġindicate":6208,"ĠOffice":6209,"Ġconsisting":6210,"ĠHollywood":6211,"ĠBradford":6212,"ĠArchae":6213,"ĠAlexander":6214,"Ġinstrument":6215,"ĠColumbia":6216,"Ġsplit":6217,"ĠFriends":6218,"ĠSunday":6219,"BS":6220,"RE":6221,"gÃ©":6222,"jillo":6223,"pany":6224,"rons":6225,"Ġurban":6226,"Ġaware":6227,"Ġdog":6228,"Ġdru":6229,"ĠSap":6230,"Ġeld":6231,"ĠCle":6232,"igation":6233,"ĠHoly":6234,"ĠPers":6235,"ĠPatt":6236,"ĠNative":6237,"ĠGang":6238,"ĠLy":6239,"Ġattached":6240,"Ġ77":6241,"ĠMarine":6242,"Ġcolour":6243,"Ġnoisy":6244,"Ġquite":6245,"ologists":6246,"Ġhighlight":6247,"Ġaddress":6248,"Ġ1978":6249,"Ġoccurs":6250,"Ġ1953":6251,"Ġcourts":6252,"Ġreferences":6253,"Ġaffect":6254,"Ġtechnical":6255,"Ġvalley":6256,"Ġrevolution":6257,"ĠMaryland":6258,"Ġeconomy":6259,"Ġestablishment":6260,"Ġassistance":6261,"ĠMontana":6262,"Ġjourney":6263,"ĠCroatian":6264,"ĠCritical":6265,"Ġpowers":6266,"ĠDirector":6267,"ĠTrujillo":6268,"Ġdrug":6269,"lik":6270,"ĪĴ":6271,"Ġtable":6272,"inosaur":6273,"Ġpet":6274,"Ġdry":6275,"ilton":6276,"Ġlin":6277,"ela":6278,"ĠBern":6279,"ider":6280,"ĠHan":6281,"ĠDown":6282,"apers":6283,"ewhere":6284,"ighter":6285,"aked":6286,"ĠâĪĴ":6287,"Ġleaves":6288,"ĠChronic":6289,"Ġresist":6290,"ĠAlan":6291,"ressive":6292,"Ġfinishing":6293,"issipp":6294,"ĠArthur":6295,"Ġinterior":6296,"Ġstudied":6297,"Ġleads":6298,"Ġdisturb":6299,"Ġdistribution":6300,"Ġreputation":6301,"Ġsuccessor":6302,"ĠRoxas":6303,"Ġviews":6304,"ivalent":6305,"ĠMississipp":6306,"Ġsurviv":6307,"Ġproducing":6308,"Ġmissions":6309,"ĠWalter":6310,"Ġdenied":6311,"Ġadapted":6312,"Ġshooting":6313,"Ġmethods":6314,"Ġportrayed":6315,"ĠCharlie":6316,"ĠEngineer":6317,"Ġstrengthen":6318,"ĠMississippi":6319,"ych":6320,"Ġsle":6321,"Ġhall":6322,"ĠSub":6323,"Ġlane":6324,"uration":6325,"ĠBur":6326,"ĠRel":6327,"ĠWind":6328,"andy":6329,"ĠLow":6330,"agues":6331,"Ġrub":6332,"rier":6333,"ifying":6334,"Ġsud":6335,"ardo":6336,"Ġkits":6337,"ĠKil":6338,"Ġrob":6339,"Ġoffense":6340,"Ġupd":6341,"Ġprey":6342,"Ġgameplay":6343,"Ġentry":6344,"Ġentering":6345,"Ġmaintain":6346,"Ġcharacteristics":6347,"Ġ1915":6348,"Ġcamps":6349,"Ġprotected":6350,"Ġcrime":6351,"ĠWithin":6352,"Ġpolitics":6353,"Ġgetting":6354,"ĠRecording":6355,"ĠActivision":6356,"ĠHoward":6357,"Ġimmig":6358,"senal":6359,"ĠSamuel":6360,"Ġworst":6361,"Ġdismissed":6362,"Ġintelligence":6363,"OT":6364,"SB":6365,"born":6366,"hi":6367,"kins":6368,"Ġcrown":6369,"Ġpuzz":6370,"ĠSnow":6371,"ador":6372,"ĠMul":6373,"Ġstones":6374,"ĠHon":6375,"ĠHug":6376,"ette":6377,"ĠRidge":6378,"osa":6379,"ĠLu":6380,"ĠJac":6381,"ĠJay":6382,"ĠEdu":6383,"Ġvon":6384,"Ġexerc":6385,"Ġnoting":6386,"ipl":6387,"ells":6388,"Ġattributed":6389,"Ġknots":6390,"Ġ98":6391,"ĠMarsh":6392,"Ġcharges":6393,"ropri":6394,"Ġcapacity":6395,"Ġmonarch":6396,"Ġmonument":6397,"ĠPlunk":6398,"Ġclasses":6399,"Ġreplace":6400,"Ġbasin":6401,"Ġfranch":6402,"Ġnovels":6403,"ĠStef":6404,"Ġcharts":6405,"Ġintroduction":6406,"Ġinterested":6407,"ĠCalvert":6408,"Ġholds":6409,"offman":6410,"Ġdiscussed":6411,"Ġdollars":6412,"Ġmushroom":6413,"ĠIsabella":6414,"ecess":6415,"host":6416,"town":6417,"var":6418,"erog":6419,"Ġworth":6420,"Ġcab":6421,"enge":6422,"Ġbaby":6423,"Ġpal":6424,"Ġpound":6425,"Ġmort":6426,"icial":6427,"Ġdie":6428,"ĠSound":6429,"Ġlic":6430,"elve":6431,"ĠML":6432,"ivity":6433,"ĠPope":6434,"ĠFar":6435,"ĠDar":6436,"ĠDNA":6437,"ĠDanny":6438,"ĠWall":6439,"ĠNBC":6440,"ĠJersey":6441,"Ġsector":6442,"rien":6443,"Ġvic":6444,"Ġvary":6445,"Ġvision":6446,"opher":6447,"ameter":6448,"ources":6449,"Ġagent":6450,"Ġoffers":6451,"angerous":6452,"Ġ66":6453,"Ġpublisher":6454,"oba":6455,"ajev":6456,"Ġ1948":6457,"Ġdescribing":6458,"Ġgeneration":6459,"Ġmoder":6460,"Ġ1917":6461,"Ġappearing":6462,"Ġmedieval":6463,"Ġfields":6464,"Ġstatement":6465,"Ġhistoric":6466,"Ġ1890":6467,"Ġcoastal":6468,"Ġpredecess":6469,"Ġelectric":6470,"Ġruled":6471,"Ġrules":6472,"Ġaccounts":6473,"Ġyounger":6474,"ĠWeekly":6475,"ĠSarajev":6476,"ĠLisa":6477,"ĠIndustry":6478,"ĠSarajevo":6479,"can":6480,"mans":6481,"Ã¨":6482,"intend":6483,"erted":6484,"orough":6485,"Ġcaught":6486,"Ġcinem":6487,"itors":6488,"ena":6489,"Ġtomb":6490,"ĠHo":6491,"ĠHard":6492,"ĠRay":6493,"ĠDaily":6494,"ĠLess":6495,"iful":6496,"Ġexpect":6497,"Ġexception":6498,"Ġplants":6499,"Ġarts":6500,"ube":6501,"ĠVol":6502,"Ġdesire":6503,"ĠYe":6504,"ĠYank":6505,"formation":6506,"attle":6507,"Ġsomeone":6508,"Ġapart":6509,"Ġsoil":6510,"Ġretire":6511,"Ġ1979":6512,"Ġ1951":6513,"Ġbasic":6514,"Ġeverything":6515,"Ġdiscovery":6516,"Ġdifficulty":6517,"Ġrecognition":6518,"Ġtribes":6519,"Ġzone":6520,"Ġforests":6521,"Ġrarely":6522,"Ġconsiderable":6523,"ĠStrand":6524,"ĠVictoria":6525,"Ġemotional":6526,"Ġninth":6527,"ĠDestiny":6528,"Ġarticle":6529,"Ġrestaurant":6530,"cribed":6531,"ĠStephen":6532,"ĠFrederick":6533,"ĠYankovic":6534,"OC":6535,"cop":6536,"ients":6537,"vis":6538,"Ġtaught":6539,"orer":6540,"itage":6541,"Ġbond":6542,"ĠTop":6543,"ĠAround":6544,"igades":6545,"Ġstore":6546,"ĠHell":6547,"othes":6548,"ĠPress":6549,"Ġconve":6550,"ĠGil":6551,"ĠEarl":6552,"ĠInit":6553,"Ġshore":6554,"Ġkings":6555,"Ġcontest":6556,"Ġmanner":6557,"Ġdisappe":6558,"Ġenl":6559,"Ġshel":6560,"Ġdoct":6561,"Ġ1961":6562,"Ġlanded":6563,"Ġ1954":6564,"ĠTelevision":6565,"Ġevening":6566,"Ġopponents":6567,"Ġreplacement":6568,"ĠAbb":6569,"Ġinvolvement":6570,"Ġpitch":6571,"graded":6572,"coming":6573,"Ġnomination":6574,"Ġspecifically":6575,"Ġchapel":6576,"Ġwooden":6577,"ĠResear":6578,"Ġcolonial":6579,"ĠJoe":6580,"Ġhotel":6581,"ĠSomali":6582,"Ġrhyth":6583,"ĠClarkson":6584,"Ġthirty":6585,"ĠRolling":6586,"ĠMozamb":6587,"Ġsudden":6588,"Brien":6589,"aire":6590,"cation":6591,"nest":6592,"rin":6593,"ym":6594,"ys":6595,"Ã¶":6596,"Ġfan":6597,"Ġfair":6598,"ingale":6599,"Ġmine":6600,"Ġhope":6601,"ĠSanta":6602,"ĠFame":6603,"ĠFlow":6604,"ĠDom":6605,"ĠDet":6606,"Ġconsequ":6607,"ĠNether":6608,"ĠLords":6609,"ĠJif":6610,"ateur":6611,"Ġimpr":6612,"Ġwealth":6613,"Ġ69":6614,"Ġsecured":6615,"ĠAnton":6616,"Ġ87":6617,"Ġsoft":6618,"Ġaccur":6619,"ĠLee":6620,"Ġ1937":6621,"Ġbelieves":6622,"ĠOrder":6623,"psons":6624,"Ġcommunities":6625,"ĠSimpsons":6626,"Ġdivine":6627,"ĠRoberts":6628,"aska":6629,"Ġpoems":6630,"ĠDuke":6631,"ĠSingles":6632,"ĠJerusal":6633,"ĠCampb":6634,"ĠSkye":6635,"Ġintersection":6636,"Ġcontroversy":6637,"Ġpicked":6638,"ĠColonel":6639,"ĠCastle":6640,"ĠWilde":6641,"Ġrecommended":6642,"Ġfungus":6643,"ĠBono":6644,"ĠFrancisco":6645,"ĠJifna":6646,"ĠJerusalem":6647,"LI":6648,"ao":6649,"eenth":6650,"nell":6651,"named":6652,"rations":6653,"theless":6654,"rets":6655,"reets":6656,"itled":6657,"Ġfaces":6658,"Ġmunicip":6659,"ĠTel":6660,"Ġlov":6661,"ĠMaster":6662,"ĠRÃ©":6663,"ĠFish":6664,"ĠDis":6665,"Ġconte":6666,"ĠWars":6667,"ava":6668,"Ġpros":6669,"Ġvan":6670,"ultane":6671,"Ġreleg":6672,"Ġwhereas":6673,"Ġsigning":6674,"Ġ1955":6675,"Ġextrem":6676,"ĠTrack":6677,"Ġstandards":6678,"Ġlegs":6679,"Ġjoint":6680,"ĠEliz":6681,"ĠHamilton":6682,"Ġappoint":6683,"Ġmissed":6684,"Ġlaunch":6685,"Ġdrawing":6686,"Ġvolunte":6687,"ĠÃĹ":6688,"ĠOlympics":6689,"Ġscholar":6690,"Ġconcerns":6691,"ĠMilitary":6692,"Ġleadership":6693,"Ġprincipal":6694,"Ġspecimens":6695,"ĠAdams":6696,"ĠTransport":6697,"ĠIndependent":6698,"ĠArgentina":6699,"Ġorganizations":6700,"Ġextremely":6701,"30":6702,"Ġsession":6703,"atures":6704,"Ġcard":6705,"amber":6706,"ĠCat":6707,"ĠCop":6708,"ĠCory":6709,"Ġgal":6710,"ĠBi":6711,"Ġstream":6712,"ĠHere":6713,"ceived":6714,"ĠRif":6715,"ĠFire":6716,"Ġconference":6717,"ĠWi":6718,"ĠWalk":6719,"Ġ1900":6720,"osure":6721,"avia":6722,"uma":6723,"istol":6724,"Ġexisted":6725,"Ġyouth":6726,"pton":6727,"Ġparties":6728,"Ġpartners":6729,"Ġteeth":6730,"Ġjazz":6731,"wealth":6732,"Ġspeech":6733,"Ġcommit":6734,"ĠMarc":6735,"Ġshowing":6736,"Ġdistributed":6737,"Ġ1958":6738,"ĠBeach":6739,"ĠForces":6740,"Ġapproached":6741,"Ġtries":6742,"ĠPrime":6743,"engers":6744,"Ġrelationships":6745,"Äģn":6746,"Ġtreaty":6747,"Ġdiameter":6748,"Ġthreatened":6749,"Ġsurrounded":6750,"Ġemerged":6751,"Ġchemical":6752,"ranean":6753,"ĠWriting":6754,"ĠBanai":6755,"Ġconnection":6756,"Ġeuropium":6757,"ez":6758,"gie":6759,"ipe":6760,"wise":6761,"Ġwants":6762,"Ġwrong":6763,"edom":6764,"alent":6765,"Ġpack":6766,"Ġpage":6767,"Ġhill":6768,"ĠSpring":6769,"add":6770,"acent":6771,"ĠMot":6772,"Ġstem":6773,"ĠHu":6774,"Ġalien":6775,"ĠFel":6776,"ĠWy":6777,"Ġshark":6778,"Ġleuk":6779,"ideos":6780,"Ġdisapp":6781,"ĠYan":6782,"Ġ79":6783,"Ġproduct":6784,"Ġ1949":6785,"Ġ1977":6786,"Ġdiscip":6787,"Ġstrateg":6788,"ĠCarter":6789,"ĠPlot":6790,"Ã©t":6791,"Ġsolid":6792,"Ġhistorians":6793,"Ġseeing":6794,"Ġcrossed":6795,"Ġfacing":6796,"Ġregularly":6797,"Ġconduct":6798,"ĠDepression":6799,"Ġrailway":6800,"Ġimmediate":6801,"Ġfiring":6802,"Ġfavorite":6803,"Ġhoped":6804,"Ġdocumentary":6805,"Ġinstitutions":6806,"Ġlbw":6807,"Ġalternative":6808,"Ġratings":6809,"ĠNorman":6810,"Ġexpedition":6811,"ĠRoger":6812,"Ġunusual":6813,"ĠModern":6814,"Ġisolated":6815,"Ġsynthes":6816,"ĠLennon":6817,"dal":6818,"inals":6819,"Ġsoul":6820,"union":6821,"atus":6822,"Ġcold":6823,"Ġbes":6824,"Ġinland":6825,"entions":6826,"owie":6827,"usad":6828,"ĠDA":6829,"ĠWW":6830,"ĠWat":6831,"ĠGoffman":6832,"abeth":6833,"Ġadmitted":6834,"oked":6835,"Ġscrap":6836,"Ġpartial":6837,"ĠUnlike":6838,"Ġregional":6839,"Ġassumed":6840,"Ġindig":6841,"Ġsym":6842,"Ġ121":6843,"iversary":6844,"Ġbright":6845,"Ġexpansion":6846,"Ġowner":6847,"Ġdesignation":6848,"Ġwarm":6849,"Ġpointed":6850,"ossible":6851,"ĠHergÃ©":6852,"Ġanniversary":6853,"Ġreviewer":6854,"Ġbreaking":6855,"Ġdemol":6856,"Ġstrongly":6857,"Ġchanging":6858,"Ġdetail":6859,"Ġdestroyers":6860,"Ġprotests":6861,"ombat":6862,"Ġtreated":6863,"ÃŃvar":6864,"Ġveget":6865,"Ġlanguages":6866,"Ġsequel":6867,"ooth":6868,"Ġmotor":6869,"Ġliterary":6870,"Ġexamples":6871,"Ġbringing":6872,"ĠJaneiro":6873,"Ġwatershed":6874,"ĠHuman":6875,"ĠBolÃŃvar":6876,"Ġmessage":6877,"Ġduties":6878,"ĠRyan":6879,"Ġprotagonist":6880,"ĠSaprang":6881,"ĠKilmer":6882,"Ġfranchise":6883,"friend":6884,"gas":6885,"rab":6886,"war":6887,"Ã¼":6888,"Ġtie":6889,"onica":6890,"Ġske":6891,"orters":6892,"Ġfish":6893,"ingly":6894,"Ġharm":6895,"ĠTrib":6896,"ĠTower":6897,"ĠAR":6898,"Ġeighth":6899,"ĠIron":6900,"imet":6901,"Ġstadium":6902,"ĠFern":6903,"ĠWimb":6904,"osite":6905,"ĠNap":6906,"Ġsections":6907,"Ġorchest":6908,"Ġchampion":6909,"ĠKat":6910,"ĠKel":6911,"Ġtra":6912,"ĠChief":6913,"Ġintention":6914,"ĠHearts":6915,"Ġaged":6916,"Ġoverw":6917,"ibl":6918,"Ġoutf":6919,"Ġmeets":6920,"aws":6921,"Ġretreat":6922,"Ġindicated":6923,"Ġ1983":6924,"Ġminister":6925,"ledon":6926,"Ġdepartment":6927,"Ġairline":6928,"Ġwinner":6929,"Ġapproved":6930,"Ġmarks":6931,"Ġdetailed":6932,"Ġgenre":6933,"Ġcoup":6934,"Ġimprove":6935,"Ġcircum":6936,"Ġengineering":6937,"Ġcompletion":6938,"Ġabsor":6939,"ĠLawton":6940,"Ġancest":6941,"Ġattracted":6942,"ĠBCE":6943,"Ġspecimen":6944,"Ġwearing":6945,"Ġrescue":6946,"ĠBurns":6947,"Ġeggs":6948,"Ġeasily":6949,"Ġacademic":6950,"ĠGeorgia":6951,"ĠResearch":6952,"ĠWimbledon":6953,"aug":6954,"eor":6955,"iour":6956,"know":6957,"nie":6958,"och":6959,"Ġur":6960,"Ġib":6961,"ona":6962,"Ġsun":6963,"orous":6964,"arp":6965,"ician":6966,"Ġhappy":6967,"ĠAD":6968,"ĠSquare":6969,"Ġlap":6970,"aments":6971,"ĠMid":6972,"ĠIV":6973,"Ġgather":6974,"ĠBul":6975,"ĠBase":6976,"ĠBank":6977,"ĠHung":6978,"ĠPerson":6979,"ĠWin":6980,"Ġru":6981,"allow":6982,"ockey":6983,"ĠStation":6984,"Ġtrail":6985,"pping":6986,"ogether":6987,"oking":6988,"ĠThird":6989,"ensus":6990,"ĠDev":6991,"Ġacknow":6992,"Ġmuscar":6993,"Ġaccused":6994,"Ġcoord":6995,"Ġemp":6996,"ĠGerard":6997,"Ġcarbon":6998,"ĠColor":6999,"Ġattempting":7000,"Ġeffectively":7001,"istered":7002,"Ġlooked":7003,"Ġreading":7004,"Ġsurviving":7005,"Ġpractices":7006,"Ġterritories":7007,"ĠRichardson":7008,"Ġcivilian":7009,"Ġtraveled":7010,"Ġfeeling":7011,"Ġassistant":7012,"ĠTerrit":7013,"ĠJean":7014,"Ġsettled":7015,"Ġchallenge":7016,"ĠSomalia":7017,"Ġconstitution":7018,"Ġencouraged":7019,"Ġterminus":7020,"Ġstarling":7021,"ĠRhodes":7022,"ĠCambridge":7023,"Ġadjacent":7024,"Ġcitiz":7025,"ban":7026,"bur":7027,"body":7028,"break":7029,"cape":7030,"mod":7031,"Ġsell":7032,"Ġfer":7033,"Ġbal":7034,"Ġmut":7035,"Ġdock":7036,"Ġthin":7037,"ĠSa":7038,"ĠSi":7039,"ĠSav":7040,"Ġnick":7041,"amm":7042,"ĠMortal":7043,"thy":7044,"Ġstreak":7045,"ĠRos":7046,"Ġraces":7047,"Ġvideos":7048,"illing":7049,"ewhat":7050,"Ġshots":7051,"ĠKombat":7052,"Ġcompounds":7053,"Ġrecre":7054,"Ġrecalled":7055,"Ġpartly":7056,"Ġpreced":7057,"Ġevil":7058,"ĠAniston":7059,"Ġ91":7060,"Ġ99":7061,"Ġ88":7062,"Ġunderw":7063,"Ġinterchange":7064,"Ġdecor":7065,"Ġcrest":7066,"Ġobtained":7067,"Ġ1910":7068,"Ġextreme":7069,"Ġpossession":7070,"Ġvisible":7071,"Ġstands":7072,"Ġ1909":7073,"Ġconvoy":7074,"ĠKeamy":7075,"Ġidentity":7076,"Ġ1880":7077,"Ġarmor":7078,"Ġseemed":7079,"Ġgrey":7080,"Ġpainted":7081,"Ġbrothers":7082,"Ġmulti":7083,"Ġtowers":7084,"Ġarrangement":7085,"ĠFormula":7086,"Ġrecovered":7087,"Ġscientific":7088,"ĠGarc":7089,"Ġinhabit":7090,"Ġcandidate":7091,"ĠJournal":7092,"ĠCommonwealth":7093,"Ġromantic":7094,"ĠAttorney":7095,"Ġagricultural":7096,"ĠJesus":7097,"ĠAdmiral":7098,"Ġsomewhat":7099,"Ġinspiration":7100,"bie":7101,"dess":7102,"Ġtone":7103,"Ġtheatre":7104,"Ġsan":7105,"Ġocean":7106,"isis":7107,"Ġhits":7108,"ĠTest":7109,"amin":7110,"Ġgall":7111,"ivals":7112,"thosaurus":7113,"ĠPine":7114,"ĠPower":7115,"emia":7116,"ĠWolf":7117,"ĠLanc":7118,"Ġhear":7119,"Ġselect":7120,"umps":7121,"Ġproceed":7122,"Ġshif":7123,"Ġcloud":7124,"Ġteach":7125,"achus":7126,"Ġspaces":7127,"ĠAnc":7128,"Ġrelative":7129,"ĠMarines":7130,"Ġverse":7131,"Ġfled":7132,"Ġacts":7133,"ropol":7134,"Ġpreserved":7135,"Ġ122":7136,"Ġmaint":7137,"ĠJohnston":7138,"Ġestate":7139,"ekÄģn":7140,"ĠGermans":7141,"Ġimplement":7142,"ĠFraser":7143,"ennis":7144,"Ġpassage":7145,"Ġ1931":7146,"Ġ1935":7147,"Ġ1912":7148,"ĠGuy":7149,"Ġfootage":7150,"ĠPoland":7151,"Ġequal":7152,"Ġconvin":7153,"Ġcatch":7154,"Ġcycle":7155,"Ġsuffering":7156,"ĠIslands":7157,"Ġreduce":7158,"Ġhosted":7159,"Ġfunds":7160,"Ġindustrial":7161,"ĠArabic":7162,"ĠEvery":7163,"Ġlinked":7164,"Ġspirit":7165,"ĠType":7166,"Ġsculpture":7167,"Ġbasketball":7168,"ĠPlunketts":7169,"ĠCorythosaurus":7170,"bishop":7171,"how":7172,"iary":7173,"rast":7174,"sewhere":7175,"vious":7176,"Ã¤":7177,"Ġere":7178,"Ġtailed":7179,"Ġau":7180,"Ġsessions":7181,"Ġsiege":7182,"Ġwars":7183,"unior":7184,"itals":7185,"arning":7186,"Ġps":7187,"Ġmis":7188,"Ġmap":7189,"Ġhip":7190,"illy":7191,"sta":7192,"Ġlob":7193,"ĠCE":7194,"ĠBos":7195,"using":7196,"ĠProte":7197,"Ġconqu":7198,"ĠNick":7199,"ĠNintend":7200,"ĠLoc":7201,"Ġdeck":7202,"ĠEc":7203,"peare":7204,"ĠInc":7205,"Ġchronic":7206,"abled":7207,"Ġlegend":7208,"Ġlearning":7209,"Ġunf":7210,"Ġdispl":7211,"Ġserial":7212,"ĠYour":7213,"ĠRele":7214,"aware":7215,"Ġflo":7216,"Ġincome":7217,"ĠLev":7218,"ificial":7219,"ĠShakes":7220,"Ġcontinuing":7221,"Ġexpensive":7222,"Ġprovince":7223,"Ġattacking":7224,"Ġ1932":7225,"ĠAllah":7226,"Ġreviewers":7227,"Ġopposite":7228,"Ġmedium":7229,"Ġdestruction":7230,"Ġdebate":7231,"attered":7232,"Ġtwelve":7233,"ĠExp":7234,"Ġcirculation":7235,"Ġresponsibility":7236,"Ġdefended":7237,"Ġstayed":7238,"Ġblocks":7239,"going":7240,"ĠHotel":7241,"ĠFIA":7242,"Ġequipped":7243,"Ġconcerned":7244,"Ġcontroversial":7245,"Ġadults":7246,"Ġcomposer":7247,"Ġincorporated":7248,"ĠPeninsula":7249,"Ġcorrect":7250,"ĠMarlborough":7251,"Ġdownload":7252,"erogative":7253,"ĠNintendo":7254,"ĠShakespeare":7255,"hm":7256,"ka":7257,"xts":7258,"ycl":7259,"yles":7260,"Ġic":7261,"onic":7262,"orious":7263,"Ġble":7264,"Ġbay":7265,"Ġinaug":7266,"Ġpric":7267,"Ġpushed":7268,"icts":7269,"Ġnone":7270,"uri":7271,"Ġgone":7272,"ĠPul":7273,"ĠFair":7274,"agas":7275,"Ġritual":7276,"ĠOwen":7277,"Ġproport":7278,"ĠKar":7279,"Ġreserve":7280,"Ġspin":7281,"Ġsongwrit":7282,"Ġpool":7283,"iamond":7284,"Ġdepos":7285,"inking":7286,"Ġpassengers":7287,"Ġwilling":7288,"Ġ1911":7289,"Ġdriving":7290,"ĠFei":7291,"Ġ1921":7292,"Ġ1929":7293,"ĠFlight":7294,"Ġlowest":7295,"Ġvictims":7296,"Ġpatrol":7297,"ĠPalace":7298,"ĠPalmy":7299,"Ġpromote":7300,"Ġmeetings":7301,"Ġcrossing":7302,"Ġaccommod":7303,"Ġfalling":7304,"Ġmeasures":7305,"stitution":7306,"Ġrebels":7307,"ĠLawrence":7308,"Ġobservations":7309,"Ġvoted":7310,"ĠPatrick":7311,"Ġthrowing":7312,"hews":7313,"ĠStanley":7314,"Ġremnants":7315,"Ġparallel":7316,"ĠConstruction":7317,"Ġinitiative":7318,"Ġkitsune":7319,"ĠNetherlands":7320,"burg":7321,"rant":7322,"ses":7323,"yard":7324,"zi":7325,"zen":7326,"inje":7327,"Ġsight":7328,"Ġcraft":7329,"itated":7330,"Ġinte":7331,"anning":7332,"Ġhat":7333,"ĠSweet":7334,"ĠChen":7335,"ĠCook":7336,"olay":7337,"ĠBert":7338,"iminal":7339,"ĠHospital":7340,"uscript":7341,"emeter":7342,"agn":7343,"Ġcomments":7344,"Ġexha":7345,"Ġplain":7346,"oca":7347,"ĠStory":7348,"ĠStock":7349,"ogen":7350,"onder":7351,"arked":7352,"formed":7353,"Ġ82":7354,"Ġflat":7355,"Ġacclaim":7356,"Ġretained":7357,"Ġdefences":7358,"Ġgross":7359,"Ġ162":7360,"Ġ1962":7361,"Ġreturns":7362,"Ġmusicians":7363,"Ġ1959":7364,"Ġgovernor":7365,"Ġ1938":7366,"Ġclassical":7367,"ĠGeoff":7368,"ĠOrgan":7369,"Ġinvolving":7370,"Ġrepresenting":7371,"Ġpatron":7372,"Ġequivalent":7373,"Ġgoddess":7374,"Ġpraise":7375,"ĠAtlanta":7376,"Ġwatch":7377,"Ġvillages":7378,"Ġpitcher":7379,"Ġdifficulties":7380,"Ġsuperior":7381,"Ġraise":7382,"ĠPlayer":7383,"Ġbiography":7384,"ĠQueens":7385,"Ġintensified":7386,"Ġobjects":7387,"ĠEmperor":7388,"Ġabsol":7389,"Ġunderstand":7390,"ĠPitman":7391,"Ġcarrying":7392,"Ġvessels":7393,"ĠKorean":7394,"Ġfixed":7395,"Ġbatsman":7396,"ĠGuardian":7397,"ĠCambodia":7398,"Ġoccasions":7399,"Ġhydro":7400,"Ġglobal":7401,"Ġethn":7402,"ĠStefani":7403,"ĠElizabeth":7404,"ĠGarcÃŃa":7405,"emetery":7406,"de":7407,"uct":7408,"wich":7409,"err":7410,"Ġsam":7411,"Ġsulf":7412,"Ġow":7413,"Ġcry":7414,"Ġfal":7415,"Ġfine":7416,"Ġmart":7417,"Ġdivers":7418,"entures":7419,"ĠCru":7420,"Ġonline":7421,"Ġgend":7422,"terbury":7423,"ĠBass":7424,"ĠHun":7425,"Ġalleg":7426,"Ġansw":7427,"ĠLab":7428,"ĠJoy":7429,"Ġsees":7430,"Ġray":7431,"ĠOur":7432,"Ġprohib":7433,"Ġorn":7434,"Ġexchange":7435,"ĠChannel":7436,"Ġresources":7437,"Ġju":7438,"Ġcommitted":7439,"Ġ74":7440,"Ġsimultane":7441,"ĠMega":7442,"ĠCanterbury":7443,"Ġperiods":7444,"ĠSpace":7445,"Ġcovers":7446,"Ġdefeating":7447,"pecies":7448,"Ġinfluences":7449,"ĠDesign":7450,"Ġdivisions":7451,"Ġlimit":7452,"Ġneeds":7453,"Ġaccompany":7454,"Ġmoral":7455,"Ġcollaps":7456,"Ġrenew":7457,"Ġreveals":7458,"ĠMediter":7459,"Ġescort":7460,"ĠEnterprise":7461,"Ġpurchase":7462,"Ġnarrative":7463,"Ġvoiced":7464,"Ġbehaviour":7465,"ĠPalestine":7466,"ĠAthletic":7467,"Ġcamera":7468,"Ġpreferred":7469,"Ġconcerts":7470,"ĠProtest":7471,"ĠAerith":7472,"ĠPhillies":7473,"Ġsurvivors":7474,"Ġcontext":7475,"ĠMediterranean":7476,"fare":7477,"graf":7478,"mine":7479,"rig":7480,"uilt":7481,"Ġtick":7482,"rel":7483,"Ġcul":7484,"Ġfold":7485,"esc":7486,"esi":7487,"ĠCorn":7488,"ĠMu":7489,"ĠMother":7490,"ĠBark":7491,"Ġash":7492,"ĠRaff":7493,"ĠRugby":7494,"ĠFurt":7495,"ĠDC":7496,"ĠDi":7497,"ĠWicc":7498,"ĠNow":7499,"ĠLate":7500,"ĠLink":7501,"ĠLabor":7502,"Ġrugby":7503,"resents":7504,"apped":7505,"ophy":7506,"atech":7507,"Ġexit":7508,"uda":7509,"ĠStop":7510,"elli":7511,"ureau":7512,"Ġclo":7513,"Ġagree":7514,"Ġfeather":7515,"Ġproducts":7516,"Ġformally":7517,"Ġfollowers":7518,"Ġincom":7519,"Ġ06":7520,"Ġ07":7521,"Ġ161":7522,"annah":7523,"Ġoperating":7524,"raph":7525,"Ġrepresents":7526,"ooking":7527,"ahl":7528,"Ġconsiders":7529,"ĠUSD":7530,"Ġrefers":7531,"Ġcovering":7532,"Ġelse":7533,"Ġelabor":7534,"Ġcriticised":7535,"Ġdetect":7536,"Ġdoesn":7537,"Ġsteel":7538,"Ġcloser":7539,"ĠChampionships":7540,"ĠMarkgraf":7541,"Ġtribut":7542,"Ġfeelings":7543,"Ġvisitors":7544,"Ġabsence":7545,"Ġnormally":7546,"Ġhundreds":7547,"Ġpupils":7548,"ĠSpecial":7549,"Ġlegislation":7550,"Ġdeployed":7551,"Ġarrested":7552,"Ġdialogue":7553,"Ġproposal":7554,"ĠGrammy":7555,"Ġrhythm":7556,"Ġmunicipal":7557,"ĠCathedral":7558,"ĠColorado":7559,"ĠRaffles":7560,"ĠFurtado":7561,"after":7562,"eke":7563,"math":7564,"organ":7565,"isms":7566,"esse":7567,"Ġbone":7568,"Ġbrick":7569,"Ġpure":7570,"Ġdim":7571,"Ġdens":7572,"Ġdiet":7573,"Ġet":7574,"ĠCab":7575,"urday":7576,"ĠMel":7577,"iders":7578,"Ġstable":7579,"otic":7580,"ĠPA":7581,"ĠDark":7582,"ĠGib":7583,"agu":7584,"Ġdeem":7585,"ĠUsta":7586,"Ġreconna":7587,"ĠAlong":7588,"Ġmanuscript":7589,"ĠReal":7590,"Ġfeed":7591,"Ġ93":7592,"Ġprerogative":7593,"Ġforming":7594,"Ġamino":7595,"Ġsurpr":7596,"Ġ166":7597,"ĠSholay":7598,"Ġinfrast":7599,"ullen":7600,"ĠTechn":7601,"Ġextent":7602,"Ġclassic":7603,"Ġtrading":7604,"Ġskull":7605,"Ã¡r":7606,"Ġhyp":7607,"Ġbiographer":7608,"Ġpoorly":7609,"Ġstationed":7610,"ĠImperial":7611,"Ġdisplays":7612,"ĠPrior":7613,"Ġensure":7614,"Ġmoments":7615,"Ġoption":7616,"Ġinternal":7617,"Ġdrums":7618,"ĠKrak":7619,"Ġinterpret":7620,"ĠSaturday":7621,"ĠDominican":7622,"ĠNHL":7623,"Ġsubmarine":7624,"Ġresearchers":7625,"Ġreconstruction":7626,"Ġconvection":7627,"ĠFernand":7628,"Ġmuscaria":7629,"ĠUstaÅ¡":7630,"Ġreconnaissance":7631,"eper":7632,"ias":7633,"vention":7634,"Ġsunk":7635,"Ġswe":7636,"Ġsaves":7637,"Ġwings":7638,"Ġcreek":7639,"Ġbat":7640,"Ġblow":7641,"ĠTig":7642,"ĠTreat":7643,"ĠSher":7644,"state":7645,"Ġlose":7646,"Ġlists":7647,"ĠCape":7648,"ĠBed":7649,"Ġstreets":7650,"ĠHou":7651,"ĠHob":7652,"ĠFree":7653,"ĠDur":7654,"eman":7655,"Ġorbit":7656,"ĠKit":7657,"Ġintense":7658,"Ġ89":7659,"ĠMarg":7660,"Ġverte":7661,"Ġappropri":7662,"Ġ05":7663,"Ġentitled":7664,"Ġtransition":7665,"Ġuseful":7666,"ĠBlood":7667,"Ġmodified":7668,"Ġannually":7669,"Ġdriven":7670,"Ġextension":7671,"Ġconstruct":7672,"Ġinfluential":7673,"encies":7674,"Ġposted":7675,"ĠMaggie":7676,"ĠRecord":7677,"ĠMexican":7678,"ĠMedia":7679,"Ġinjuries":7680,"Ġwithdrew":7681,"Ġmemory":7682,"Ġcruiser":7683,"ĠFIFA":7684,"Ġunderstanding":7685,"Ġdramatic":7686,"Ġpurposes":7687,"iques":7688,"Ġdynasty":7689,"ĠDAG":7690,"Ġoverwhel":7691,"CA":7692,"ds":7693,"rine":7694,"sch":7695,"vements":7696,"vati":7697,"Åį":7698,"Ġtight":7699,"Ġtank":7700,"Ġtests":7701,"inet":7702,"onomy":7703,"real":7704,"rell":7705,"Ġsaved":7706,"aten":7707,"ora":7708,"oral":7709,"Ġchess":7710,"icop":7711,"Ġdinosaur":7712,"Ġhang":7713,"lete":7714,"Ġrepr":7715,"Ġloy":7716,"ĠCult":7717,"ĠMah":7718,"ĠBron":7719,"ĠHud":7720,"ĠHok":7721,"ĠHind":7722,"ĠFront":7723,"Ġcong":7724,"uls":7725,"ĠNichol":7726,"ĠJenn":7727,"Ġrated":7728,"Ġrates":7729,"Ġridge":7730,"rif":7731,"Ġvac":7732,"Ġorb":7733,"Ġchoir":7734,"Ġexcess":7735,"Ġplane":7736,"pty":7737,"ĠVII":7738,"Ġclock":7739,"Ġago":7740,"Ġotherwise":7741,"Ġspoke":7742,"Ġ63":7743,"mann":7744,"Ġ900":7745,"Ġwritings":7746,"Ġactual":7747,"Ġammun":7748,"Ġseverely":7749,"Ġoriginated":7750,"Ġshipping":7751,"Ġinstalled":7752,"Ġgenerated":7753,"Ġexposure":7754,"Ġhelicop":7755,"Ġrestrict":7756,"Ġ1928":7757,"Ġengines":7758,"Ġdemand":7759,"Ġsuggesting":7760,"Ġframe":7761,"ĠParvati":7762,"Ġfactors":7763,"Ġinterests":7764,"Ġwatching":7765,"Ġreaders":7766,"ĠTownship":7767,"restling":7768,"Ġcrosses":7769,"Ġburned":7770,"Ġinformed":7771,"Ġkingdom":7772,"Ġmaterials":7773,"ĠIsraeli":7774,"Ġsatisf":7775,"ĠNorway":7776,"Ġessential":7777,"Ġsubspecies":7778,"Ġapparently":7779,"Ġjournalist":7780,"Ġdoubt":7781,"ĠMassachus":7782,"Ġhappened":7783,"Ġpanel":7784,"Ġpicture":7785,"Ġcustom":7786,"Ġchairman":7787,"Ġjackrab":7788,"ĠEducation":7789,"ĠRÃ©union":7790,"Ġcircumstances":7791,"ĠBarker":7792,"Ġammunition":7793,"ĠMassachusetts":7794,"gency":7795,"mn":7796,"ni":7797,"rants":7798,"á»":7799,"Ġille":7800,"heera":7801,"Ġcart":7802,"Ġciting":7803,"Ġfestival":7804,"ĠTon":7805,"Ġready":7806,"ĠAld":7807,"ilst":7808,"ĠSports":7809,"ĠCec":7810,"acle":7811,"ĠHamp":7812,"ĠHaving":7813,"utz":7814,"ĠFound":7815,"ĠGary":7816,"ĠGwen":7817,"aga":7818,"ĠEaton":7819,"ĠInt":7820,"ateau":7821,"ables":7822,"ĠKann":7823,"oven":7824,"raham":7825,"Ġclimate":7826,"Ġrecur":7827,"Ġpartially":7828,"Ġdisaster":7829,"Ġearn":7830,"Ġrelie":7831,"Ġcancer":7832,"Ġmovements":7833,"Ġeleven":7834,"ĠBranch":7835,"Ġbelt":7836,"Ġoperate":7837,"Ġgenerals":7838,"Ġimpossible":7839,"Ġcarved":7840,"Ġlatex":7841,"ĠGuide":7842,"Ġlisten":7843,"urricanes":7844,"Ġ1927":7845,"Ġcauses":7846,"ĠPeters":7847,"Ġparish":7848,"ĠMinistry":7849,"Ġvictories":7850,"ĠXe":7851,"ĠFederal":7852,"ĠRichmond":7853,"Ġmixture":7854,"Ġsurvive":7855,"ĠCorpor":7856,"Ġburning":7857,"ĠWilson":7858,"Ġtransportation":7859,"ĠPortugal":7860,"Ġlayer":7861,"Ġbombard":7862,"Ġadministr":7863,"Ġshells":7864,"Ġinstruments":7865,"Ġstarlings":7866,"Ġbehavior":7867,"ĠHistoric":7868,"Ġdeparture":7869,"ĠRAAF":7870,"ĠSwedish":7871,"tavÄģda":7872,"Ġsubstantial":7873,"Ġoverseas":7874,"ĠPatty":7875,"Ġresistance":7876,"ekÄģntavÄģda":7877,"ĠUstaÅ¡e":7878,"ĠKannada":7879,"OK":7880,"life":7881,"pes":7882,"pent":7883,"yria":7884,"zac":7885,"Ê»":7886,"Ġsquadron":7887,"Ġwine":7888,"Ġdangerous":7889,"lets":7890,"iling":7891,"ĠSis":7892,"Ġlover":7893,"Ġliber":7894,"ĠCBS":7895,"Ġwasn":7896,"Ġbearing":7897,"urse":7898,"ĠMand":7899,"ĠMidge":7900,"ĠMasters":7901,"ĠMÃ¡r":7902,"ĠBall":7903,"ĠBaker":7904,"ĠBureau":7905,"ithic":7906,"ĠPass":7907,"ĠPict":7908,"chang":7909,"andoba":7910,"osl":7911,"osm":7912,"ĠElect":7913,"ĠEagle":7914,"Ġshut":7915,"aste":7916,"teenth":7917,"Ġunlike":7918,"Ġrooms":7919,"Ġabund":7920,"Ġresigned":7921,"ricted":7922,"Ġafterwards":7923,"Ġspores":7924,"ĠYug":7925,"Ġspend":7926,"Ġcommem":7927,"Ġconsc":7928,"Ġamateur":7929,"Ġsupporters":7930,"Ġinstance":7931,"Ġmusician":7932,"Ġmodels":7933,"Ġ1933":7934,"Ġrestored":7935,"Ġmarry":7936,"Ġlisting":7937,"Ġphr":7938,"quez":7939,"Ġtemples":7940,"Ġcompete":7941,"ĠSimpson":7942,"ĠPolice":7943,"Ġinteresting":7944,"Ġlooks":7945,"Ġtechniques":7946,"Ġelectronic":7947,"Ġ1860":7948,"Ġsequences":7949,"Ġengineers":7950,"Ġthinking":7951,"ĠKhandoba":7952,"Ġtribute":7953,"Ġloan":7954,"Ġpersu":7955,"Ġestablishing":7956,"Ġdocuments":7957,"forced":7958,"itzer":7959,"ĠVeronica":7960,"ĠHowe":7961,"rorist":7962,"ASA":7963,"Ġopportunities":7964,"Ġstruggle":7965,"Ġwindows":7966,"Ġpremiered":7967,"Ġbeautiful":7968,"ĠStewart":7969,"ĠYanke":7970,"ĠMÃ¡rquez":7971,"ĠYugosl":7972,"DH":7973,"Hg":7974,"MO":7975,"nal":7976,"pus":7977,"sp":7978,"uv":7979,"western":7980,"Ġtip":7981,"Ġsale":7982,"Ġfram":7983,"ĠinHg":7984,"Ġpale":7985,"Ġmode":7986,"roit":7987,"leph":7988,"ĠTam":7989,"entional":7990,"ĠAP":7991,"ĠSoon":7992,"omura":7993,"ĠThen":7994,"Ġgard":7995,"Ġforcing":7996,"ĠBath":7997,"otton":7998,"ĠRoc":7999,"ĠFRE":8000,"ĠWright":8001,"osis":8002,"ĠNad":8003,"ĠNiel":8004,"ĠLith":8005,"ĠLast":8006,"Ġheat":8007,"ĠJr":8008,"Ġprove":8009,"ĠâĤ":8010,"Ġnotably":8011,"iped":8012,"ishment":8013,"Ġunion":8014,"Ġrecru":8015,"ryce":8016,"Ġoutl":8017,"rene":8018,"Ġ68":8019,"Ġremember":8020,"Ġinteraction":8021,"Ġsubst":8022,"roscop":8023,"Ġminimum":8024,"Ġartwork":8025,"Ġartificial":8026,"ĠWho":8027,"Ġdesigns":8028,"Ġoffices":8029,"Ġ1957":8030,"Ġadvis":8031,"Ġadventure":8032,"Ġstorms":8033,"onto":8034,"Ġcriminal":8035,"Ġsituated":8036,"Ġelsewhere":8037,"Ġdivor":8038,"Ġpredomin":8039,"Ġrecognised":8040,"Ġachieve":8041,"ĠPhilip":8042,"Ġmerch":8043,"ĠToronto":8044,"Ġproperties":8045,"Ġmemorial":8046,"Ġcoins":8047,"Ġexperiences":8048,"ĠJustice":8049,"Ġweapon":8050,"ĠRobin":8051,"Ġspiritual":8052,"ĠMiller":8053,"Ġthousand":8054,"Ġneighbor":8055,"Ġvessel":8056,"ĠGirls":8057,"ĠJurchen":8058,"ĠPhoenix":8059,"ĠMulder":8060,"Ġretirement":8061,"ĠMozambique":8062,"ĠDetroit":8063,"LIMO":8064,"Ġacknowled":8065,"atechism":8066,"ĠFRELIMO":8067,"cru":8068,"iar":8069,"ÅĽ":8070,"áĥ":8071,"Ġáĥ":8072,"Ġtiss":8073,"Ġtanks":8074,"heme":8075,"Ġsons":8076,"orrow":8077,"Ġfountain":8078,"Ġmask":8079,"icide":8080,"ĠTs":8081,"Ġrect":8082,"ĠSb":8083,"ĠSans":8084,"omatic":8085,"ĠCob":8086,"ĠCelt":8087,"ĠIra":8088,"Ġgiant":8089,"ĠBell":8090,"ĠBang":8091,"ĠBenn":8092,"ĠPoint":8093,"ĠRest":8094,"ĠRaj":8095,"Ġconj":8096,"ĠNetwork":8097,"Ġselection":8098,"Ġvast":8099,"aka":8100,"Ġshop":8101,"ĠKim":8102,"ĠKansas":8103,"order":8104,"ears":8105,"Ġtrained":8106,"ĠVice":8107,"Ġresign":8108,"Ġagents":8109,"Ġattrib":8110,"Ġ67":8111,"ĠSee":8112,"ĠSeason":8113,"ĠDeath":8114,"Ġformat":8115,"Ġfounder":8116,"atherine":8117,"ĠScully":8118,"Ġobst":8119,"Ġdepicts":8120,"Ġinstru":8121,"Ġcounties":8122,"Ġcharacterized":8123,"ĠProg":8124,"pended":8125,"Ġengage":8126,"ĠManagement":8127,"Ġstarred":8128,"Ġformerly":8129,"Ġwestward":8130,"ĠMinor":8131,"ĠPerfect":8132,"Ġfrig":8133,"Ġstatistics":8134,"ĠBarry":8135,"Ġprogramme":8136,"Ġradiation":8137,"ĠKevin":8138,"Ġ1850":8139,"Ġfallen":8140,"Ġmeasured":8141,"Ġcosts":8142,"Ġburial":8143,"Ġcopy":8144,"Ġobjective":8145,"Ġnetworks":8146,"ĠMoore":8147,"ĠRussia":8148,"Ġcleared":8149,"Ġcheck":8150,"Ġbiggest":8151,"Ġdepending":8152,"Ġphotograph":8153,"Ġinstitution":8154,"Ġvehicle":8155,"Ġremarked":8156,"Ġexcavation":8157,"Ġholiday":8158,"ĠJourney":8159,"ĠAlbums":8160,"Ġdelayed":8161,"ĠColeman":8162,"umption":8163,"ĠBulls":8164,"ĠGilbert":8165,"ĠWiÅĽ":8166,"owiecki":8167,"Ġconvinced":8168,"Ġpsych":8169,"Ġinfrastructure":8170,"ĠHudson":8171,"niowiecki":8172,"ĠWiÅĽniowiecki":8173,"hist":8174,"mel":8175,"nce":8176,"oe":8177,"uable":8178,"Äĩ":8179,"heim":8180,"hered":8181,"eratops":8182,"Ġsed":8183,"Ġmamm":8184,"Ġdream":8185,"Ġhorn":8186,"ĠSid":8187,"ĠSuch":8188,"ĠBudd":8189,"Ġstyles":8190,"otal":8191,"ĠGate":8192,"Ġrum":8193,"Ġrivers":8194,"ategy":8195,"akota":8196,"ĠStories":8197,"Ġcompound":8198,"ruz":8199,"assador":8200,"Ġresidence":8201,"Ġplayoff":8202,"Ġimpl":8203,"amps":8204,"ĠAnzac":8205,"oyage":8206,"ĠArsenal":8207,"Ġ84":8208,"Ġ86":8209,"Ġconservation":8210,"Ġformal":8211,"Ġdecides":8212,"Ġdescribe":8213,"ĠWarren":8214,"Ġinscription":8215,"Ġhelmet":8216,"Ġ140":8217,"Ġrestoration":8218,"ĠCanal":8219,"Ġdifferences":8220,"ĠGray":8221,"ĠRoth":8222,"Ġ1926":8223,"Ġopponent":8224,"Ġcrake":8225,"Ġclaiming":8226,"Ġskills":8227,"ĠMagdal":8228,"Ġpredators":8229,"Ġaudiences":8230,"Ġclosest":8231,"criptions":8232,"Ġdetermine":8233,"Ġclearly":8234,"Ġhousing":8235,"Ġrailroad":8236,"ĠRepublican":8237,"Ġdisplayed":8238,"ĠOscar":8239,"avalry":8240,"Ġvote":8241,"ĠMrs":8242,"ĠTrek":8243,"Ġsafe":8244,"ĠOriginally":8245,"Ġranging":8246,"Ġhunting":8247,"ĠSilver":8248,"ĠNevertheless":8249,"ĠMemorial":8250,"Ġreservoir":8251,"Ġreinforcements":8252,"Ġbenefit":8253,"Ġcrops":8254,"ĠPersian":8255,"Ġpredecessor":8256,"ĠInitially":8257,"ĠTerritory":8258,"Ġcitizens":8259,"ĠOrganization":8260,"Ġfeathers":8261,"ĠHokies":8262,"Mal":8263,"boy":8264,"ef":8265,"lie":8266,"piece":8267,"rates":8268,"rating":8269,"tic":8270,"wald":8271,"onia":8272,"rees":8273,"Ġsung":8274,"itt":8275,"Ġtoll":8276,"icate":8277,"Ġdipl":8278,"leged":8279,"ĠAz":8280,"oming":8281,"ĠCategory":8282,"ĠISB":8283,"ĠRain":8284,"Ġalleged":8285,"ĠDiv":8286,"aints":8287,"Ġprol":8288,"iform":8289,"abil":8290,"ĠChagas":8291,"ĠValk":8292,"Ġadm":8293,"Ġteen":8294,"Ġattained":8295,"ĠUntil":8296,"ĠComb":8297,"Ġregiment":8298,"Ġcooper":8299,"Ġthereafter":8300,"Ġgrown":8301,"Ġelections":8302,"Ġenth":8303,"rosaur":8304,"Ġteamm":8305,"Ġinstall":8306,"yline":8307,"Ġanyone":8308,"Ġcargo":8309,"ĠBeh":8310,"Ġpromised":8311,"Ġrestricted":8312,"Ġchildhood":8313,"Ġpossess":8314,"Ġarrive":8315,"Ġslide":8316,"Ġcommandment":8317,"iveness":8318,"Ġtemporary":8319,"ĠAbby":8320,"shore":8321,"Ġrepresentative":8322,"Ġ1905":8323,"sequently":8324,"Ġannounce":8325,"Ġgrounds":8326,"Ġfuner":8327,"Ġranking":8328,"ucky":8329,"Ġerr":8330,"Ġargues":8331,"ĠRocky":8332,"Ġdefending":8333,"Ġruling":8334,"Ġperspective":8335,"ĠTurks":8336,"Ġadaptation":8337,"Ġdegrees":8338,"ĠVictorian":8339,"Ġbadly":8340,"Ġmagnitude":8341,"Ġscientists":8342,"ĠConfeder":8343,"ĠCommunist":8344,"Ġranges":8345,"Ġpreparation":8346,"Ġthrone":8347,"ĠChapel":8348,"Ġtunnel":8349,"ĠJonathan":8350,"Ġprompted":8351,"ĠLeslie":8352,"ĠLegacy":8353,"Ġexclusively":8354,"ĠMathews":8355,"Ġastronom":8356,"Ġmoderate":8357,"Ġimprison":8358,"ĠKelly":8359,"ĠExpress":8360,"ĠProtestant":8361,"Malley":8362,"ĠISBN":8363,"ĠValkyria":8364,"AT":8365,"CC":8366,"DS":8367,"EFA":8368,"aun":8369,"burn":8370,"fess":8371,"put":8372,"yer":8373,"inery":8374,"Ġtheater":8375,"rec":8376,"Ġsad":8377,"Ġster":8378,"Ġsisters":8379,"Ġcake":8380,"Ġcaves":8381,"Ġbed":8382,"Ġbones":8383,"inger":8384,"Ġmoon":8385,"icit":8386,"icia":8387,"Ġdwar":8388,"Ġhuge":8389,"ĠSle":8390,"Ġeasy":8391,"Ġnav":8392,"Ġnurse":8393,"eline":8394,"adheera":8395,"Ġbear":8396,"Ġgates":8397,"ola":8398,"olen":8399,"owa":8400,"ĠHope":8401,"uses":8402,"ĠDave":8403,"ĠDyn":8404,"ĠGun":8405,"ĠLover":8406,"Ġdeity":8407,"Ġdeleg":8408,"Ġexists":8409,"ĠâĢľ":8410,"ĠUEFA":8411,"ĠStal":8412,"ishn":8413,"ĠVul":8414,"Ġclim":8415,"Ġresumed":8416,"Ġ58":8417,"Ġdesert":8418,"Ġmanga":8419,"Ġenh":8420,"Ġoutbreak":8421,"ternal":8422,"Ġ78":8423,"ĠAsh":8424,"Ġrelation":8425,"Ġconsol":8426,"Ġcharged":8427,"Ġprime":8428,"Ġ08":8429,"Ġdecay":8430,"Ġpoison":8431,"ĠShow":8432,"Ġ178":8433,"Ġreprodu":8434,"Ġnorthward":8435,"ĠPlat":8436,"ĠAllen":8437,"ĠProfess":8438,"Ġexplains":8439,"gery":8440,"Ġhandled":8441,"ĠMcL":8442,"Ġmyst":8443,"Ġeveryone":8444,"Ġtwin":8445,"braska":8446,"alymp":8447,"Ġbands":8448,"ĠParalymp":8449,"ĠEvent":8450,"ĠNebraska":8451,"Ġsky":8452,"ĠMagadheera":8453,"Ġsteam":8454,"Ġengineer":8455,"Ġinjured":8456,"Ġamounts":8457,"Ġcolonies":8458,"rupted":8459,"Ġboundary":8460,"Ġcelebrated":8461,"ĠWaterfall":8462,"Ġarchitecture":8463,"ĠOutstanding":8464,"Ġcorner":8465,"Ġadvertising":8466,"ĠCheval":8467,"ĠDemocratic":8468,"Ġutil":8469,"Ġrifle":8470,"ĠBrooks":8471,"Ġbulk":8472,"Ġstrengthened":8473,"Ġinhabitants":8474,"Ġerected":8475,"ĠBertin":8476,"Ġethnic":8477,"Ġdeemed":8478,"ĠTreaty":8479,"ĠIraq":8480,"Ġdwarf":8481,"SA":8482,"gov":8483,"kh":8484,"night":8485,"ris":8486,"Ġtack":8487,"Ġturb":8488,"Ġaw":8489,"Ġwet":8490,"Ġcars":8491,"Ġfate":8492,"Ġfant":8493,"Ġbell":8494,"Ġbind":8495,"Ġbanned":8496,"Ġinse":8497,"Ġdraf":8498,"ĠTro":8499,"Ġrever":8500,"Ġlake":8501,"omtav":8502,"ĠCatechism":8503,"urrent":8504,"ĠMuch":8505,"Ġgarrison":8506,"ĠHor":8507,"ĠPryce":8508,"ĠRem":8509,"emies":8510,"osom":8511,"ĠNash":8512,"Ġanth":8513,"ĠLang":8514,"Ġrib":8515,"ifies":8516,"illed":8517,"apse":8518,"uez":8519,"okovic":8520,"ĠHeaven":8521,"ĠThus":8522,"Ġscattered":8523,"Ġpartner":8524,"Ġtexts":8525,"weight":8526,"ĠUnivers":8527,"ĠAsomtav":8528,"ĠArk":8529,"Ġcanc":8530,"Ġrecordings":8531,"Ġproductions":8532,"Ġsubstitute":8533,"rophy":8534,"Ġenters":8535,"Ġ165":8536,"Ġmonuments":8537,"Ġ113":8538,"Ġexposed":8539,"Ġlandings":8540,"Ġdesigner":8541,"Ġwarning":8542,"Ġinscriptions":8543,"ĠBeet":8544,"Ġstrategy":8545,"ĠHerze":8546,"rows":8547,"Ġdriver":8548,"ĠTracy":8549,"Ġdifference":8550,"plete":8551,"Ġ1924":8552,"Ġ1925":8553,"Ġbreed":8554,"Ġdemands":8555,"Ġprofile":8556,"ĠDavis":8557,"Ġpriest":8558,"Ġsteep":8559,"Ġcondem":8560,"apping":8561,"Ġsupern":8562,"Ġfundament":8563,"ĠHarold":8564,"ĠMadrid":8565,"ĠBusiness":8566,"Ġexecuted":8567,"ĠEmmy":8568,"Ġprevented":8569,"Ġdominant":8570,"Ġsettlements":8571,"Ġuncertain":8572,"ĠDjokovic":8573,"Ġjudge":8574,"ASP":8575,"Ġpursue":8576,"Ġgraphics":8577,"Ġdemonstrated":8578,"Ġexcavations":8579,"Ġdistinctive":8580,"Ġturrets":8581,"iggs":8582,"otype":8583,"Ġtactics":8584,"ĠRailway":8585,"Ġapplication":8586,"Ġdistinguished":8587,"ĠRifles":8588,"eorological":8589,"ĠYankees":8590,"ĠNielsen":8591,"govina":8592,"ĠAsomtavruli":8593,"ĠHerzegovina":8594,"AC":8595,"EC":8596,"ij":8597,"mouth":8598,"noon":8599,"rus":8600,"uen":8601,"Ġtenth":8602,"Ġaster":8603,"inian":8604,"Ġpine":8605,"Ġpounds":8606,"Ġmbar":8607,"Ġrevers":8608,"oux":8609,"ilation":8610,"Ġforty":8611,"oli":8612,"ĠBible":8613,"imal":8614,"Ġstood":8615,"otten":8616,"ĠWomen":8617,"ĠNL":8618,"ĠLower":8619,"avel":8620,"rior":8621,"Ġcomed":8622,"ifer":8623,"Ġsure":8624,"arte":8625,"udes":8626,"ĠKong":8627,"Ġtrust":8628,"ĠVe":8629,"ĠVeer":8630,"ignment":8631,"Ġusage":8632,"ĠThose":8633,"Ġscheme":8634,"Ġafternoon":8635,"Ġoffs":8636,"Ġcenters":8637,"Ġfee":8638,"Ġfeels":8639,"Ġconsult":8640,"Ġcharity":8641,"ĠDean":8642,"Ġreleases":8643,"Ġassisted":8644,"ĠShel":8645,"fully":8646,"Ġsmooth":8647,"Ġdowntown":8648,"azines":8649,"Ġconsidering":8650,"Ġedges":8651,"Ġ1934":8652,"ĠClin":8653,"Ġdrain":8654,"Ġportrait":8655,"Ġapproval":8656,"Ġtriple":8657,"ĠMcG":8658,"Ġinitiated":8659,"Ġamongst":8660,"Ġmagazines":8661,"Ġfrust":8662,"Ġsounds":8663,"ĠGlob":8664,"ĠAnglo":8665,"Ġliked":8666,"ĠBerlin":8667,"ĠJews":8668,"ĠMadison":8669,"Ġdefenders":8670,"ĠCongo":8671,"Ġsubjects":8672,"Ġarchaeologist":8673,"Ġindicating":8674,"Ġceratops":8675,"Ġsatell":8676,"ĠOverall":8677,"Ġtournaments":8678,"Ġemergency":8679,"Ġinnov":8680,"Ġsuspended":8681,"ĠTennesse":8682,"Ġboxing":8683,"Ġtranslation":8684,"Ġsucceed":8685,"ĠOriginal":8686,"ĠIndependence":8687,"Ġsacred":8688,"Ġduty":8689,"ĠGallery":8690,"Ġcollaboration":8691,"Ġaltered":8692,"Ġpremiere":8693,"Ġstriking":8694,"Ġphilosophy":8695,"chell":8696,"ĠAlfred":8697,"ĠMurray":8698,"Ġresidential":8699,"Ġelder":8700,"borne":8701,"Ġfalse":8702,"Ġmartial":8703,"ĠHouston":8704,"Ġcongreg":8705,"ĠCorporation":8706,"Ġcommemor":8707,"ĠCeltic":8708,"Ġasteroid":8709,"ĠTennessee":8710,"cake":8711,"ois":8712,"pic":8713,"Ġtale":8714,"Ġcous":8715,"Ġfert":8716,"Ġbod":8717,"Ġbishop":8718,"Ġtoured":8719,"ĠAman":8720,"ĠAuth":8721,"ilty":8722,"ĠSAS":8723,"Ġlam":8724,"Ġnations":8725,"amount":8726,"ĠMach":8727,"ĠBat":8728,"ote":8729,"utor":8730,"Ġconclusion":8731,"ĠWag":8732,"ĠNaval":8733,"ĠNDH":8734,"agine":8735,"ĠEsh":8736,"Ġchamber":8737,"sex":8738,"ĠKen":8739,"ĠKurt":8740,"ellar":8741,"Ġroots":8742,"oko":8743,"ffield":8744,"ĠOntar":8745,"Ġ92":8746,"ĠMariana":8747,"Ġflash":8748,"ologies":8749,"Ġ09":8750,"Ġ101":8751,"ĠSheffield":8752,"Ġobl":8753,"Ġpoll":8754,"Ġreceives":8755,"Ġimpressed":8756,"ĠFran":8757,"ervative":8758,"Ġvariation":8759,"Ġguilty":8760,"ĠGrade":8761,"Ġexplo":8762,"Ġcolleagues":8763,"Ġ1000":8764,"Ġcrisis":8765,"Ġrealized":8766,"Ġcommunication":8767,"Ġdeliber":8768,"ĠRomanian":8769,"Ġordering":8770,"Ġnortheastern":8771,"ĠXenon":8772,"encing":8773,"Ġ1908":8774,"ĠNext":8775,"Ġbattlecru":8776,"Ġreducing":8777,"Ġfifty":8778,"ĠSwiss":8779,"Ġrespective":8780,"Ġreveal":8781,"Ġcrews":8782,"Ġrebuilt":8783,"Ġ1870":8784,"Ġviolent":8785,"Ġquarterback":8786,"ĠImagine":8787,"Ġoccupation":8788,"Ġtesting":8789,"ĠAgain":8790,"ĠPriest":8791,"Ġfrequent":8792,"Ġadopt":8793,"ĠFinals":8794,"ĠMountains":8795,"ĠBelg":8796,"Ġschedule":8797,"Ġrequested":8798,"Ġtalking":8799,"ĠHawaii":8800,"Ġmanufactur":8801,"ĠConservation":8802,"Ġdefinition":8803,"Ġdelivery":8804,"ĠGiants":8805,"Ġfatal":8806,"ĠVillage":8807,"Ġeliminated":8808,"ĠCubs":8809,"burgh":8810,"ĠRelease":8811,"Ġsimultaneously":8812,"ĠWicca":8813,"ĠChevaliers":8814,"ĠWagner":8815,"ĠEshmun":8816,"ĠOntario":8817,"ait":8818,"don":8819,"gars":8820,"jamin":8821,"oes":8822,"tah":8823,"yo":8824,"Ã§":8825,"nda":8826,"Ġcup":8827,"Ġpull":8828,"rog":8829,"ĠAce":8830,"ĠABC":8831,"Ġnet":8832,"Ġnurs":8833,"ĠCP":8834,"ellect":8835,"adier":8836,"ĠMant":8837,"Ġgets":8838,"ĠBah":8839,"Ġstrict":8840,"ĠHarrison":8841,"ĠPle":8842,"ĠRhys":8843,"ĠDig":8844,"ĠDog":8845,"ĠDakota":8846,"ĠNS":8847,"ĠGhost":8848,"aganda":8849,"Ġsend":8850,"ĠOreg":8851,"ĠOmar":8852,"Ġvul":8853,"oples":8854,"Ġyield":8855,"ĠStav":8856,"Ġtrick":8857,"Ġcomponents":8858,"Ġintellect":8859,"Ġclin":8860,"Ġupset":8861,"Ġspur":8862,"ĠAnne":8863,"ĠAsian":8864,"Ġpeaking":8865,"ĠLeigh":8866,"Ġ02":8867,"Ġ123":8868,"Ġ155":8869,"Ġobvious":8870,"Ġrunners":8871,"Ġoperates":8872,"rapped":8873,"Ġimpression":8874,"Ġcarri":8875,"Ġmathem":8876,"ĠCarre":8877,"Ġmetre":8878,"ĠChristine":8879,"Ġhelium":8880,"Ġvisiting":8881,"Ġrefuge":8882,"Ġ1923":8883,"Ġorganised":8884,"Ġsentences":8885,"ĠPeach":8886,"Ġshoulder":8887,"ĠEvans":8888,"aski":8889,"Ġfifteen":8890,"Ġasks":8891,"Ġrounds":8892,"Ġemployees":8893,"ĠHills":8894,"Ġpotentially":8895,"Ġjobs":8896,"Ġnewspapers":8897,"Ġkilome":8898,"ĠBenjamin":8899,"ĠHawaiian":8900,"Ġrhyme":8901,"Ġwithdrawal":8902,"Ġmechanical":8903,"Ġvenues":8904,"Ġinterpre":8905,"Ġmolecules":8906,"Ġassassination":8907,"ĠCaes":8908,"ĠAncient":8909,"ĠPulaski":8910,"ĠQueensland":8911,"ĠLabour":8912,"Ġcollapsed":8913,"Ġculmin":8914,"Ġelaborate":8915,"ĠEventually":8916,"ĠOregon":8917,"Pa":8918,"ba":8919,"xual":8920,"ÅĤ":8921,"Ġsang":8922,"Ġori":8923,"Ġwel":8924,"atropical":8925,"Ġdies":8926,"ĠSS":8927,"ĠSn":8928,"ĠSem":8929,"ĠSand":8930,"ĠCase":8931,"ĠCany":8932,"eless":8933,"ĠMit":8934,"Ġgust":8935,"oln":8936,"ĠBanks":8937,"Ġstores":8938,"uty":8939,"Ġisot":8940,"ĠPow":8941,"ĠPrest":8942,"ĠRace":8943,"ĠWing":8944,"ĠNar":8945,"ĠNob":8946,"ĠLinc":8947,"agod":8948,"umin":8949,"Ġride":8950,"ĠEric":8951,"Ġvice":8952,"Ġsuitable":8953,"illiant":8954,"apore":8955,"aku":8956,"acked":8957,"iney":8958,"ĠCharts":8959,"raia":8960,"Ġcontribution":8961,"ogy":8962,"Ġclust":8963,"Ġabol":8964,"angular":8965,"ĠSection":8966,"Ġearning":8967,"Ġremove":8968,"Ġacids":8969,"obile":8970,"ohl":8971,"Ġsurgery":8972,"Ġ163":8973,"ieties":8974,"ernon":8975,"Ġartistic":8976,"Ġexpression":8977,"Ġconstant":8978,"Ġadvancing":8979,"Ġdams":8980,"ĠPlan":8981,"ĠCommons":8982,"ĠUSS":8983,"ĠChristopher":8984,"Ġdirectors":8985,"Ġclassification":8986,"ĠTrust":8987,"Ġconflic":8988,"Ġkills":8989,"Ġsentiment":8990,"Ġpersonality":8991,"ĠWeb":8992,"Ġreferring":8993,"Ġparas":8994,"Ġparody":8995,"Ġtrouble":8996,"Ġfactory":8997,"Ġstructural":8998,"Ġputting":8999,"Ġsumm":9000,"ĠCorb":9001,"ucks":9002,"Ġvalid":9003,"ĠSupreme":9004,"Ġcreative":9005,"Ġasking":9006,"Ġrenov":9007,"atinum":9008,"Ġmachines":9009,"Ġdiagn":9010,"Ġ1830":9011,"ĠValve":9012,"ĠSingapore":9013,"Ġdrove":9014,"Ġspacecraft":9015,"Ġdispute":9016,"ĠWoodhouse":9017,"Ġcompliment":9018,"Ġboundaries":9019,"Ġdocumented":9020,"Ġtranslated":9021,"Ġinhab":9022,"Ġextratropical":9023,"Ġyoungest":9024,"ĠKorea":9025,"Ġseeking":9026,"ĠChildren":9027,"Ġenvironmental":9028,"Ġcomparison":9029,"ĠSorraia":9030,"Ġcolumns":9031,"Ġtheatrical":9032,"ĠIslamic":9033,"ĠSimilarly":9034,"Ã¶n":9035,"imetres":9036,"ekend":9037,"ĠFoundation":9038,"ĠSisler":9039,"ĠProgram":9040,"ĠCanyon":9041,"ĠLincoln":9042,"Grom":9043,"IA":9044,"NC":9045,"NL":9046,"dney":9047,"krit":9048,"mont":9049,"oard":9050,"Ã¸":9051,"Ġsample":9052,"unes":9053,"Ġcave":9054,"Ġfishing":9055,"enic":9056,"Ġinclusion":9057,"inge":9058,"ashed":9059,"Ġtopped":9060,"Ġhull":9061,"ĠTogether":9062,"ĠSant":9063,"Ġlat":9064,"Ġlies":9065,"Ġlibrary":9066,"ĠCred":9067,"ĠCress":9068,"ĠCullen":9069,"acruz":9070,"Ġbeam":9071,"ĠBad":9072,"ĠBab":9073,"ĠBidd":9074,"ĠHans":9075,"etime":9076,"ĠPf":9077,"ĠPubl":9078,"Ġalt":9079,"ĠFace":9080,"ĠDD":9081,"ĠDie":9082,"ĠWhere":9083,"ĠWASP":9084,"ĠNear":9085,"ĠNatural":9086,"ĠNett":9087,"ĠanekÄģntavÄģda":9088,"ĠLud":9089,"ĠLost":9090,"ĠJard":9091,"ĠJason":9092,"Ġrising":9093,"odore":9094,"Ġplus":9095,"Ġkit":9096,"ĠKnow":9097,"Ġnotice":9098,"ĠChampions":9099,"Ġdisagre":9100,"Ġenzy":9101,"Ġspending":9102,"ugu":9103,"inder":9104,"Ġproduces":9105,"Ġprint":9106,"Ġsubmitted":9107,"Ġgray":9108,"Ġcoff":9109,"enden":9110,"ĠBriggs":9111,"Ġcompleting":9112,"Ġbridges":9113,"ĠConc":9114,"ennium":9115,"byter":9116,"Ġreflected":9117,"Ġtrials":9118,"Ġexplain":9119,"Ġorganisation":9120,"Ġpersonally":9121,"porarily":9122,"Ġexpert":9123,"Ġbases":9124,"Ġanthem":9125,"Ġtemporarily":9126,"Ġtwent":9127,"Ġcommunications":9128,"Ġsolar":9129,"Ġrepresentation":9130,"Ġprogramming":9131,"Ġ1907":9132,"Ġrevised":9133,"Ġprofessor":9134,"Ġswim":9135,"Ġsuperv":9136,"Ġfalls":9137,"Ġarmament":9138,"ĠSym":9139,"Ġcollapse":9140,"ĠCooper":9141,"Ġhonour":9142,"Ġremoval":9143,"Ġarchaeology":9144,"ĠVeracruz":9145,"Ġquestions":9146,"ĠPrix":9147,"ĠPrize":9148,"Ġbirthday":9149,"Ġsemif":9150,"Ġfavorable":9151,"Ġprepare":9152,"Ġ766":9153,"Ġpowered":9154,"Ġsculptures":9155,"ĠLouisiana":9156,"ĠSpecies":9157,"Ġbattleships":9158,"ĠFurthermore":9159,"ĠObser":9160,"Ġvertical":9161,"Ġencountered":9162,"Ġsegment":9163,"ĠIngres":9164,"ĠChronicles":9165,"ĠTelugu":9166,"ĠSanskrit":9167,"Ġsatellite":9168,"ĠBelgium":9169,"ĠCresswell":9170,"ĠBiddenden":9171,"ĠNettles":9172,"ĠJardine":9173,"eign":9174,"gets":9175,"ract":9176,"ta":9177,"Ġï":9178,"Ġump":9179,"Ġsailed":9180,"Ġwives":9181,"Ġwishes":9182,"Ġchest":9183,"itively":9184,"Ġfoss":9185,"Ġfitted":9186,"Ġbom":9187,"Ġbarr":9188,"Ġphen":9189,"Ġhidden":9190,"ĠTok":9191,"ĠSony":9192,"elle":9193,"urally":9194,"ĠMir":9195,"ĠBald":9196,"irates":9197,"ĠDers":9198,"ĠDud":9199,"ulu":9200,"Ġhem":9201,"agogue":9202,"ĠJun":9203,"ewise":9204,"Ġshares":9205,"ĠâĢĿ":9206,"Ġtru":9207,"ĠChron":9208,"Ġuniform":9209,"ieth":9210,"ansfield":9211,"Ġjunior":9212,"overeign":9213,"Ġupgraded":9214,"ĠYo":9215,"ĠYouth":9216,"Ġprefect":9217,"Ġpretty":9218,"Ġevident":9219,"enses":9220,"Ġmeters":9221,"Ġcanal":9222,"Ġpublishing":9223,"Ġindeed":9224,"Ġ03":9225,"Ġsurge":9226,"phoon":9227,"Ġmainland":9228,"Ġorigins":9229,"erto":9230,"Ġgenera":9231,"Ġrepair":9232,"Ġweekly":9233,"minster":9234,"Ġarriving":9235,"Ġ1922":9236,"Ġslip":9237,"Ġtraded":9238,"vesinje":9239,"Ġjoining":9240,"ĠWestminster":9241,"ĠXII":9242,"incial":9243,"Ġcharted":9244,"ĠNevesinje":9245,"ĠRegister":9246,"Ġconvention":9247,"ĠMagn":9248,"Ġhighways":9249,"Ġarmored":9250,"Ġbiological":9251,"Ġnominations":9252,"Ġdiscussion":9253,"Ġobjectives":9254,"ĠSocial":9255,"Ġkeeping":9256,"Ġcoinc":9257,"ĠAnti":9258,"Ġinvestigation":9259,"Ġboys":9260,"Ġstruggled":9261,"ĠErnest":9262,"Ġpleasure":9263,"Ġemphasis":9264,"Ġneutral":9265,"Ġbeliefs":9266,"ĠMichel":9267,"Ġpulled":9268,"Ġaccomplish":9269,"Ġchoose":9270,"Ġassembled":9271,"Ġupdated":9272,"ĠJacob":9273,"ĠCampbell":9274,"Ġdemolished":9275,"ĠARVN":9276,"Ġempire":9277,"ĠSioux":9278,"Ġunderwent":9279,"howitz":9280,"Ġillegal":9281,"ĠPattycake":9282,"Ġphrase":9283,"ĠBennett":9284,"ĠClinton":9285,"ĠAmanita":9286,"ĠDigital":9287,"ĠDershowitz":9288,"ĠDudley":9289,"ĠChrono":9290,"SP":9291,"bles":9292,"nels":9293,"rich":9294,"tropical":9295,"Ġax":9296,"inations":9297,"orable":9298,"Ġcateg":9299,"Ġfusion":9300,"Ġfasc":9301,"Ġbare":9302,"Ġpion":9303,"Ġpace":9304,"Ġpages":9305,"Ġdict":9306,"ĠTony":9307,"Ġthrew":9308,"Ġlanes":9309,"ĠCater":9310,"acre":9311,"acles":9312,"Ġbeings":9313,"ĠIan":9314,"ivated":9315,"olithic":9316,"ĠBor":9317,"ĠBuilding":9318,"otte":9319,"ĠPohl":9320,"Ġwhilst":9321,"Ġalph":9322,"ĠWander":9323,"ĠLet":9324,"ersed":9325,"Ġsect":9326,"Ġsuit":9327,"Ġchrom":9328,"Ġexport":9329,"Ġshift":9330,"Ġshorter":9331,"ĠUnd":9332,"Ġunlik":9333,"Ġunnamed":9334,"Ġrotation":9335,"Ġclay":9336,"Ġabilities":9337,"Ġresolution":9338,"ĠAlb":9339,"Ġdisband":9340,"Ġfinale":9341,"Ġfeeding":9342,"Ġpeoples":9343,"Ġassess":9344,"Ġquant":9345,"Ġ170":9346,"ĠIndones":9347,"ĠZanz":9348,"Ġwarn":9349,"Ġcarries":9350,"aho":9351,"Ġadvice":9352,"ĠEurop":9353,"Ġpublications":9354,"ĠCanning":9355,"Ġmargin":9356,"Ġeventual":9357,"Ġpresentation":9358,"ĠWeir":9359,"Ġstarring":9360,"ĠWithout":9361,"brace":9362,"ĠCountry":9363,"Ġprofit":9364,"ĠParks":9365,"ĠJackets":9366,"Ġtourist":9367,"ĠMagic":9368,"Ġfacility":9369,"Ġreduction":9370,"ĠKeith":9371,"Ġstrip":9372,"ĠSwitzer":9373,"Ġelectron":9374,"Ġ1861":9375,"Ġmerely":9376,"Ġ360":9377,"Ġcertainly":9378,"Ġdaughters":9379,"Ġpercentage":9380,"Ġcontroller":9381,"Ġrecovery":9382,"Ġarchitectural":9383,"ĠCharlotte":9384,"ĠColumbus":9385,"Ġneighb":9386,"Ġsoutheastern":9387,"Ġpunishment":9388,"ĠDefense":9389,"Ġillustrated":9390,"Ġmeasurements":9391,"Ġadvertis":9392,"ĠArgentine":9393,"Ġaggreg":9394,"ĠUsher":9395,"ĠSweden":9396,"Ġconversation":9397,"Ġreforms":9398,"ĠIdaho":9399,"ĠKirk":9400,"Ġnegotiations":9401,"Ġsurrender":9402,"Ġcinema":9403,"ĠAbbey":9404,"Ġappointment":9405,"ĠWWF":9406,"Ġibis":9407,"ropolitan":9408,"ĠâĤ¹":9409,"Ġneighborhood":9410,"Ġenthus":9411,"ĠCaesar":9412,"ĠMitchell":9413,"ĠPreston":9414,"ĠWanderers":9415,"Ġunlikely":9416,"ĠZanzib":9417,"ĠSwitzerland":9418,"Tube":9419,"aired":9420,"father":9421,"hang":9422,"uart":9423,"vant":9424,"yram":9425,"Ġtub":9426,"Ġtelling":9427,"inction":9428,"inÃ¡":9429,"Ġsq":9430,"atically":9431,"Ġcotton":9432,"arant":9433,"Ġmines":9434,"Ġduration":9435,"Ġhosp":9436,"leton":9437,"ĠTales":9438,"oust":9439,"ĠSab":9440,"ĠSign":9441,"acter":9442,"Ġonwards":9443,"Ġongoing":9444,"urst":9445,"ĠMain":9446,"Ġgap":9447,"Ġforth":9448,"ĠBird":9449,"ĠBush":9450,"Ġstellar":9451,"usic":9452,"otes":9453,"ĠPak":9454,"ĠFle":9455,"ĠFreak":9456,"ĠDover":9457,"ĠDahl":9458,"ĠWN":9459,"ĠNon":9460,"ĠNel":9461,"Ġanime":9462,"ĠJen":9463,"odrom":9464,"Ġvs":9465,"Ġsuicide":9466,"oren":9467,"opl":9468,"artney":9469,"Ġchain":9470,"Ġchicks":9471,"ĠUpp":9472,"ĠKy":9473,"ĠStuart":9474,"ishops":9475,"iao":9476,"soft":9477,"ĠHealth":9478,"Ġrecall":9479,"Ġoffering":9480,"Ġenemies":9481,"ĠYellow":9482,"osexual":9483,"ensions":9484,"Ġthemed":9485,"Ġacute":9486,"Ġbuy":9487,"Ġsupplement":9488,"Ġentertain":9489,"Ġdecisions":9490,"Ġ117":9491,"Ġsigns":9492,"Ġbrigades":9493,"embers":9494,"ĠIsesi":9495,"Ġadvoc":9496,"Ġstring":9497,"ĠCarmel":9498,"ĠHerald":9499,"ĠHeritage":9500,"Ġguid":9501,"ĠChristians":9502,"ĠFeel":9503,"Ġconfront":9504,"Ġcontrad":9505,"Ġcontrols":9506,"ĠParamount":9507,"Ġhistorically":9508,"Ġsignificance":9509,"ospel":9510,"ĠAmb":9511,"Ġtooth":9512,"Ġgenetic":9513,"Ġreader":9514,"Ġtravelled":9515,"ĠYouTube":9516,"Ġhelping":9517,"Ġfacil":9518,"Ġprofession":9519,"Ġclosure":9520,"Ġcircle":9521,"Ġ350":9522,"Ġwider":9523,"Ġdevast":9524,"ĠMadero":9525,"Ġillness":9526,"Ġrebell":9527,"ĠMcCartney":9528,"ĠImm":9529,"ĠEverton":9530,"Ġadapt":9531,"ĠBelgian":9532,"Ġbatteries":9533,"ĠTwenty":9534,"ĠInterchange":9535,"ĠDelaware":9536,"Ġmagnetic":9537,"Ġelevation":9538,"Ġceremon":9539,"Ġpatterns":9540,"Ġaggressive":9541,"Ġwaiting":9542,"ĠNazi":9543,"Ġmobile":9544,"ĠGardner":9545,"ĠProvince":9546,"ĠAlberta":9547,"Ġdepicting":9548,"Ġpregnancy":9549,"Ġgravity":9550,"ĠHoover":9551,"ĠLessing":9552,"ĠWalker":9553,"Ġdisappoin":9554,"Ġaccompanying":9555,"ĠToninÃ¡":9556,"ĠNadal":9557,"ĠCredits":9558,"ĠUpper":9559,"bra":9560,"ean":9561,"face":9562,"iy":9563,"water":9564,"wick":9565,"where":9566,"Ġwish":9567,"Ġcategory":9568,"Ġtom":9569,"Ġdiver":9570,"Ġhook":9571,"ĠTax":9572,"ĠAT":9573,"ĠSin":9574,"star":9575,"Ġliqu":9576,"ĠMk":9577,"ĠMun":9578,"olia":9579,"tered":9580,"ĠBow":9581,"Ġstock":9582,"Ġstead":9583,"herry":9584,"ĠRom":9585,"ĠRivers":9586,"ĠFem":9587,"ĠFif":9588,"ĠDisc":9589,"ĠLas":9590,"ĠLane":9591,"Ġriding":9592,"rik":9593,"Ġsup":9594,"arded":9595,"Ġexclud":9596,"Ġshirt":9597,"ĠKate":9598,"Ġtrapped":9599,"ĠHeart":9600,"imeter":9601,"Ġpermission":9602,"Ġjury":9603,"Ġspots":9604,"Ġencl":9605,"Ġshear":9606,"ĠSeattle":9607,"Ġacycl":9608,"roph":9609,"arsh":9610,"Ġgrave":9611,"Ġsymp":9612,"erne":9613,"Ġsignal":9614,"Ġterrain":9615,"ĠAllosaurus":9616,"Ġpromin":9617,"ĠAdela":9618,"ĠAndre":9619,"rett":9620,"Ġcommands":9621,"Ġcommanders":9622,"Ġrequires":9623,"ĠMcE":9624,"ĠPriv":9625,"Ġsimilarly":9626,"itarian":9627,"ĠPerform":9628,"Ġfreedom":9629,"ĠCentre":9630,"Ġ1902":9631,"Ġdestroyer":9632,"Ġ1895":9633,"Ġvalues":9634,"Ġclosing":9635,"Ġhyg":9636,"ĠCrusad":9637,"Ġraising":9638,"ĠSydney":9639,"ĠMadonna":9640,"ĠKhan":9641,"Ġdonated":9642,"Ġexecution":9643,"Ġindicates":9644,"Ġembarked":9645,"Ġpairs":9646,"Ġparent":9647,"Ġgirls":9648,"Ġpolicies":9649,"Ġsearching":9650,"ĠCritics":9651,"Ġplatoon":9652,"Ġconcentrated":9653,"Ġprinted":9654,"Ġpreparing":9655,"Ġuniversities":9656,"Ġconnecting":9657,"Ġconversion":9658,"ĠObserv":9659,"Ġfarmers":9660,"ĠHeadquarters":9661,"ĠLeonard":9662,"Ġaimed":9663,"Ġdubbed":9664,"Ġexactly":9665,"Ġdoctrine":9666,"Ġaccurate":9667,"Ġdecorated":9668,"Ġhydrogen":9669,"penter":9670,"ĠArkansas":9671,"Ġcancelled":9672,"Ġfundamental":9673,"ĠStavanger":9674,"Ġconflicts":9675,"Ġphenomen":9676,"Ġacyclic":9677,"ĠAdelaide":9678,"bound":9679,"cour":9680,"dream":9681,"han":9682,"lock":9683,"oom":9684,"xic":9685,"Ã£":9686,"Ġwore":9687,"Ġfles":9688,"isle":9689,"Ġbore":9690,"Ġinfer":9691,"Ġinning":9692,"anag":9693,"Ġtouring":9694,"Ġmental":9695,"rose":9696,"Ġdense":9697,"Ġdanger":9698,"ĠhPa":9699,"lee":9700,"Ġreop":9701,"Ġreaches":9702,"Ġnave":9703,"Ġbears":9704,"Ġbeating":9705,"Ġbeats":9706,"ĠMaur":9707,"Ġgift":9708,"ĠHugh":9709,"ĠHNC":9710,"ĠPanz":9711,"ĠRick":9712,"ĠFood":9713,"ĠNav":9714,"Ġanch":9715,"Ġseats":9716,"Ġrushing":9717,"ĠEight":9718,"Ġprosec":9719,"ĠIntern":9720,"atever":9721,"ipes":9722,"iang":9723,"ĠVic":9724,"Ġabroad":9725,"oken":9726,"ffling":9727,"pled":9728,"Ġjew":9729,"Ġovert":9730,"active":9731,"Ġevolved":9732,"oyd":9733,"ĠMars":9734,"Ġpositively":9735,"Ġintercept":9736,"Ġapprec":9737,"ĠLeeds":9738,"Ġ01":9739,"Ġ125":9740,"Ġcaps":9741,"Ġbacking":9742,"Ġtransmission":9743,"Ġcontinental":9744,"Ġoperas":9745,"Ġcharacteristic":9746,"ĠChristi":9747,"Ġphone":9748,"ĠMcD":9749,"Ġfewer":9750,"Ġcrash":9751,"Ġstrongest":9752,"ĠAbd":9753,"Ġsolution":9754,"ĠDescription":9755,"Ġdetected":9756,"Ġaffil":9757,"ĠPolit":9758,"Ġfriendly":9759,"Ġsket":9760,"Ġtenure":9761,"Ġballad":9762,"Ġfunctions":9763,"ĠCorpus":9764,"Ġranks":9765,"ĠMorgan":9766,"grad":9767,"Ġanimated":9768,"ĠSerbs":9769,"ĠHarry":9770,"ĠDaydream":9771,"thodon":9772,"Ġcivilians":9773,"Ġwithdrawn":9774,"Ġ1840":9775,"Ġfailing":9776,"ĠDonald":9777,"ĠAngelou":9778,"ĠJeremy":9779,"Ġtemperatures":9780,"Ġcredit":9781,"Ġcredits":9782,"Ġunclear":9783,"Ġcounterp":9784,"Ġlogic":9785,"ĠBoys":9786,"Ġsevent":9787,"Ġpilots":9788,"ĠSurvey":9789,"Ġpursuit":9790,"Ġinternation":9791,"ĠFrancis":9792,"ĠHawaiÊ»":9793,"Ġcompositions":9794,"Ġninet":9795,"ĠBooks":9796,"Ġharbour":9797,"Ġqualified":9798,"Ġsteps":9799,"Ġprisoners":9800,"ĠNightingale":9801,"Ġmelody":9802,"Ġmolecular":9803,"Ġmountains":9804,"ĠDerffling":9805,"Ġsolely":9806,"ĠFalls":9807,"Ġinteractions":9808,"Ġwickets":9809,"ĠBroadway":9810,"Ġsleep":9811,"Ġwealthy":9812,"ĠWyoming":9813,"Ġleukemia":9814,"ĠWatson":9815,"Ġsympt":9816,"Ġvegetation":9817,"ĠBulgar":9818,"ĠHungarian":9819,"Ġmaintaining":9820,"ĠEccl":9821,"Ġashore":9822,"ĠFernandez":9823,"ĠTigers":9824,"Ġvertex":9825,"Ġtissue":9826,"ĠDynasty":9827,"Ġcousin":9828,"Ġflesh":9829,"ĠPanzer":9830,"ĠInternet":9831,"ĠHawaiÊ»i":9832,"ĠDerfflinger":9833,"bing":9834,"equ":9835,"fra":9836,"hire":9837,"iac":9838,"po":9839,"power":9840,"ygen":9841,"zong":9842,"Ġid":9843,"Ġacted":9844,"rehens":9845,"enger":9846,"esters":9847,"Ġinher":9848,"alf":9849,"ingray":9850,"Ġdual":9851,"entle":9852,"ĠActor":9853,"street":9854,"omic":9855,"ĠCO":9856,"ĠCricket":9857,"Ġgaining":9858,"ĠBorn":9859,"ĠBarn":9860,"ĠBatter":9861,"ows":9862,"ĠHop":9863,"aya":9864,"ĠPoly":9865,"ĠRap":9866,"ĠDub":9867,"ĠWelling":9868,"ĠWitch":9869,"ĠGot":9870,"ĠGael":9871,"ĠLiving":9872,"ĠLibrary":9873,"estyle":9874,"Ġchampions":9875,"Ġplatinum":9876,"ĠUtah":9877,"ĠKody":9878,"Ġcompens":9879,"Ġclothes":9880,"ĠHeavy":9881,"Ġpermitted":9882,"ector":9883,"ective":9884,"ĠAlmost":9885,"Ġdisrupt":9886,"ultan":9887,"Ġevolution":9888,"oyle":9889,"Ġassembly":9890,"Ġamph":9891,"Ġsurprise":9892,"Ġ105":9893,"Ġnumbered":9894,"tenance":9895,"Ġ127":9896,"Ġ168":9897,"Ġ114":9898,"Ġbrain":9899,"Ġobtain":9900,"ĠMaya":9901,"ĠZoo":9902,"aza":9903,"Ġsuccession":9904,"Ġsuccessive":9905,"ĠAdminist":9906,"Ġrestore":9907,"Ġincreases":9908,"Ġreviewed":9909,"Ġhanded":9910,"eltown":9911,"Ġstarter":9912,"Ġcoverage":9913,"Ġanticip":9914,"ĠRomania":9915,"Ġ1903":9916,"ĠNeil":9917,"Ġgoods":9918,"Ġcougars":9919,"Ġideal":9920,"Ġcyt":9921,"Ġoccurring":9922,"Ġrevival":9923,"Ġidentify":9924,"Ġanimation":9925,"Ġ1889":9926,"Ġmeasuring":9927,"ĠArabs":9928,"Ġheavier":9929,"Ġcruisers":9930,"ĠYears":9931,"Ġobservation":9932,"Ġconsistent":9933,"ĠBradstreet":9934,"Ġseriously":9935,"ĠTrees":9936,"Ġtargets":9937,"Ġreinforced":9938,"ĠAntimony":9939,"Ġgrandfather":9940,"Ġlifetime":9941,"Ġwalking":9942,"Ġoxygen":9943,"Ġparliamentary":9944,"ĠSora":9945,"Ġbeauty":9946,"Ġvirtually":9947,"Ġbowling":9948,"ĠJurchens":9949,"ĠCyrus":9950,"Ġownership":9951,"Ġpregnant":9952,"Ġrelegated":9953,"ĠTransportation":9954,"ĠBaseball":9955,"ĠBedell":9956,"Ġappropriate":9957,"schild":9958,"ĠHampshire":9959,"Ġadministrative":9960,"Ġphotographs":9961,"ĠRothschild":9962,"ĠAuthor":9963,"ĠMantell":9964,"Ġinterpreted":9965,"ĠXIII":9966,"yramid":9967,"fraid":9968,"ĠWellington":9969,"ĠGaelic":9970,"CU":9971,"jo":9972,"ras":9973,"worth":9974,"inus":9975,"Ġtherap":9976,"Ġsings":9977,"Ġsized":9978,"unch":9979,"ori":9980,"Ġcode":9981,"itia":9982,"Ġfame":9983,"Ġfault":9984,"enous":9985,"Ġbon":9986,"Ġban":9987,"aration":9988,"Ġtours":9989,"Ġtoler":9990,"Ġmir":9991,"rous":9992,"icul":9993,"Ġhills":9994,"ĠSon":9995,"ĠSet":9996,"stal":9997,"Ġlaugh":9998,"Ġloud":9999,"Ġnaming":10000,"ĠCas":10001,"ĠMix":10002,"ĠIOC":10003,"Ġgar":10004,"Ġgang":10005,"olve":10006,"ĠPC":10007,"ĠPot":10008,"ĠDS":10009,"ĠDot":10010,"ĠDram":10011,"ĠData":10012,"ĠNat":10013,"ĠLooking":10014,"Ġseized":10015,"Ġrid":10016,"Ġrains":10017,"ĠOak":10018,"ĠEg":10019,"ĠEconom":10020,"ĠEtty":10021,"udo":10022,"ĠKau":10023,"ĠKÅį":10024,"oster":10025,"ormal":10026,"Ġadmin":10027,"Ġperceived":10028,"Ġagency":10029,"Ġmanip":10030,"Ġjet":10031,"acts":10032,"Ġattitude":10033,"Ġfeud":10034,"Ġ83":10035,"Ġcancel":10036,"Ġregistered":10037,"Ġdoctor":10038,"Ġgrade":10039,"Ġbacked":10040,"Ġdiff":10041,"Ġcontinuous":10042,"Ġrunway":10043,"Ġdepiction":10044,"Ġdownstream":10045,"Ġdistrib":10046,"Ġinfection":10047,"Ġsixteen":10048,"Ġvaried":10049,"Ġguides":10050,"Ġhelps":10051,"ĠTristan":10052,"issioned":10053,"Ġbelieving":10054,"ĠGrace":10055,"ĠRoom":10056,"Ġexplicit":10057,"Ġengagement":10058,"Ġcapturing":10059,"ĠManuel":10060,"Ġ230":10061,"Ġauthorized":10062,"Ġsitting":10063,"Ġrepresentatives":10064,"Ġballs":10065,"Ġpitching":10066,"Ġpromotional":10067,"Ġrevived":10068,"regular":10069,"Ġcommenting":10070,"Ġaudition":10071,"Ġarmies":10072,"Ġflooded":10073,"ĠChristianity":10074,"Ġexcell":10075,"Ġgolden":10076,"ĠImport":10077,"Ġhoused":10078,"Ġ1849":10079,"ĠCollection":10080,"Ġparticipate":10081,"Ġblocked":10082,"ĠStudies":10083,"legraph":10084,"Ġsynagogue":10085,"Ġautom":10086,"Ġdispat":10087,"Ġvotes":10088,"Ġunderstood":10089,"Ġheroes":10090,"Ġhabitats":10091,"Ġsecretary":10092,"Ġconstitu":10093,"Ġquestioned":10094,"Ġsubsid":10095,"Ġtasked":10096,"Ġsporting":10097,"Ġchampionships":10098,"ĠContem":10099,"Ġreactions":10100,"Ġirregular":10101,"ĠHalo":10102,"Ġdeparted":10103,"ĠPalestinian":10104,"Ġresemble":10105,"ĠUlt":10106,"ĠColdrum":10107,"Ġhamper":10108,"ĠOhio":10109,"Ġpuzzles":10110,"Ġpounder":10111,"ĠMLB":10112,"Ġsuddenly":10113,"ĠRhodesian":10114,"Ġbalance":10115,"Ġdisplaced":10116,"Ġproportion":10117,"ĠJoyful":10118,"Ġclothing":10119,"Ġmanuscripts":10120,"ĠMargaret":10121,"Ġannouncement":10122,"Ġbodyline":10123,"Ġkilometers":10124,"Ġhospitals":10125,"Ġentertainment":10126,"cover":10127,"iad":10128,"kÃ¶n":10129,"rep":10130,"Ġwolf":10131,"Ġbanks":10132,"anville":10133,"Ġpap":10134,"Ġpistol":10135,"Ġdod":10136,"ĠTit":10137,"ĠAA":10138,"ĠSay":10139,"ĠShip":10140,"Ġech":10141,"ĠCant":10142,"ĠCome":10143,"eloc":10144,"ĠMort":10145,"ĠIowa":10146,"terior":10147,"ĠBÃ":10148,"ĠBuck":10149,"ĠBapt":10150,"thren":10151,"Ġstim":10152,"ĠHannah":10153,"ĠPan":10154,"ĠPur":10155,"ĠProm":10156,"ĠPier":10157,"ĠRÃ¤":10158,"ĠDor":10159,"ĠDick":10160,"ĠDennis":10161,"ĠWik":10162,"ĠWrestling":10163,"ĠWrapped":10164,"ĠNM":10165,"ĠGround":10166,"ĠList":10167,"agen":10168,"Ġsew":10169,"Ġrays":10170,"ĠExt":10171,"Ġvir":10172,"Ġcomponent":10173,"Ġcompilation":10174,"Ġherd":10175,"Ġcler":10176,"ĠHeb":10177,"ondheim":10178,"Ġscar":10179,"Ġscorer":10180,"ricts":10181,"ĠReb":10182,"ĠDeep":10183,"Ġflies":10184,"Ġnoble":10185,"Ġqueen":10186,"Ġaccum":10187,"Ġcoaching":10188,"Ġepic":10189,"Ġmainstream":10190,"ĠShell":10191,"Ġ174":10192,"Ġdistances":10193,"Ġdistricts":10194,"anches":10195,"azer":10196,"Ġpassion":10197,"ĠBlu":10198,"Ġmetall":10199,"Ġedited":10200,"ashi":10201,"ikkÃ¶n":10202,"ĠTrondheim":10203,"Ġapproaches":10204,"Ġrefere":10205,"Ġreplied":10206,"Ġarchbishop":10207,"Ġvictim":10208,"Ġ240":10209,"Ġaffairs":10210,"Ġfactor":10211,"Ġprize":10212,"ĠMorning":10213,"Ġlacking":10214,"Ġveter":10215,"ĠMonkey":10216,"Ġindustries":10217,"mingham":10218,"Ġruler":10219,"Ġzomb":10220,"ĠMcCar":10221,"ĠSlayer":10222,"Ġmemories":10223,"Ġarrangements":10224,"ĠCampaign":10225,"ĠForeign":10226,"ĠSky":10227,"ĠSkinner":10228,"barian":10229,"Ġdependent":10230,"ĠInterstate":10231,"Ġkickoff":10232,"Ġtouchdowns":10233,"Ġsalv":10234,"ĠHaitian":10235,"Ġrescued":10236,"Ġcandidates":10237,"ĠNCAA":10238,"Ġroller":10239,"Ġflew":10240,"ĠBirmingham":10241,"Ġteachers":10242,"Ġshrine":10243,"Ġcomprised":10244,"Ġfastest":10245,"ĠCreutz":10246,"ĠGregory":10247,"blazer":10248,"Ġaerodrom":10249,"Ġundertaken":10250,"Ġdisturbance":10251,"ĠHonor":10252,"Ġvicinity":10253,"ĠHellblazer":10254,"Ġstrategic":10255,"Ġabsorbed":10256,"ĠBosn":10257,"ĠPalmyrene":10258,"Ġtickets":10259,"Ġrestrictions":10260,"ĠStaley":10261,"Ġmystery":10262,"ĠVegas":10263,"Ġmathemat":10264,"ĠTokyo":10265,"ĠZanzibar":10266,"ĠEcclestone":10267,"ĠRÃ¤ikkÃ¶n":10268,"ĠRÃ¤ikkÃ¶nen":10269,"book":10270,"fe":10271,"la":10272,"pir":10273,"pse":10274,"wan":10275,"zona":10276,"¬nh":10277,"Æ°":10278,"Ġtrough":10279,"Ġtalent":10280,"ini":10281,"inness":10282,"erm":10283,"Ġworn":10284,"athered":10285,"Ġcrick":10286,"Ġcraf":10287,"Ġfru":10288,"Ġpp":10289,"Ġpunt":10290,"Ġmac":10291,"rot":10292,"Ġda":10293,"Ġdust":10294,"Ġdiamond":10295,"Ġhur":10296,"ĠTree":10297,"Ġreag":10298,"ĠAub":10299,"ĠAges":10300,"ĠCit":10301,"uras":10302,"urance":10303,"ĠMack":10304,"ĠMoon":10305,"ĠIv":10306,"Ġgor":10307,"olence":10308,"imer":10309,"ĠHair":10310,"oted":10311,"ĠPam":10312,"ĠPole":10313,"ĠRul":10314,"ĠFul":10315,"ĠFather":10316,"ĠDod":10317,"ĠDoo":10318,"Ġatop":10319,"romet":10320,"ĠNine":10321,"ĠLad":10322,"ĠLind":10323,"ĠLiter":10324,"Ġhearing":10325,"Ġsending":10326,"Ġrig":10327,"oded":10328,"Ġvital":10329,"Ġaboard":10330,"Ġadmir":10331,"ĠThak":10332,"arest":10333,"achute":10334,"wegian":10335,"Ġspeaker":10336,"ensively":10337,"oints":10338,"ĠReagan":10339,"ilda":10340,"alsa":10341,"veland":10342,"Ġrelatives":10343,"Ġconsent":10344,"ĠMarie":10345,"Ġfourteen":10346,"Ġlocally":10347,"Ġpole":10348,"Ġpoets":10349,"ĠShim":10350,"ĠShadow":10351,"Ġpopul":10352,"Ġmaintenance":10353,"ĠBright":10354,"Ġminers":10355,"Ġbrut":10356,"Ġbrilliant":10357,"emble":10358,"ĠIsle":10359,"ĠZagre":10360,"Ġmatters":10361,"Ġinsurg":10362,"ĠPlaces":10363,"Ġconcession":10364,"Ġdrinking":10365,"Ġextinct":10366,"Ġextensively":10367,"ĠTrue":10368,"Ġjustice":10369,"Ġopposing":10370,"Ġmedal":10371,"ĠÂµ":10372,"ĠMcM":10373,"Ġmyster":10374,"Ġmembrane":10375,"luence":10376,"Ġbehalf":10377,"Ġcurved":10378,"Ġ1901":10379,"Ġ1906":10380,"ficial":10381,"Ġgenes":10382,"ĠFederation":10383,"Ġpraising":10384,"arris":10385,"iscus":10386,"ĠHighland":10387,"Ġredes":10388,"hemical":10389,"Ġtrend":10390,"Ġaudio":10391,"ĠExper":10392,"Ġarguing":10393,"Ġcutting":10394,"Ġhitting":10395,"Ġterritorial":10396,"Ġmachinery":10397,"Ġbusinesses":10398,"Ġescaped":10399,"Ġpenet":10400,"Ġtraveling":10401,"Ġchapters":10402,"Ġarchaeologists":10403,"ĠSingh":10404,"Ġdenomin":10405,"ĠTommy":10406,"guard":10407,"Ġobservatory":10408,"ĠMeteorological":10409,"Ġconsistently":10410,"ĠQuiney":10411,"Ġbombing":10412,"Ġmarketing":10413,"Ġconcepts":10414,"ĠNorwegian":10415,"Ġ1819":10416,"Ġpuppet":10417,"Ġexhibition":10418,"Ġrequirements":10419,"Ġuniverse":10420,"ĠSenator":10421,"Ġfragment":10422,"Ġwait":10423,"Ġextending":10424,"Ġpictures":10425,"Ġbatsmen":10426,"ĠMatthew":10427,"Ġagriculture":10428,"ĠCambodian":10429,"Ġexclusive":10430,"ĠBruce":10431,"Ġlaboratory":10432,"ĠReturn":10433,"Ġsurrend":10434,"Ġaerial":10435,"ĠArizona":10436,"ĠKennedy":10437,"ĠArchaeological":10438,"ĠCleveland":10439,"Ġliner":10440,"Ġrubber":10441,"ĠHughes":10442,"Ġjuven":10443,"ĠHobbs":10444,"Ġrecurring":10445,"Ġconjunction":10446,"ĠProfessor":10447,"ĠBeeton":10448,"ĠCorbet":10449,"Ġcomplimented":10450,"Ġtubes":10451,"Ġcrickets":10452,"ĠZagreb":10453,"CW":10454,"PA":10455,"gers":10456,"iography":10457,"iÃ¨":10458,"iÄĩ":10459,"ng":10460,"rad":10461,"tical":10462,"zo":10463,"Ġtaste":10464,"inaw":10465,"eries":10466,"Ġsqu":10467,"una":10468,"orage":10469,"Ġcosm":10470,"Ġfaster":10471,"Ġfulf":10472,"esh":10473,"Ġpushing":10474,"Ġpyramid":10475,"Ġmand":10476,"Ġhapp":10477,"Ġreper":10478,"Ġrecept":10479,"Ġreven":10480,"Ġrevenue":10481,"ĠAf":10482,"ĠSox":10483,"Ġlad":10484,"Ġliv":10485,"ĠCond":10486,"ĠIA":10487,"Ġgene":10488,"olin":10489,"iger":10490,"Ġstick":10491,"ĠHong":10492,"ĠHurricanes":10493,"ĠPagan":10494,"ĠRa":10495,"Ġalive":10496,"ĠFut":10497,"ĠFiles":10498,"ĠDance":10499,"ĠDoyle":10500,"osity":10501,"ĠNASA":10502,"ĠGill":10503,"ĠLam":10504,"ĠLiao":10505,"ĠJoint":10506,"Ġdeals":10507,"Ġracing":10508,"ĠOw":10509,"Ġexceed":10510,"ĠKyle":10511,"ĠStars":10512,"Ġtrains":10513,"Ġtrails":10514,"cles":10515,"ĠChampion":10516,"ogram":10517,"Ġusers":10518,"Ġusual":10519,"Ġabuse":10520,"ĠAlg":10521,"overy":10522,"Ġspawn":10523,"Ġenorm":10524,"aceous":10525,"Ġsheep":10526,"Ġcommenced":10527,"Ġallocated":10528,"Ġweekend":10529,"ensis":10530,"Ġcentimetres":10531,"ribi":10532,"ĠReines":10533,"underst":10534,"Ġcanon":10535,"ĠMarge":10536,"ĠComedy":10537,"Ġacoust":10538,"Ġapply":10539,"Ġdecomm":10540,"Ġpresents":10541,"phrey":10542,"ĠJohnny":10543,"Ġbrand":10544,"Ġcouldn":10545,"Ġoperational":10546,"Ġprovincial":10547,"Ġmature":10548,"Ġsimpl":10549,"Ġadvised":10550,"ĠCarpenter":10551,"ĠPlateau":10552,"Ġgovernments":10553,"Ġguide":10554,"asha":10555,"ĠGuine":10556,"Ġtracked":10557,"Ġexplore":10558,"Ġexploration":10559,"Ġsugar":10560,"ĠMcN":10561,"Ġlegacy":10562,"Ġcourses":10563,"Ġmyself":10564,"Ġpropaganda":10565,"Ġ220":10566,"Ġ261":10567,"Ġstatements":10568,"ĠAtlÃ©t":10569,"Ġ1897":10570,"Ġrocks":10571,"rieved":10572,"Ġpredicted":10573,"Ġlacked":10574,"ĠSerb":10575,"Ġhostile":10576,"ĠPartington":10577,"Ġdevice":10578,"Ġmotif":10579,"Ġ1878":10580,"ĠEgyptians":10581,"Ġinvestment":10582,"Ġzinc":10583,"Ġpersist":10584,"Ġtransported":10585,"Ġpeninsula":10586,"Ġtested":10587,"Ġpresidential":10588,"Ġexamination":10589,"ĠOpera":10590,"ĠOperations":10591,"ĠFinally":10592,"ĠHoloca":10593,"ĠJustin":10594,"ĠSixth":10595,"ĠHumphrey":10596,"Ġbeaten":10597,"Ġneighbour":10598,"ographical":10599,"ĠCommunity":10600,"ĠJosÃ©":10601,"Ġvenue":10602,"ĠBrenda":10603,"ĠPopular":10604,"ĠWorks":10605,"Ġhoriz":10606,"ĠKenneth":10607,"Ġhouseholds":10608,"ĠUrania":10609,"ĠLucas":10610,"ĠArchaeology":10611,"Ġimmigration":10612,"ĠFlower":10613,"Ġpartnership":10614,"Ġindigenous":10615,"ĠLocal":10616,"Ġrenewed":10617,"Ġconscious":10618,"Ġfuneral":10619,"ĠVulcan":10620,"Ġconsolid":10621,"ĠGlobe":10622,"Ġintellectual":10623,"agoda":10624,"Ġtwentieth":10625,"ĠEuropa":10626,"ĠKyra":10627,"Ġtombs":10628,"Ġsteadily":10629,"ĠContemporary":10630,"ĠAtlÃ©tico":10631,"ĠHolocaust":10632,"CO":10633,"ES":10634,"RNA":10635,"fly":10636,"join":10637,"mbrace":10638,"rÃŃ":10639,"uters":10640,"uating":10641,"zz":10642,"»¿":10643,"inted":10644,"incess":10645,"Ġsoci":10646,"Ġsnow":10647,"Ġwre":10648,"Ġward":10649,"Ġcemetery":10650,"itely":10651,"Ġing":10652,"arro":10653,"alog":10654,"asm":10655,"Ġmate":10656,"Ġmood":10657,"ĠTu":10658,"ĠTen":10659,"ĠTrophy":10660,"Ġreward":10661,"Ġlumber":10662,"Ġlumin":10663,"Ġeating":10664,"ĠCart":10665,"ĠCass":10666,"ĠMong":10667,"olm":10668,"olt":10669,"ĠBal":10670,"ĠBoss":10671,"irts":10672,"Ġstyl":10673,"ĠHay":10674,"ĠHockey":10675,"uther":10676,"ĠPirates":10677,"andra":10678,"andern":10679,"ĠGraham":10680,"ĠLÃ¼":10681,"Ġseas":10682,"riarch":10683,"Ġcomfort":10684,"Ġproceeded":10685,"ifeng":10686,"aple":10687,"ighters":10688,"Ġpled":10689,"Ġplate":10690,"Ġplacing":10691,"Ġkid":10692,"gends":10693,"Ġcomprom":10694,"Ġunrest":10695,"ogan":10696,"hedruli":10697,"ubles":10698,"ĠVandern":10699,"ĠThai":10700,"Ġ1800":10701,"Ġjaw":10702,"Ġoffshore":10703,"Ġenforce":10704,"Ġcanals":10705,"Ġconsum":10706,"Ġassert":10707,"Ġspeculation":10708,"Ġacre":10709,"Ġretain":10710,"Ġacceler":10711,"Ġamid":10712,"Ġcook":10713,"ended":10714,"Ġsingers":10715,"Ġ169":10716,"Ġstudying":10717,"ĠBrack":10718,"Ġdevelopers":10719,"Ġmayor":10720,"Ġcomplement":10721,"Ġdistant":10722,"ĠAustrian":10723,"tym":10724,"Ġwarned":10725,"Ġrepairs":10726,"Ġairports":10727,"Ġconstantly":10728,"ĠColomb":10729,"ĠCloud":10730,"Ã©e":10731,"ĠGuild":10732,"Ġports":10733,"Ġportions":10734,"Ġvisits":10735,"Ġapproaching":10736,"Ġtrio":10737,"Ġslopes":10738,"Ġstorylines":10739,"Ġmarking":10740,"ĠPrincess":10741,"ĠBox":10742,"ĠComputer":10743,"ĠComposition":10744,"ĠCompanies":10745,"Ġmagical":10746,"Ġsitu":10747,"Ġreportedly":10748,"Ġobsc":10749,"ĠAfricaine":10750,"ĠCharmbrace":10751,"Ġcorpor":10752,"Ġconventional":10753,"Ġpriests":10754,"ĠGlanville":10755,"Ġvaluable":10756,"Ġargument":10757,"ĠCrash":10758,"Ġvolumes":10759,"Ġfunded":10760,"ĠPlayers":10761,"ĠPhilipp":10762,"Ġthreats":10763,"Ġload":10764,"Ġpersons":10765,"Ġbreaks":10766,"Ġminority":10767,"ĠAgency":10768,"ĠSuperman":10769,"Ġhomosexual":10770,"Ġautob":10771,"Ġautumn":10772,"ĠOffic":10773,"abyrin":10774,"ĠFranklin":10775,"ĠRussell":10776,"Ġcelebrate":10777,"awny":10778,"Ġtalks":10779,"Ġsexuality":10780,"Ġconcentration":10781,"Ġvoices":10782,"Ġconnections":10783,"ĠLloyd":10784,"ĠAlfa":10785,"Ġchallenging":10786,"ĠVillaret":10787,"Ġflagship":10788,"ĠKaifeng":10789,"Ġcalculated":10790,"Ġsponsored":10791,"ĠMovie":10792,"Ġquoted":10793,"Ġignored":10794,"ĠLancaster":10795,"Ġinaugural":10796,"Ġintegr":10797,"Ġexhausted":10798,"Ġabsolute":10799,"Ġtributaries":10800,"Ġdensity":10801,"ĠCecil":10802,"orrowed":10803,"Ġinsects":10804,"Ġcondemned":10805,"ĠBanksia":10806,"Ġï»¿":10807,"Ġalphab":10808,"ĠMkhedruli":10809,"ĠNavarro":10810,"ĠCantrell":10811,"ĠBaptist":10812,"ĠHebrew":10813,"ĠVandernoot":10814,"ĠCharmbracelet":10815,"abyrinth":10816,"VP":10817,"bow":10818,"feller":10819,"gud":10820,"ht":10821,"nall":10822,"rh":10823,"tz":10824,"zhou":10825,"Ġtorn":10826,"reens":10827,"Ġwaves":10828,"atum":10829,"Ġbeds":10830,"aria":10831,"arged":10832,"Ġpig":10833,"Ġpink":10834,"Ġtoxic":10835,"icians":10836,"Ġdying":10837,"Ġhi":10838,"Ġhind":10839,"ĠTong":10840,"ĠTide":10841,"Ġreun":10842,"ilis":10843,"ĠSina":10844,"ĠSultan":10845,"Ġnom":10846,"Ġnut":10847,"ĠCad":10848,"ĠCirc":10849,"ĠMission":10850,"ĠMVP":10851,"ĠImp":10852,"Ġgathered":10853,"olics":10854,"ĠBilly":10855,"igious":10856,"Ġstall":10857,"ĠPup":10858,"ĠRaid":10859,"ĠRaf":10860,"ĠFried":10861,"ĠFarm":10862,"ĠDress":10863,"ĠGiel":10864,"ĠLt":10865,"ĠLamb":10866,"Ġheir":10867,"Ġrivals":10868,"ĠEle":10869,"ĠEch":10870,"ĠEve":10871,"Ġventure":10872,"ĠInvest":10873,"apol":10874,"ocent":10875,"Ġshield":10876,"Ġlect":10877,"ĠStill":10878,"Ġtrunk":10879,"Ġunless":10880,"Ġclergy":10881,"Ġresid":10882,"place":10883,"Ġscr":10884,"Ġscreens":10885,"Ġmanage":10886,"Ġovers":10887,"Ġspore":10888,"ibilities":10889,"kefeller":10890,"Ġfinest":10891,"Ġprest":10892,"Ġattorney":10893,"Ġcentered":10894,"rible":10895,"ĠSev":10896,"ĠSeven":10897,"Ġknocked":10898,"ĠArn":10899,"Ġconsumption":10900,"Ġundergo":10901,"Ġcolours":10902,"Ġnoise":10903,"Ġbuoys":10904,"ĠLeices":10905,"Ġdozen":10906,"anya":10907,"Ġsurpass":10908,"Ġ106":10909,"Ġdecide":10910,"Ġpreserve":10911,"ĠBristol":10912,"Ġmonit":10913,"Ġmini":10914,"Ġsmoke":10915,"Ġshipments":10916,"uedoc":10917,"ĠIsles":10918,"ĠAustro":10919,"ĠAustria":10920,"rapping":10921,"ĠConn":10922,"Ġairfield":10923,"Ġpassages":10924,"ĠBlues":10925,"Ġedit":10926,"Ġvariations":10927,"ĠClocks":10928,"ĠAdult":10929,"Ġdrivers":10930,"ĠYorkshire":10931,"Ġmarch":10932,"Ġprogressed":10933,"Ġhumor":10934,"Ġcollections":10935,"Ġlegit":10936,"Ġreplacing":10937,"Ġtraditions":10938,"Ġsimilarities":10939,"Ġsoldier":10940,"Ġroadway":10941,"Ġpoliticians":10942,"Ġstronger":10943,"Ġ1904":10944,"ambo":10945,"Ġcorps":10946,"ĠElgin":10947,"Ġtravels":10948,"Ġgrows":10949,"Ġimprovement":10950,"ĠBerht":10951,"Ġcircuit":10952,"ĠCommandos":10953,"Ġdeterior":10954,"Ġlyrical":10955,"ĠSmall":10956,"Ġphysics":10957,"Ġgraduate":10958,"Ġmemorable":10959,"ĠCatholics":10960,"Ġflows":10961,"Ġhoping":10962,"nyi":10963,"Ġintersects":10964,"Ġsalary":10965,"Ġessentially":10966,"Ġemotions":10967,"Ġtasks":10968,"Ġdynamic":10969,"ĠAviation":10970,"Ġpermanently":10971,"Ġduo":10972,"Ġbelonging":10973,"claimed":10974,"Ġfragments":10975,"ĠLarry":10976,"Ġdevoted":10977,"Ġimagery":10978,"Ġtimber":10979,"ĠUlster":10980,"Ġreflecting":10981,"Ġhamlet":10982,"Ġoccasional":10983,"Ġmoist":10984,"Ġstretched":10985,"ĠRonald":10986,"Ġvertices":10987,"hua":10988,"ĠQedarites":10989,"Ġrepeatedly":10990,"Ġexperimental":10991,"Ġwicket":10992,"ĠBhair":10993,"ĠGanges":10994,"Ġpuzzle":10995,"Ġloved":10996,"Ġprospect":10997,"Ġindigo":10998,"Ġurged":10999,"Ġsanct":11000,"Ġjackrabbit":11001,"ĠRockefeller":11002,"Ġdivorce":11003,"Ġdiplomatic":11004,"Ġcooperation":11005,"Ġteammate":11006,"ĠLoverboy":11007,"ĠLanguedoc":11008,"ĠMachine":11009,"Ġtruly":11010,"ĠFreakum":11011,"ĠWNO":11012,"ĠNelson":11013,"ĠPerformance":11014,"iaduct":11015,"ĠAuburn":11016,"ĠRuler":11017,"Ġmysterious":11018,"Ġsurrendered":11019,"ĠSinai":11020,"ĠGielgud":11021,"ĠLeicester":11022,"ĠBerhtwald":11023,"EA":11024,"evelop":11025,"gans":11026,"ii":11027,"ker":11028,"kner":11029,"lights":11030,"mad":11031,"oided":11032,"vada":11033,"Ġurg":11034,"ĨĴ":11035,"Ġtort":11036,"Ġtape":11037,"Ġath":11038,"Ġsic":11039,"Ġsibl":11040,"Ġsacked":11041,"Ġcards":11042,"enar":11043,"isp":11044,"Ġintend":11045,"Ġpin":11046,"ashes":11047,"Ġtools":11048,"Ġdressed":11049,"ĠSout":11050,"Ġnavy":11051,"Ġnaked":11052,"amation":11053,"ĠCov":11054,"ĠCret":11055,"ĠMond":11056,"Ġgarn":11057,"ĠBM":11058,"irty":11059,"Ġascend":11060,"iga":11061,"igadier":11062,"owed":11063,"Ġstability":11064,"Ġstanz":11065,"ĠHur":11066,"ĠRover":11067,"ĠFast":11068,"ĠFaul":11069,"ĠWant":11070,"osy":11071,"ĠGack":11072,"ĠLoy":11073,"ĠJag":11074,"ĠEp":11075,"akim":11076,"ĠâĨĴ":11077,"Ġsharp":11078,"Ġshallow":11079,"ĠâĢ¦":11080,"ĠUk":11081,"ĠKle":11082,"ĠKings":11083,"ipitation":11084,"Ġcompan":11085,"raits":11086,"Ġunex":11087,"ubs":11088,"ĠVik":11089,"Ġadequ":11090,"Ġscenar":11091,"Ġjunction":11092,"Ġspan":11093,"Ġimperial":11094,"enson":11095,"issions":11096,"Ġknock":11097,"ictions":11098,"ĠDevin":11099,"Ġendors":11100,"ĠLeban":11101,"anka":11102,"Ġgrain":11103,"Ġgrap":11104,"Ġ04":11105,"pense":11106,"phant":11107,"ĠScots":11108,"Ġminimal":11109,"Ġ116":11110,"Ġ118":11111,"Ġbrood":11112,"Ġlandmark":11113,"azing":11114,"ĠBeau":11115,"ĠTelegraph":11116,"Ġguarant":11117,"Ġpublicly":11118,"Ġdirecting":11119,"Ġverses":11120,"Ġconfusion":11121,"Ġdestination":11122,"ĠWeather":11123,"Ġdemon":11124,"Ġplanes":11125,"Ġplanets":11126,"Ġaviation":11127,"Ġavoided":11128,"Ġmagic":11129,"ĠBarbarian":11130,"Ġinvolves":11131,"Ġposts":11132,"Ġgenu":11133,"ĠNeolithic":11134,"ĠNevada":11135,"Ġlimits":11136,"Ġnightingale":11137,"Ġfunny":11138,"Ġsurvival":11139,"Ġbattlefield":11140,"Ġprocessing":11141,"Ã¡n":11142,"Ġ1857":11143,"Ġbarrier":11144,"Ġacceptable":11145,"Ġceased":11146,"ĠCrab":11147,"Ġdraws":11148,"ĠActress":11149,"mediate":11150,"Ġemployment":11151,"Ġseemingly":11152,"Ġviolation":11153,"Ġopined":11154,"Ġdealing":11155,"ĠMontreal":11156,"ĠÃĨ":11157,"ĠStudio":11158,"Ġscreened":11159,"Ġlinks":11160,"ĠMetro":11161,"Ġcomplicated":11162,"ĠBradman":11163,"Ġdedication":11164,"ĠFormation":11165,"Ġkicked":11166,"Ġambassador":11167,"Ġangle":11168,"Ġboyfriend":11169,"Ġessay":11170,"ĠMillennium":11171,"ĠJimmy":11172,"Ġnarrator":11173,"ĠDirect":11174,"Ġfamiliar":11175,"Ġremarkable":11176,"Ġmanufacturing":11177,"Ġduet":11178,"Ġbattleship":11179,"Ġopinions":11180,"ĠLoose":11181,"Ġtunnels":11182,"Ġperfectly":11183,"Ġdevotion":11184,"ĠRailroad":11185,"Ġmythology":11186,"Ġhorror":11187,"Ġsufficiently":11188,"Ġtonnes":11189,"ĠTrail":11190,"Ġevacuated":11191,"ĠBernard":11192,"Ġdisappeared":11193,"ĠAntonio":11194,"Ġrelegation":11195,"iblical":11196,"Ġshifted":11197,"Ġprice":11198,"Ġsongwriter":11199,"Ġaccommodate":11200,"Ġprohibited":11201,"ĠCultural":11202,"Ġbombardment":11203,"ĠYugoslavia":11204,"Ġsubstance":11205,"Ġpredominantly":11206,"ĠRobinson":11207,"Ġrectangular":11208,"ĠRemix":11209,"Ġdrainage":11210,"ĠCPS":11211,"Ġisotopes":11212,"Ġbombs":11213,"ĠMaurice":11214,"Ġsymptoms":11215,"Ġamphib":11216,"ĠMcCarthy":11217,"ĠShimomura":11218,"Ġenormous":11219,"Ġathlete":11220,"Ġsiblings":11221,"ĠCretaceous":11222,"Ġgarnered":11223,"ĠFaulkner":11224,"ĠGacko":11225,"CE":11226,"OM":11227,"box":11228,"cut":11229,"har":11230,"iors":11231,"saku":11232,"wight":11233,"ygh":11234,"zed":11235,"¡ng":11236,"Æ¡ng":11237,"à¸":11238,"Ġion":11239,"inate":11240,"Ġsick":11241,"Ġsaint":11242,"Ġsoph":11243,"Ġwrest":11244,"Ġcash":11245,"Ġcensus":11246,"Ġcavalry":11247,"Ġfires":11248,"Ġbull":11249,"Ġmg":11250,"ĠTow":11251,"Ġrejoin":11252,"ĠAk":11253,"ĠSpe":11254,"Ġlying":11255,"Ġeat":11256,"ĠCG":11257,"ĠCurt":11258,"adstone":11259,"urre":11260,"ĠMile":11261,"ĠMole":11262,"ĠImb":11263,"olves":11264,"Ġstingray":11265,"ĠHit":11266,"ĠHip":11267,"Ġbypass":11268,"ĠRag":11269,"Ġalg":11270,"ĠFord":11271,"ĠFull":11272,"ĠDa":11273,"ĠDwight":11274,"ĠWed":11275,"ĠWisc":11276,"Ġitem":11277,"Ġrushed":11278,"rix":11279,"ĠEP":11280,"ĠEarn":11281,"illas":11282,"aping":11283,"Ġplag":11284,"anther":11285,"oceratops":11286,"ĠUygh":11287,"ĠChan":11288,"Ġcomprehens":11289,"Ġcomputers":11290,"Ġheritage":11291,"ĠVist":11292,"achment":11293,"Ġenroll":11294,"ĠYang":11295,"Ġnep":11296,"Ġeval":11297,"Ġweigh":11298,"Ġremind":11299,"athy":11300,"onsin":11301,"Ġcolors":11302,"ĠCommer":11303,"Ġreleasing":11304,"Ġmovies":11305,"Ġretail":11306,"Ġsubord":11307,"Ġpresbyter":11308,"Ġpopulated":11309,"ĠBrigades":11310,"Ġ172":11311,"Ġ154":11312,"Ġcontinu":11313,"Ġexpand":11314,"Ġwarfare":11315,"Ġimposed":11316,"ĠConstitution":11317,"ĠBegin":11318,"Ġadvances":11319,"Ġgoverned":11320,"Ġvaries":11321,"Ġvariable":11322,"aiman":11323,"Ġhalted":11324,"Ġdemanded":11325,"adys":11326,"Ġexperts":11327,"Ġrealised":11328,"Ġcompetitive":11329,"ĠXook":11330,"ĠXbox":11331,"ĠAssy":11332,"ĠEdge":11333,"Ġafford":11334,"ĠAircraft":11335,"aulted":11336,"Ġlimestone":11337,"ĠGladstone":11338,"Ġ1854":11339,"Ġ1856":11340,"Ġswit":11341,"Ġmorph":11342,"Ġimprovements":11343,"ĠMonth":11344,"Ġelectrical":11345,"ĠRepresent":11346,"Ġcuts":11347,"ĠMedal":11348,"Ġdefender":11349,"Ġcyclones":11350,"Ġ1848":11351,"ĠMontfort":11352,"ĠFilming":11353,"Ġparticipants":11354,"Ġcaliber":11355,"ĠOfficial":11356,"ĠFIT":11357,"Ġlearns":11358,"Ġsuspect":11359,"Ġoptions":11360,"Ġlandscape":11361,"Ġweakening":11362,"Ġofferings":11363,"ĠJulian":11364,"Ġalternate":11365,"Ġwalks":11366,"ĠMalays":11367,"Ġgrasses":11368,"ĠDefence":11369,"Ġsacrif":11370,"Ġuniversal":11371,"ĠDestroy":11372,"ĠSenate":11373,"Ġspotted":11374,"ĠAppe":11375,"Ġcollaborated":11376,"Ġsensitive":11377,"Ġextends":11378,"ĠPete":11379,"ĠGarden":11380,"Ġchallenges":11381,"ĠLiberal":11382,"ĠGabri":11383,"Ġinducted":11384,"Ġmicroscop":11385,"Ġhighlighted":11386,"Ġpetition":11387,"Ġlinear":11388,"Ġimmigrants":11389,"Ġcabinet":11390,"Ġlicens":11391,"ĠNapole":11392,"Ġgender":11393,"Ġsurprised":11394,"ĠTechnology":11395,"Ġhypothes":11396,"ĠNicholas":11397,"Ġhelicopter":11398,"Ġrelieved":11399,"ĠCombat":11400,"Ġdeliberately":11401,"Ġvulner":11402,"ĠPfaster":11403,"Ġdisbanded":11404,"ĠPakistan":11405,"ĠATP":11406,"Ġsupreme":11407,"ĠWitchcraft":11408,"Ġtherapy":11409,"ĠKÅįsaku":11410,"ĠBÃ¬nh":11411,"Æ°Æ¡ng":11412,"Ġacoustic":11413,"Ġdecommissioned":11414,"ĠImbudo":11415,"ĠWisconsin":11416,"ĠEarnest":11417,"ĠBeginning":11418,"ais":11419,"aft":11420,"bits":11421,"dale":11422,"gom":11423,"halsa":11424,"lroy":11425,"pa":11426,"uerto":11427,"Ã±":11428,"įmar":11429,"Ġtal":11430,"Ġtawny":11431,"Ġsweet":11432,"atra":11433,"athetic":11434,"Ġcattle":11435,"itic":11436,"itter":11437,"ituals":11438,"Ġfier":11439,"Ġben":11440,"anelli":11441,"anthodon":11442,"aliation":11443,"Ġped":11444,"Ġpse":11445,"Ġpush":11446,"Ġmentions":11447,"rooms":11448,"Ġdancing":11449,"ĠTan":11450,"ĠTell":11451,"ĠTotal":11452,"ĠAh":11453,"ĠAut":11454,"ĠAction":11455,"ĠSite":11456,"ĠSaf":11457,"ĠSMS":11458,"Ġlie":11459,"Ġnat":11460,"amoul":11461,"ĠMembers":11462,"ĠMhalsa":11463,"Ġgri":11464,"ĠBelt":11465,"Ġaside":11466,"ĠHarris":11467,"uskh":11468,"etheless":11469,"Ġisn":11470,"ĠPuerto":11471,"ĠRI":11472,"ĠRav":11473,"ĠFa":11474,"Ġconvey":11475,"ulating":11476,"ĠWorth":11477,"ĠNuskh":11478,"ĠGy":11479,"ags":11480,"agers":11481,"Ġdeer":11482,"Ġdealt":11483,"Ġrape":11484,"Ġrush":11485,"Ġrituals":11486,"ifest":11487,"iller":11488,"ĠIns":11489,"ework":11490,"ocese":11491,"Ġshock":11492,"Ġyd":11493,"ĠKam":11494,"ĠKick":11495,"ĠKatherine":11496,"iper":11497,"ĠStand":11498,"ĠStakes":11499,"ĠStrapping":11500,"ounced":11501,"Ġintact":11502,"ĠHein":11503,"Ġreconc":11504,"Ġperception":11505,"Ġboil":11506,"lando":11507,"Ġplayable":11508,"ricus":11509,"Ġdisgu":11510,"Ġaftermath":11511,"Ġenabled":11512,"Ġoutstanding":11513,"Ġknee":11514,"ĠEnergy":11515,"ĠDead":11516,"Ġapartment":11517,"Ġpron":11518,"Ġspeculated":11519,"Ġquit":11520,"Ġquiet":11521,"Ġsubtropical":11522,"ĠLevel":11523,"hesh":11524,"Ġaddressed":11525,"Ġdescent":11526,"Ġinvaded":11527,"Ġtransformed":11528,"ĠBrun":11529,"ĠScout":11530,"Ġ115":11531,"Ġmilk":11532,"Ġadventures":11533,"Ġmetric":11534,"Ġheading":11535,"Ġguerr":11536,"ashire":11537,"Ġpromise":11538,"Ġextant":11539,"ĠTrinity":11540,"ĠGuinness":11541,"Ġarrives":11542,"Ġtriang":11543,"ĠOrlando":11544,"Ġtempo":11545,"Ġcommunist":11546,"Ġcompeted":11547,"Ġdeclaring":11548,"ĠParanthodon":11549,"ometric":11550,"Ġpressed":11551,"Ġdivines":11552,"Ġcasting":11553,"ĠBlackie":11554,"Ġlawyer":11555,"Ġ1894":11556,"Ġ1898":11557,"ĠMoro":11558,"Ġcommentary":11559,"Ġcasem":11560,"Ġ1851":11561,"Ġrecognize":11562,"Ġestimate":11563,"Ġ1881":11564,"ĠBergen":11565,"Ġfloods":11566,"Ġ1832":11567,"ĠVargas":11568,"ĠGreatest":11569,"ĠNote":11570,"ĠMontgom":11571,"ĠÃįmar":11572,"Ġantiqu":11573,"ĠTerry":11574,"Ġexamined":11575,"ĠLaure":11576,"Ġflowers":11577,"Ġpaying":11578,"Ġlabour":11579,"ĠMahesh":11580,"Ġportrayal":11581,"ĠSurv":11582,"ĠHumpty":11583,"Ġattending":11584,"ĠColonies":11585,"Ġcrowds":11586,"ĠTodd":11587,"ĠReviews":11588,"Ġqualifying":11589,"Ġexhibited":11590,"Ġthirteen":11591,"Ġdissipating":11592,"ĠFerd":11593,"ĠRhode":11594,"ĠApart":11595,"Ġconnects":11596,"ĠPoet":11597,"Ġcomprising":11598,"ĠNazaire":11599,"ĠDerby":11600,"ĠKeys":11601,"Ġ737":11602,"Ġconcerning":11603,"ĠRetrieved":11604,"Ġaltarpiece":11605,"ĠGabbar":11606,"ĠTraff":11607,"ĠBrazilian":11608,"ĠGanganelli":11609,"ĠDarwin":11610,"ĠWallace":11611,"Ġvolunteers":11612,"ĠKatia":11613,"ĠPersonal":11614,"Ġnickn":11615,"Ġrecreational":11616,"Ġpreceding":11617,"ĠLancashire":11618,"Ġicon":11619,"Ġdiverse":11620,"escope":11621,"ĠPAVN":11622,"Ġinterpretation":11623,"Ġoverwhelming":11624,"ĠRajamoul":11625,"ĠSidon":11626,"Ġreservoirs":11627,"Ġgusts":11628,"Ġcategories":11629,"Ġguidance":11630,"Ġrebellion":11631,"ĠTaxonomy":11632,"Ġliquid":11633,"ĠMcElroy":11634,"Ġhygromet":11635,"Ġinternationally":11636,"Ġmetallic":11637,"ĠÂµm":11638,"ĠGuinea":11639,"ĠBracknell":11640,"ĠNuskhuri":11641,"ĠMontgomery":11642,"ĠRajamouli":11643,"Ġhygrometricus":11644,"Ar":11645,"ED":11646,"aels":11647,"cially":11648,"found":11649,"gro":11650,"hum":11651,"ji":11652,"pat":11653,"ĠÎ":11654,"Ġarose":11655,"Ġthesis":11656,"reated":11657,"Ġwished":11658,"Ġwonder":11659,"unning":11660,"atters":11661,"Ġcam":11662,"Ġcakes":11663,"Ġfart":11664,"Ġbold":11665,"arius":11666,"Ġmild":11667,"Ġdad":11668,"Ġhockey":11669,"ĠSull":11670,"ĠSax":11671,"ĠSNL":11672,"oma":11673,"Ġnose":11674,"aman":11675,"ĠCN":11676,"ĠCadmium":11677,"elago":11678,"adic":11679,"lyn":11680,"ĠMes":11681,"ĠMoh":11682,"Ġgra":11683,"Ġgentle":11684,"ivan":11685,"ĠBou":11686,"ĠBased":11687,"ĠBoot":11688,"igon":11689,"usade":11690,"ayne":11691,"Ġalignment":11692,"ĠFat":11693,"ĠDE":11694,"ĠDÃŃ":11695,"ĠWell":11696,"andom":11697,"ĠNEA":11698,"ĠGross":11699,"ĠLiz":11700,"ĠLyn":11701,"ĠLoren":11702,"ĠdeGrom":11703,"Ġveloc":11704,"Ġchanc":11705,"season":11706,"Ġshall":11707,"Ġleagues":11708,"ovil":11709,"ource":11710,"ipelago":11711,"ption":11712,"ĠChop":11713,"Ġwheel":11714,"Ġrot":11715,"Ġintr":11716,"ĠVishn":11717,"Ġclar":11718,"Ġabn":11719,"irect":11720,"Ġages":11721,"Ġdesper":11722,"Ġdislik":11723,"Ġteleph":11724,"ĠYam":11725,"Ġpref":11726,"Ġsecular":11727,"ĠAnaly":11728,"Ġconservative":11729,"Ġasserted":11730,"Ġincurs":11731,"Ġindirect":11732,"Ġcoat":11733,"Ġcoaster":11734,"Ġentert":11735,"tene":11736,"Ġ1200":11737,"Ġinvitation":11738,"Ġtransits":11739,"Ġtranscription":11740,"ĠScand":11741,"Ġministers":11742,"Ġ111":11743,"Ġbrings":11744,"Ġthoughts":11745,"Ġdiscont":11746,"ylogen":11747,"Ġimpressive":11748,"eping":11749,"Ġinsisted":11750,"ĠBeth":11751,"ĠColl":11752,"ĠForb":11753,"Ġbatting":11754,"Ã©d":11755,"Ġmarched":11756,"Ġpositioned":11757,"ĠTherefore":11758,"Ġorganic":11759,"Ġrealistic":11760,"ĠBrother":11761,"Ġdebt":11762,"ĠParker":11763,"Ġstatue":11764,"Ġinvolve":11765,"Ġwanting":11766,"Ġfarming":11767,"Ġfemin":11768,"Ġordinary":11769,"Ġlights":11770,"Ġgenres":11771,"Ġdestroying":11772,"ĠBlacks":11773,"Ġtourists":11774,"Ġprotesters":11775,"Ġradius":11776,"Ġskill":11777,"Ġtravelling":11778,"Ġ1891":11779,"Ġsword":11780,"ĠSword":11781,"Ġcommerce":11782,"Ġcommercially":11783,"ĠMontene":11784,"Ġ1882":11785,"Ġcircular":11786,"ĠCrim":11787,"Ġhosts":11788,"Ġdrawings":11789,"Ġ1865":11790,"ĠDays":11791,"ĠMedieval":11792,"Ġresponses":11793,"Ġhonours":11794,"Ġinterviews":11795,"Ġinterviewed":11796,"Ġzones":11797,"Ġloop":11798,"Ġeducational":11799,"Ġoccupy":11800,"ĠTerrorist":11801,"Ġensemble":11802,"Ġlayers":11803,"ĠFinn":11804,"Ġscripts":11805,"ĠQuinn":11806,"Ġpaths":11807,"Ġconfirm":11808,"Ġprinciple":11809,"Ġangry":11810,"Ġelevated":11811,"Ġeleventh":11812,"Ġreactor":11813,"Ġtorpedoes":11814,"Ġratio":11815,"Ġweakness":11816,"Ġjumping":11817,"Ġscholarship":11818,"Ġmounts":11819,"Ġhonorary":11820,"ĠDenmark":11821,"ĠLlosa":11822,"Ġeliminate":11823,"Ġwitnesses":11824,"Ġpulp":11825,"ĠMariah":11826,"Ġplatforms":11827,"Ġdecrease":11828,"ĠStewie":11829,"Ġaccomplished":11830,"Ġrevolutionary":11831,"ĠChronicle":11832,"ĠRaymond":11833,"ĠYeovil":11834,"Ġorchestra":11835,"Ġteachings":11836,"ĠGibson":11837,"Ġdinosaurs":11838,"Ġloyal":11839,"Ġacknowledged":11840,"ĠCobra":11841,"rosaurus":11842,"Ġastronomers":11843,"ĠMcLaren":11844,"Ġreverse":11845,"urrently":11846,"Ġsupernatural":11847,"Ġreversed":11848,"Ġbattlecruisers":11849,"Ġinhabited":11850,"Ġcoffee":11851,"ĠSymph":11852,"Ġsemifinals":11853,"Ġpione":11854,"Ġadvertisements":11855,"ĠJenkins":11856,"ĠFifth":11857,"ĠBattery":11858,"Ġhampered":11859,"ĠAlgernon":11860,"Ġwreck":11861,"Ġsituations":11862,"ĠRafael":11863,"apolis":11864,"ĠFastra":11865,"Ġunexpected":11866,"Ġgraphic":11867,"ĠSullivan":11868,"ĠDÃŃaz":11869,"Ġvelocity":11870,"aude":11871,"hin":11872,"pack":11873,"rino":11874,"zes":11875,"Ġtent":11876,"Ġaided":11877,"inisc":11878,"Ġtheore":11879,"onation":11880,"Ġcu":11881,"Ġcir":11882,"Ġcens":11883,"Ġcats":11884,"Ġfil":11885,"Ġfiled":11886,"isons":11887,"Ġborrowed":11888,"Ġpuma":11889,"asco":11890,"Ġmast":11891,"Ġdawn":11892,"ĠTai":11893,"Ġthrown":11894,"entine":11895,"ĠSyn":11896,"stable":11897,"stappen":11898,"Ġeagle":11899,"eld":11900,"adh":11901,"Ġbeak":11902,"ĠMail":11903,"Ġgover":11904,"Ġghost":11905,"Ġgospel":11906,"Ġforg":11907,"ivation":11908,"idel":11909,"igible":11910,"thic":11911,"Ġstaged":11912,"Ġstabil":11913,"Ġstorage":11914,"ĠHom":11915,"ĠHem":11916,"ĠHosp":11917,"oto":11918,"Ġwhatever":11919,"ĠDawn":11920,"Ġconce":11921,"Ġconso":11922,"Ġconform":11923,"Ġconceived":11924,"emen":11925,"ĠWu":11926,"osph":11927,"ĠNi":11928,"ĠLear":11929,"odium":11930,"riors":11931,"istical":11932,"Ġvint":11933,"illes":11934,"ĠInside":11935,"Ġexterior":11936,"ĠKah":11937,"ĠKarl":11938,"ĠStaff":11939,"ostere":11940,"ĠChang":11941,"Ġunstable":11942,"ĠVoyage":11943,"Ġdesired":11944,"Ġspelling":11945,"Ġspokes":11946,"Ġcentres":11947,"ĠSean":11948,"tsburgh":11949,"Ġfeared":11950,"Ġreminisc":11951,"ĠArcher":11952,"Ġconspir":11953,"ĠNewport":11954,"Ġmusc":11955,"Ġaccus":11956,"Ġfounding":11957,"Ġblamed":11958,"ĠJohann":11959,"Ġstudios":11960,"ĠAftermath":11961,"Ġdeveloper":11962,"Ġdevelopments":11963,"Ġ151":11964,"ĠIndies":11965,"Ġterr":11966,"Ġdeputy":11967,"ylostere":11968,"Ġefficient":11969,"Ġsixty":11970,"ĠBeing":11971,"Ġwinners":11972,"Ġadvocated":11973,"erves":11974,"ĠNorthumber":11975,"mede":11976,"ĠJanet":11977,"Ġlasting":11978,"ĠFez":11979,"Ġconfused":11980,"Ġprogression":11981,"Ġslave":11982,"Ġmarkets":11983,"Ġphosph":11984,"ĠSpir":11985,"ĠOrd":11986,"Ġdebated":11987,"Ġantagon":11988,"Ġtwins":11989,"brush":11990,"alypt":11991,"Ġelite":11992,"Ġdeclaration":11993,"ĠAmylostere":11994,"ĠEdition":11995,"ĠDavies":11996,"Ġradar":11997,"Ġradical":11998,"Ġdiscovers":11999,"Ġ1896":12000,"Ġentirety":12001,"ecutive":12002,"ĠGlass":12003,"Ġcampaigns":12004,"Ġcommentators":12005,"Ġidentical":12006,"Ġagrees":12007,"ĠExeter":12008,"ĠExecutive":12009,"Ġlacks":12010,"Ġcease":12011,"Ġ1862":12012,"ĠThompson":12013,"Ġachievement":12014,"Ġcostumes":12015,"ĠMaryang":12016,"Ġexciting":12017,"castle":12018,"ĠMedical":12019,"Ġstaying":12020,"Ġbills":12021,"Ġpainter":12022,"Ġpersisted":12023,"Ġopens":12024,"Ġgraduated":12025,"iffs":12026,"Ġparticipation":12027,"Ġmemoir":12028,"ĠArtist":12029,"ĠArtillery":12030,"ĠVerstappen":12031,"Ġfrequency":12032,"ĠGoat":12033,"Ġcoined":12034,"Ġfriendship":12035,"Ġfocuses":12036,"Ġdeeply":12037,"Ġborders":12038,"Ġbombers":12039,"Ġcounteratt":12040,"Ġlogs":12041,"Ġjudo":12042,"Ġmurd":12043,"ĠBobby":12044,"ĠJamie":12045,"Ġemotion":12046,"Ġathletics":12047,"Ġvocalist":12048,"Ġexhibit":12049,"Ġmessages":12050,"Ġprinting":12051,"Ġemphasized":12052,"Ġbelonged":12053,"Ġtargeted":12054,"Ġfungi":12055,"bourne":12056,"ĠAnnals":12057,"ĠPopM":12058,"ĠAttack":12059,"Ġfears":12060,"Ġrestaurants":12061,"ĠAthletics":12062,"ĠShaolin":12063,"Ġcameras":12064,"Ġproposals":12065,"Ġrendition":12066,"ĠBruins":12067,"Ġapplications":12068,"Ġsubmarines":12069,"Ġplumage":12070,"Ġsailors":12071,"ĠFreedom":12072,"Ġcorresponding":12073,"Ġawareness":12074,"Ġaffecting":12075,"Ġdrugs":12076,"Ġenlisted":12077,"Ġfairly":12078,"ĠCampbeltown":12079,"Ġskelet":12080,"Ġgathering":12081,"Ġmutual":12082,"Ġgallery":12083,"ĠWolfpack":12084,"Ġpatrols":12085,"ĠDurham":12086,"ipedia":12087,"Ġrecruited":12088,"Ġmerchant":12089,"Ġfrigates":12090,"ĠMagdalen":12091,"ĠBehind":12092,"Ġstere":12093,"Ġbinding":12094,"Ġaggregate":12095,"Ġenthusi":12096,"ĠPrivate":12097,"ĠAdministration":12098,"Ġbonus":12099,"Ġadministered":12100,"Ġdispatched":12101,"ĠWikipedia":12102,"ĠMcNichol":12103,"Ġcomprehensive":12104,"Ġnephew":12105,"Ġgoverning":12106,"Ġconsole":12107,"Ġreminiscent":12108,"ĠNorthumberland":12109,"bre":12110,"case":12111,"coh":12112,"chen":12113,"even":12114,"othy":12115,"pike":12116,"point":12117,"rist":12118,"xim":12119,"zu":12120,"ãĥ":12121,"Ġtennis":12122,"herent":12123,"inster":12124,"Ġsaving":12125,"Ġoribi":12126,"Ġcable":12127,"Ġbron":12128,"Ġboss":12129,"Ġinver":12130,"aland":12131,"Ġpose":12132,"Ġharsh":12133,"ĠTuck":12134,"ĠTzu":12135,"ĠAway":12136,"ĠSri":12137,"Ġlig":12138,"Ġnice":12139,"ĠCemetery":12140,"ĠMall":12141,"Ġforb":12142,"olver":12143,"ĠBa":12144,"ighed":12145,"ĠHad":12146,"ĠHakim":12147,"etown":12148,"ĠPok":12149,"ĠPink":12150,"ĠRen":12151,"ĠRNA":12152,"Ġalcoh":12153,"ĠFear":12154,"ĠDumpt":12155,"Ġconven":12156,"Ġconclus":12157,"ĠWave":12158,"ĠWells":12159,"ĠGen":12160,"ĠGuth":12161,"ĠGao":12162,"ested":12163,"ĠOt":12164,"ĠEug":12165,"ĠECU":12166,"Ġproxim":12167,"resco":12168,"oping":12169,"Ġoral":12170,"Ġchances":12171,"Ġexile":12172,"ĠKub":12173,"ovac":12174,"asted":12175,"ĠStyle":12176,"geon":12177,"ounters":12178,"Ġbutt":12179,"Ġrout":12180,"Ġscope":12181,"Ġscores":12182,"Ġdisabled":12183,"Ġjur":12184,"Ġovercome":12185,"izong":12186,"iban":12187,"Ġoutd":12188,"Ġnearest":12189,"Ġalliance":12190,"issart":12191,"Ġcanons":12192,"icken":12193,"Ġintervention":12194,"Ġpray":12195,"Ġflown":12196,"Ġincred":12197,"ĠLeinster":12198,"Ġdoors":12199,"Ġgram":12200,"Ġelephant":12201,"Ġ108":12202,"Ġdecis":12203,"Ġdecoration":12204,"phy":12205,"aja":12206,"Ġ167":12207,"ĠShaw":12208,"Ġmining":12209,"Ġreporter":12210,"ĠBloom":12211,"ĠCommodore":12212,"ĠClay":12213,"ĠNorthwest":12214,"ĠAdri":12215,"Ġconfidence":12216,"Ġrefuses":12217,"Ġexplaining":12218,"Ġexplored":12219,"Ġbread":12220,"Ġbreeds":12221,"Ġhandle":12222,"Ġhandling":12223,"ĠBoat":12224,"Ġsuggestion":12225,"Ġcrusad":12226,"Ġdebris":12227,"Ġtotally":12228,"ĠMint":12229,"Ġlessons":12230,"Ġstatues":12231,"ĠBaron":12232,"ĠParachute":12233,"Ġeighteen":12234,"Ġaffair":12235,"adesh":12236,"Ġintroduces":12237,"Ġhumanity":12238,"Ġblacks":12239,"ĠRegiments":12240,"Ġcorrid":12241,"Ġmixing":12242,"Ġ1893":12243,"Ġ1899":12244,"Ġsummar":12245,"Ġcoastline":12246,"ĠCareer":12247,"ĠSecurity":12248,"ĠMoritz":12249,"Ġknows":12250,"ÃŃn":12251,"ĠOthers":12252,"Ġestimates":12253,"Ġsexually":12254,"Ġarguments":12255,"Ġacceptance":12256,"Ġrounded":12257,"Ġarmoured":12258,"Ġencounters":12259,"ĠSyria":12260,"Ġ1874":12261,"Ġcontracts":12262,"boro":12263,"Ġsubjected":12264,"Ġwoodland":12265,"Ġpoetic":12266,"Ġguitarist":12267,"Ġfocusing":12268,"unta":12269,"Ġultimate":12270,"ĠJoan":12271,"ĠSoviets":12272,"Ġattendance":12273,"Ġsymbols":12274,"Ġdescriptions":12275,"Ġdemonstration":12276,"ĠEngineers":12277,"Ġholes":12278,"ĠJoshua":12279,"ĠMDOT":12280,"ĠBrethren":12281,"ĠFerr":12282,"Ġextraord":12283,"Ġlabeled":12284,"metrical":12285,"Ġromance":12286,"Ġintelligent":12287,"Ġoxide":12288,"Ġfoxes":12289,"ĠCarlos":12290,"ĠClassic":12291,"Ġexpeditions":12292,"Ġprompting":12293,"Ġmigration":12294,"ĠUNES":12295,"Ġrendered":12296,"Ġwitnessed":12297,"Ġmistaken":12298,"ĠEllis":12299,"ĠMurphy":12300,"Ġrifles":12301,"ĠIngram":12302,"ĠRowley":12303,"Ġexplosive":12304,"ĠGreater":12305,"Ġinstrumental":12306,"Ġexercise":12307,"ĠMarshal":12308,"Ġshelter":12309,"ĠCopia":12310,"Ġsynthesis":12311,"Ġruins":12312,"ĠSavage":12313,"Ġimplemented":12314,"Ġdeposits":12315,"Ġinteg":12316,"Ġexhaust":12317,"Ġabsolut":12318,"Ġsamples":12319,"ĠCruiser":12320,"Ġanswer":12321,"Ġincomplete":12322,"Ġoverwhelmed":12323,"ĠAldean":12324,"Ġlisteners":12325,"ĠElectronic":12326,"Ġabundant":12327,"Ġabundance":12328,"Ġframework":12329,"ĠLithuan":12330,"Ġobstacles":12331,"Ġplayoffs":12332,"Ġturbines":12333,"Ġfantasy":12334,"ĠUniversal":12335,"Ġfertil":12336,"ĠUnderne":12337,"oplasm":12338,"ĠImportance":12339,"ĠHairan":12340,"ĠIAAF":12341,"ĠLÃ¼tz":12342,"ĠPuppet":12343,"ĠBhairava":12344,"Ġsanctuary":12345,"ĠCurtis":12346,"ĠChanology":12347,"ĠVistara":12348,"ĠNapoleon":12349,"Ġnaturally":12350,"Ġnickname":12351,"ĠDumpty":12352,"ĠGuthrie":12353,"ĠGaozong":12354,"Ġproximity":12355,"ĠUNESCO":12356,"ĠUnderneath":12357,"ĠLÃ¼tzow":12358,"NZ":12359,"cena":12360,"fire":12361,"jan":12362,"kes":12363,"lings":12364,"uania":12365,"vÄģda":12366,"wall":12367,"á¹":12368,"ĺī":12369,"Ġtel":12370,"Ġtales":12371,"inand":12372,"inich":12373,"rez":12374,"Ġsin":12375,"aters":12376,"oric":12377,"Ġcyl":12378,"itudes":12379,"Ġfed":12380,"isations":12381,"Ġbin":12382,"alph":12383,"Ġpill":12384,"Ġmere":12385,"Ġmaps":12386,"Ġdining":12387,"leans":12388,"ĠTalk":12389,"ĠAx":12390,"ĠANZ":12391,"ĠSEC":12392,"sts":12393,"Ġnas":12394,"Ġnic":12395,"ĠCall":12396,"acements":12397,"ĠMets":12398,"ĠITV":12399,"ĠBes":12400,"Ġstress":12401,"Ġstalk":12402,"ĠHave":12403,"ĠHub":12404,"ĠHoll":12405,"ĠPic":12406,"ĠPesh":12407,"ĠRalph":12408,"ĠFountain":12409,"ĠFlying":12410,"ĠDiamond":12411,"ulates":12412,"ĠWas":12413,"oso":12414,"ĠNF":12415,"ĠNOK":12416,"ĠGene":12417,"ĠLiam":12418,"Ġseated":12419,"umble":12420,"ĠOke":12421,"ĠIngr":12422,"opp":12423,"Ġorange":12424,"arting":12425,"Ġchord":12426,"Ġexchang":12427,"Ġexternal":12428,"Ġâĺī":12429,"ocy":12430,"Ġshaft":12431,"ĠkW":12432,"ĠKaiman":12433,"oves":12434,"ĠStat":12435,"ĠStones":12436,"ĠStarting":12437,"clamation":12438,"Ġuncom":12439,"Ġherb":12440,"ĠThan":12441,"ĠThail":12442,"ught":12443,"Ġmane":12444,"Ġjam":12445,"Ġspell":12446,"Ġspoken":12447,"ressions":12448,"ĠUnit":12449,"Ġremake":12450,"ĠAny":12451,"Ġrelied":12452,"ĠMarily":12453,"ĠNewfound":12454,"Ġretreated":12455,"Ġsuburb":12456,"ĠLeo":12457,"obee":12458,"Ġcooking":12459,"Ġ102":12460,"Ġdeciding":12461,"Ġ129":12462,"Ġinvent":12463,"itsu":12464,"Ġtransmitted":12465,"Ġmonster":12466,"Ġ156":12467,"ĠIndu":12468,"Ġexpanding":12469,"ĠWarrior":12470,"Ġrepet":12471,"Ġprovision":12472,"aze":12473,"Ġpassenger":12474,"Ġadvent":12475,"Ġdamages":12476,"ĠCarroll":12477,"Ġpointing":12478,"Ġeditions":12479,"ĠEuropium":12480,"pedition":12481,"Ġportraits":12482,"Ġconfron":12483,"ĠGrant":12484,"Ġtrium":12485,"Ġorganisations":12486,"Ġslaves":12487,"Ġphylogen":12488,"ĠFlair":12489,"ĠOrleans":12490,"arnation":12491,"Ġjoins":12492,"Ġcompeting":12493,"ĠPeron":12494,"ĠGeneration":12495,"Ġlesser":12496,"Ġcurve":12497,"Ġtroop":12498,"ĠPalmer":12499,"Ġ1892":12500,"Ġlikewise":12501,"Ġerror":12502,"Ġassociate":12503,"Ġ1859":12504,"ĠExpedition":12505,"Ġswallow":12506,"Ġaveraged":12507,"Ġseparately":12508,"Ġimproving":12509,"Ġspecialized":12510,"ĠMonica":12511,"Ġmaternal":12512,"ealous":12513,"ĠMarket":12514,"Ġmerc":12515,"licted":12516,"Ġdonations":12517,"Ġstopping":12518,"ĠHelen":12519,"ĠNotable":12520,"ĠÃī":12521,"Ġcrucial":12522,"ĠJerry":12523,"Ġpreventing":12524,"Ġscreenplay":12525,"Ġdispersed":12526,"ĠTurkey":12527,"Ġcontempor":12528,"uki":12529,"Ġuncle":12530,"Ġuncover":12531,"Ġconsiderably":12532,"Ġsuspected":12533,"Ġkinds":12534,"ĠTwins":12535,"ĠArchbishop":12536,"ĠRobyn":12537,"Ġintersections":12538,"Ġprinciples":12539,"ĠOutside":12540,"Ġlifted":12541,"ĠJulio":12542,"ÄģdvÄģda":12543,"umbered":12544,"ĠConfession":12545,"ĠJosh":12546,"Ġprincess":12547,"ĠHalf":12548,"Ġfunctional":12549,"Ġjournalists":12550,"ĠConstantin":12551,"ĠLoch":12552,"Ġremixes":12553,"Ġminerals":12554,"echobee":12555,"ĠIndustrial":12556,"Ġstrikeouts":12557,"Ġimagination":12558,"Ġphilosoph":12559,"Ġreflects":12560,"ĠDoctor":12561,"Ġchallenged":12562,"ĠLiberty":12563,"Ġfavourite":12564,"ĠBasement":12565,"Ġdistinguish":12566,"ĠAdventures":12567,"Ġsegments":12568,"ĠJudith":12569,"ĠUrban":12570,"Ġinstrumentation":12571,"ĠSubsequently":12572,"Ġdisappear":12573,"ĠDomnall":12574,"Ġconsequence":12575,"ĠBiography":12576,"Ġstreams":12577,"Ġbesie":12578,"ĠSaigon":12579,"ĠCruise":12580,"ĠMuham":12581,"Ġpersuaded":12582,"Ġgarden":12583,"ĠLithuania":12584,"Ġmammal":12585,"ĠBuddhist":12586,"Ġdrafted":12587,"Ġsummary":12588,"ĠObserver":12589,"Ġbarely":12590,"Ġphenomenon":12591,"Ġnineteenth":12592,"ĠRapids":12593,"Ġexcellent":12594,"Ġecho":12595,"ĠRebbie":12596,"Ġcrafts":12597,"Ġredesign":12598,"Ġhorizont":12599,"tymology":12600,"ĠOfficer":12601,"ĠCadets":12602,"isphere":12603,"ĠFerdinand":12604,"ĠSaxon":12605,"ĠLorenzo":12606,"ĠCrimson":12607,"ĠANZAC":12608,"ĠPeshkin":12609,"ĠOkeechobee":12610,"ĠIngrid":12611,"ĠKaimanawa":12612,"ĠThailand":12613,"ĠMarilyn":12614,"ĠNewfoundland":12615,"BO":12616,"SU":12617,"cor":12618,"kamed":12619,"lore":12620,"mem":12621,"no":12622,"nance":12623,"time":12624,"Ġties":12625,"Ġtong":12626,"Ġtune":12627,"inued":12628,"onso":12629,"reation":12630,"Ġstern":12631,"Ġsink":12632,"unc":12633,"ndolen":12634,"Ġca":12635,"itall":12636,"itars":12637,"ester":12638,"aro":12639,"ali":12640,"Ġmos":12641,"icism":12642,"Ġdign":12643,"Ġdug":12644,"Ġdanc":12645,"Ġdads":12646,"Ġhide":12647,"Ġreass":12648,"Ġthro":12649,"Ġthread":12650,"ĠAL":12651,"ĠAires":12652,"ila":12653,"iland":12654,"ilogy":12655,"ĠSport":12656,"ĠSpect":12657,"ĠSuez":12658,"oment":12659,"Ġecl":12660,"Ġnit":12661,"Ġnaut":12662,"ĠCry":12663,"ĠChemical":12664,"elope":12665,"Ġwaste":12666,"ĠMaid":12667,"ĠIR":12668,"Ġgains":12669,"Ġforget":12670,"ivorous":12671,"ĠBod":12672,"ĠBour":12673,"ĠBuen":12674,"ira":12675,"Ġstro":12676,"ĠHond":12677,"ĠPion":12678,"ĠPast":12679,"ĠPresent":12680,"ĠRat":12681,"ĠRook":12682,"ĠROK":12683,"ĠFig":12684,"ĠFund":12685,"ĠFlet":12686,"ĠFisher":12687,"ĠDal":12688,"ĠDoc":12689,"emark":12690,"ĠWard":12691,"osely":12692,"Ġanger":12693,"ĠGwe":12694,"ĠLin":12695,"ĠLim":12696,"Ġhence":12697,"estock":12698,"Ġrus":12699,"ĠEaster":12700,"ĠEps":12701,"Ġprobe":12702,"Ġvault":12703,"rescent":12704,"ĠInformation":12705,"opy":12706,"Ġchase":12707,"Ġchann":12708,"berry":12709,"ocation":12710,"Ġkiss":12711,"ĠKer":12712,"astian":12713,"ĠStansfield":12714,"clair":12715,"arya":12716,"ĠChile":12717,"Ġcomparing":12718,"itional":12719,"Ġclimb":12720,"Ġresolved":12721,"ĠThing":12722,"Ġagencies":12723,"ulty":12724,"Ġtends":12725,"Ġupr":12726,"anga":12727,"Ġspr":12728,"ĠYet":12729,"Ġsecuring":12730,"Ġremote":12731,"ĠAnsel":12732,"Ġrelay":12733,"Ġrelax":12734,"ugs":12735,"ĠComics":12736,"ĠComair":12737,"fting":12738,"ĠDeal":12739,"Ġregister":12740,"Ġincons":12741,"ĠLead":12742,"Ġgrace":12743,"Ġthereby":12744,"Ġsupplied":12745,"Ġsurve":12746,"phae":12747,"Ġ126":12748,"airn":12749,"full":12750,"Ġmillions":12751,"Ġbranches":12752,"ĠIndolence":12753,"Ġterrorist":12754,"ĠMayor":12755,"Ġdistort":12756,"Ġinfected":12757,"ĠBeat":12758,"Ġcharacterised":12759,"Ġmodes":12760,"Ġguitars":12761,"ĠTrade":12762,"Ġexplan":12763,"ĠManor":12764,"Ġdemanding":12765,"Ġdemographic":12766,"ĠBoom":12767,"Ġtraders":12768,"Ġcontrace":12769,"Ġeveryday":12770,"Ġparade":12771,"Ġdelight":12772,"Ġsitcom":12773,"Ġsolita":12774,"ĠEdd":12775,"ambia":12776,"Ġhumanitarian":12777,"ĠCharan":12778,"Ġconvict":12779,"Ġvillain":12780,"ogns":12781,"Ġsummon":12782,"restrial":12783,"Ġfights":12784,"ĠMonument":12785,"Ġ1888":12786,"ĠBerg":12787,"ĠBerk":12788,"Ġceiling":12789,"Ġ355":12790,"Ġ1863":12791,"Ġachievements":12792,"ĠCommandments":12793,"Ġ1877":12794,"ĠCapital":12795,"Ġsometime":12796,"Ġ1836":12797,"Ġbreakdown":12798,"ĠEmma":12799,"Ġfails":12800,"ĠReserve":12801,"Ġblockade":12802,"Ġdrown":12803,"toire":12804,"ĠMetall":12805,"ĠMetropolitan":12806,"ĠGothic":12807,"ĠBeyond":12808,"pani":12809,"Ġhopes":12810,"ĠFormer":12811,"Ġthrows":12812,"Ġdepends":12813,"Ġinvestigate":12814,"Ġdiseases":12815,"Ġhotels":12816,"ĠDelano":12817,"ĠCasting":12818,"Ġwitch":12819,"elligence":12820,"Ġchemistry":12821,"Ġconcentrations":12822,"Ġprecipitation":12823,"Ġincorporates":12824,"ĠConfessions":12825,"Ġharvest":12826,"Ġmechanism":12827,"Ġvenom":12828,"ĠHistorical":12829,"ĠFerry":12830,"ĠTruth":12831,"Ġneutron":12832,"Ġarticles":12833,"ĠSarah":12834,"Ġphilosopher":12835,"Ġattractive":12836,"ĠBarbara":12837,"ĠCuba":12838,"Ġ978":12839,"ĠEscape":12840,"Ġremnant":12841,"Ġreserves":12842,"Ġunsuccessfully":12843,"ĠMoving":12844,"avery":12845,"ĠArikamed":12846,"Ġcontributions":12847,"Ġdescendants":12848,"ĠLeonardo":12849,"Ġcorrespondence":12850,"Ġenlarged":12851,"Ġdownloadable":12852,"ĠMothers":12853,"Ġtributary":12854,"Ġswept":12855,"ĠDurand":12856,"ĠNicholson":12857,"Ġhelicopters":12858,"ĠIntelligence":12859,"Ġattributes":12860,"Ġmammals":12861,"Ġrumors":12862,"ĠParalympic":12863,"ĠHoriz":12864,"Ġmanufacturer":12865,"Ġfatalities":12866,"Ġlatest":12867,"Ġenzymes":12868,"Ġhemmem":12869,"Ġrecalls":12870,"ĠSinclair":12871,"ĠObservatory":12872,"Ġreopened":12873,"ĠBarnes":12874,"Ġcanceled":12875,"Ġhurd":12876,"Ġrepertoire":12877,"Ġlivestock":12878,"ĠCarty":12879,"Ġalphabet":12880,"Ġhiatus":12881,"Ġscenario":12882,"ĠFITs":12883,"Ġvulnerable":12884,"ĠVishnu":12885,"ĠScandin":12886,"ĠHospitall":12887,"Ġnautical":12888,"ĠBuenos":12889,"ĠGwendolen":12890,"Ġchannels":12891,"ĠAnselm":12892,"Ġsolitaire":12893,"ĠArikamedu":12894,"IV":12895,"cat":12896,"cos":12897,"jib":12898,"music":12899,"pets":12900,"rat":12901,"tovac":12902,"ĠÅ":12903,"Ġtension":12904,"hening":12905,"inces":12906,"erb":12907,"Ġworse":12908,"orith":12909,"Ġfest":12910,"Ġfisher":12911,"enburg":12912,"Ġbath":12913,"Ġincl":12914,"Ġpover":12915,"Ġmud":12916,"Ġmail":12917,"ĠmRNA":12918,"Ġdri":12919,"Ġdull":12920,"Ġdried":12921,"ĠTanya":12922,"ĠAw":12923,"ĠAff":12924,"ĠSac":12925,"ĠSug":12926,"ĠSquad":12927,"ĠCow":12928,"ĠCamer":12929,"eland":12930,"adi":12931,"ĠTheater":12932,"ĠMP":12933,"ĠBould":12934,"idae":12935,"iri":12936,"irate":12937,"igger":12938,"thi":12939,"Ġstump":12940,"ĠHod":12941,"ĠHoys":12942,"usa":12943,"ayana":12944,"ĠRico":12945,"ĠRush":12946,"ĠRandy":12947,"ĠFal":12948,"ĠFruit":12949,"ĠDian":12950,"ĠDraft":12951,"ĠWit":12952,"Ġanonymous":12953,"ĠLars":12954,"avian":12955,"Ġramp":12956,"ĠOcc":12957,"ĠOjib":12958,"Ġcomics":12959,"ĠEU":12960,"Ġproof":12961,"apa":12962,"abs":12963,"abad":12964,"Ġyl":12965,"oved":12966,"Ġbutter":12967,"Ġcontacted":12968,"Ġarsenal":12969,"Ġunw":12970,"Ġuncon":12971,"Ġroot":12972,"Ġrouting":12973,"ĠVis":12974,"ĠVett":12975,"Ġclad":12976,"assy":12977,"Ġreserved":12978,"Ġrespected":12979,"ĠThings":12980,"Ġboom":12981,"ĠAlph":12982,"Ġmanifest":12983,"Ġjunta":12984,"Ġenvel":12985,"Ġoutcome":12986,"Ġoutput":12987,"Ġweighed":12988,"Ġworker":12989,"Ġmeat":12990,"alsock":12991,"Ġrelating":12992,"Ġthanks":12993,"ĠEno":12994,"Ġrelevant":12995,"Ġinterception":12996,"Ġinterrupted":12997,"Ġintermediate":12998,"Ġformula":12999,"Ġflaw":13000,"Ġregulation":13001,"Ġregiments":13002,"Ġassessed":13003,"Ġambit":13004,"Ġamazing":13005,"Ġ103":13006,"tona":13007,"Ġadds":13008,"Ġblind":13009,"Ġdirections":13010,"Ġmonaster":13011,"elfth":13012,"ĠIndeed":13013,"Ġtermed":13014,"Ġrepaired":13015,"Ġprovinces":13016,"ĠConsequently":13017,"Ġcarrier":13018,"omanry":13019,"Ġmaturity":13020,"Ġsupports":13021,"Ġdamaging":13022,"Ġstrain":13023,"Ġstrange":13024,"ĠHerbert":13025,"Ġannoy":13026,"ĠMegan":13027,"ĠClair":13028,"Ġcareers":13029,"Ġdrink":13030,"Ġversus":13031,"Ġpossessed":13032,"Ġconfident":13033,"Ġconfluence":13034,"Ġthirds":13035,"Ġreflection":13036,"ĠMusical":13037,"ĠQi":13038,"Ġrequiring":13039,"ĠMcK":13040,"ĠManager":13041,"levard":13042,"ĠOrtona":13043,"Ġcontracted":13044,"Ġmidfield":13045,"Ġtownship":13046,"Ġarchipelago":13047,"Ġdelays":13048,"Ġvictorious":13049,"Ġprofound":13050,"Ġprojected":13051,"Ġobserve":13052,"Ġfarms":13053,"Ġfacts":13054,"Ġcharting":13055,"ĠMichaels":13056,"ambers":13057,"ĠBlackburn":13058,"ĠRegard":13059,"ĠRoyston":13060,"Ġconviction":13061,"Ġreadily":13062,"Ġsuffer":13063,"Ġsummit":13064,"ĠTowns":13065,"Ġpredict":13066,"Ġglac":13067,"Ġidentifies":13068,"Ġ1853":13069,"Ġ1858":13070,"commun":13071,"Ġswitch":13072,"Ġcreature":13073,"Ġ1885":13074,"ĠPlaying":13075,"ĠDuarte":13076,"Ġfortified":13077,"alties":13078,"ĠMostar":13079,"Ġrebel":13080,"umping":13081,"Ġthinks":13082,"ĠWilf":13083,"Ġmerged":13084,"ĠKhoo":13085,"Ġdiscussing":13086,"Ġdiscussions":13087,"Ġremoving":13088,"Ġdissolution":13089,"Ġliterally":13090,"ĠFilms":13091,"Ġcruise":13092,"Ġdropping":13093,"Ġ750":13094,"Ġensuing":13095,"ĠFinland":13096,"Ġcomplained":13097,"ĠCatholicism":13098,"Ġcelebration":13099,"ĠItalians":13100,"Ġinvestigated":13101,"Ġphotography":13102,"Ġsalmon":13103,"Ġgraphs":13104,"ĠDamage":13105,"Ġlifestyle":13106,"writer":13107,"ĠKrist":13108,"ĠReviewers":13109,"Ġdynam":13110,"ĠBolton":13111,"ĠControl":13112,"ĠAvtovac":13113,"Ġlegislature":13114,"Ġneutrino":13115,"Ġdeployment":13116,"Ġflee":13117,"Ġcomprises":13118,"Ġstrengthening":13119,"Ġpanels":13120,"ĠMorris":13121,"ĠAdditional":13122,"Ġstriker":13123,"ĠGiÃ£":13124,"Ġunusually":13125,"ĠMuslims":13126,"Ġcooler":13127,"Ġaccidentally":13128,"ĠSussex":13129,"Ġlawsuit":13130,"Ġeldest":13131,"Ġexercised":13132,"Ġmortar":13133,"Ġcommitment":13134,"ĠFelicia":13135,"Ġconducting":13136,"Ġbeside":13137,"Ġskeleton":13138,"Ġtraits":13139,"Ġnicknamed":13140,"ĠRosberg":13141,"Ġproceeds":13142,"Ġclouds":13143,"Ġmaintains":13144,"Ġconquered":13145,"Ġfloating":13146,"Ġacclaimed":13147,"ĠLaboratory":13148,"ĠMelbourne":13149,"Ġloyalty":13150,"ĠCulture":13151,"ĠBroncos":13152,"ĠJennifer":13153,"Ġorbital":13154,"ĠAPF":13155,"Ġresignation":13156,"Ġfrigate":13157,"Ġprolong":13158,"Ġerrors":13159,"Ġimprisoned":13160,"ĠExpressway":13161,"Ġnavigation":13162,"ĠParalympics":13163,"ĠNashville":13164,"ĠVeeru":13165,"Ġclusters":13166,"Ġumpire":13167,"ĠIndonesian":13168,"Ġneighborhoods":13169,"course":13170,"Ġsketch":13171,"Ġseventeen":13172,"Ġdodo":13173,"ĠNME":13174,"Ġveteran":13175,"ĠPhilippines":13176,"eveloped":13177,"ĠLoyalsock":13178,"Ġalgorith":13179,"ĠAssyrian":13180,"ĠRIAA":13181,"Ġabnormal":13182,"Ġdisliked":13183,"Ġincursion":13184,"ĠPokiri":13185,"Ġpoverty":13186,"ĠBoulder":13187,"ĠOjibwe":13188,"ĠVettel":13189,"Ġenvelope":13190,"Ġambitious":13191,"cade":13192,"dict":13193,"eus":13194,"fens":13195,"gence":13196,"ggy":13197,"hanna":13198,"lix":13199,"layer":13200,"mund":13201,"say":13202,"ua":13203,"zing":13204,"Ġtheolog":13205,"Ġtheories":13206,"render":13207,"Ġsinking":13208,"Ġcel":13209,"Ġcock":13210,"Ġfing":13211,"Ġbot":13212,"Ġbite":13213,"ingham":13214,"asant":13215,"Ġtoy":13216,"Ġmit":13217,"Ġmad":13218,"rov":13219,"Ġhate":13220,"Ġhier":13221,"Ġhunt":13222,"leted":13223,"ĠTun":13224,"ĠTob":13225,"Ġthorough":13226,"ĠAren":13227,"ĠSau":13228,"sters":13229,"Ġlion":13230,"Ġlighter":13231,"Ġease":13232,"elin":13233,"adir":13234,"ĠMI":13235,"ĠMend":13236,"Ġgif":13237,"oles":13238,"olly":13239,"olph":13240,"ĠBorough":13241,"ĠBoca":13242,"imol":13243,"ĠHang":13244,"ĠHutch":13245,"ĠHappy":13246,"usanag":13247,"otilla":13248,"ĠPD":13249,"ĠPear":13250,"ĠRound":13251,"ĠRuth":13252,"Ġalbe":13253,"ĠFur":13254,"ĠFisc":13255,"ĠFiction":13256,"ĠDh":13257,"employ":13258,"ĠWang":13259,"ĠWany":13260,"ĠWemb":13261,"ĠLakes":13262,"ĠLands":13263,"ĠLED":13264,"avor":13265,"avan":13266,"Ġseed":13267,"Ġsear":13268,"Ġri":13269,"Ġrises":13270,"Ġrandom":13271,"ĠOst":13272,"rifield":13273,"Ġproced":13274,"Ġvig":13275,"Ġvoyage":13276,"aki":13277,"akers":13278,"Ġexpense":13279,"about":13280,"ques":13281,"quet":13282,"Ġkids":13283,"ĠKet":13284,"ĠKod":13285,"ĠKusanag":13286,"Ġleaf":13287,"Ġtraces":13288,"iano":13289,"ĠChu":13290,"ĠChau":13291,"Ġunemploy":13292,"ĠVI":13293,"ĠVoice":13294,"orms":13295,"ĠHend":13296,"Ġrecapt":13297,"plain":13298,"Ġdisch":13299,"Ġdisorder":13300,"Ġjumps":13301,"Ġjealous":13302,"angered":13303,"Ġspor":13304,"Ġspite":13305,"Ġspelled":13306,"Ġenable":13307,"izers":13308,"ĠYoko":13309,"Ġallies":13310,"ensional":13311,"Ġbeta":13312,"Ġbetray":13313,"Ġrelocated":13314,"Ġcolored":13315,"Ġverb":13316,"Ġpeer":13317,"Ġformations":13318,"Ġaccord":13319,"Ġsubstances":13320,"Ġactively":13321,"Ġhighlights":13322,"ĠBrigadier":13323,"Ġmonk":13324,"Ġ173":13325,"ĠIndians":13326,"Ġinstances":13327,"ĠAustin":13328,"ĠGerald":13329,"Ġinfl":13330,"Ġinflicted":13331,"Ġprovisions":13332,"ĠFranz":13333,"Ġmetals":13334,"Ġmetaph":13335,"Ġ131":13336,"Ġvariant":13337,"ĠTrad":13338,"Ġtyphoon":13339,"Ġtopological":13340,"Ġtracking":13341,"nery":13342,"plex":13343,"Ġbreast":13344,"Ġcaptivity":13345,"ussion":13346,"ĠPeggy":13347,"quehanna":13348,"Ġeastward":13349,"Ġcompetitor":13350,"ĠPerth":13351,"Ġframes":13352,"Ġforever":13353,"Ġtroubles":13354,"Ġaffection":13355,"Ġpatients":13356,"Ġequally":13357,"ĠAirlines":13358,"Ġtraditionally":13359,"ĠOliver":13360,"ĠHamar":13361,"Ġcellular":13362,"ĠExpl":13363,"Äģh":13364,"Ġswing":13365,"Ġseparation":13366,"Ġquarters":13367,"Ġwidth":13368,"Ġcollision":13369,"Ġreasoning":13370,"ĠOlivia":13371,"ĠOdys":13372,"ĠGalile":13373,"Ġneglected":13374,"Ġcivilization":13375,"Ġthreatening":13376,"Ġclearing":13377,"Ġ1838":13378,"ĠDrive":13379,"Ġphysically":13380,"Ġeducated":13381,"Ġ1847":13382,"Ġgraduating":13383,"Ġparticipating":13384,"Ġvisitor":13385,"irtz":13386,"ĠOffensive":13387,"Ġconcludes":13388,"Ġembry":13389,"Ġcolonists":13390,"Ġ330":13391,"ĠMerrifield":13392,"Ġshoots":13393,"Ġsuspic":13394,"Ġthickness":13395,"Ġacquis":13396,"Ġacquire":13397,"Ġnuclei":13398,"Ġdigit":13399,"ĠArchitect":13400,"Ġparks":13401,"ĠSurrender":13402,"ĠColonna":13403,"Ġironcl":13404,"Ġmultiplayer":13405,"Ġmanufactured":13406,"Ġharbor":13407,"ĠFourth":13408,"Ġpreparations":13409,"Ġraids":13410,"ĠKentucky":13411,"Ġbelongs":13412,"jection":13413,"jections":13414,"ĠWritten":13415,"ĠChapman":13416,"Ġremixed":13417,"Ġoxid":13418,"swick":13419,"Ġtactic":13420,"Ġtactical":13421,"ĠRevolutionary":13422,"Ġrows":13423,"Ġecosy":13424,"Ġunpop":13425,"Ġprotagonists":13426,"Ġeasier":13427,"ĠKnights":13428,"Ġmistake":13429,"Ġsnake":13430,"ĠSusquehanna":13431,"Ġundertook":13432,"Ġsailing":13433,"Ġpolyg":13434,"Ġhairst":13435,"Ġevacuation":13436,"Ġevacuate":13437,"Ġsubstantially":13438,"ĠWinds":13439,"ĠVolunte":13440,"ĠWarsaw":13441,"Ġprosper":13442,"ĠMotor":13443,"ĠHungary":13444,"Ġcoordinated":13445,"Ġwarships":13446,"hmirtz":13447,"ĠKaram":13448,"Ġdimensional":13449,"Ġjackrabbits":13450,"Ġremembered":13451,"Ġadmits":13452,"Ġimprisonment":13453,"osomes":13454,"Ġelderly":13455,"ĠPleasure":13456,"Ġcarriages":13457,"ÅĤaw":13458,"Ġwelcome":13459,"ĠDiego":13460,"Ġswimming":13461,"Ġbarracks":13462,"ĠAlbion":13463,"ĠYellowstone":13464,"Ġfacilit":13465,"Ġdisappointed":13466,"ĠMunich":13467,"ĠFemale":13468,"Ġsympathetic":13469,"Ġprosecution":13470,"Ġanticipated":13471,"ĠDrama":13472,"ĠMortimer":13473,"ĠDoofens":13474,"Ġspawned":13475,"Ġluminosity":13476,"Ġstanza":13477,"Ġamphibious":13478,"ĠDestroyer":13479,"Ġpseud":13480,"ĠBrunswick":13481,"Ġchancel":13482,"ĠChopin":13483,"Ġtelephone":13484,"ĠBrothers":13485,"ĠSymphony":13486,"ĠHomar":13487,"Ġbronze":13488,"ĠTucker":13489,"Ġalcohol":13490,"ĠFerrari":13491,"Ġextraordinary":13492,"ĠLithuanian":13493,"ĠNFL":13494,"Ġmaneu":13495,"ĠMuhammad":13496,"Ġalbeit":13497,"ĠFischer":13498,"ĠWanyan":13499,"ĠWembley":13500,"ĠKusanagi":13501,"ĠChauvel":13502,"Ġecosystem":13503,"ĠDoofenshmirtz":13504,"Sh":13505,"Sp":13506,"aos":13507,"bard":13508,"cont":13509,"cairn":13510,"dam":13511,"dman":13512,"eb":13513,"eh":13514,"fam":13515,"gow":13516,"gna":13517,"hous":13518,"numbered":13519,"points":13520,"tures":13521,"erod":13522,"onald":13523,"onelli":13524,"rect":13525,"rels":13526,"Ġsank":13527,"Ġol":13528,"Ġoak":13529,"iture":13530,"Ġbishops":13531,"Ġinhib":13532,"Ġinex":13533,"aric":13534,"Ġpm":13535,"Ġpock":13536,"asury":13537,"asgow":13538,"Ġmating":13539,"Ġmasters":13540,"roc":13541,"rosoft":13542,"ici":13543,"ĠTed":13544,"Ġreh":13545,"Ġreorgan":13546,"entin":13547,"oub":13548,"ĠAval":13549,"ĠSit":13550,"ĠSic":13551,"ĠSag":13552,"ĠScl":13553,"ĠSomet":13554,"ĠSchol":13555,"ĠSovereign":13556,"Ġey":13557,"Ġeaten":13558,"Ġnons":13559,"ami":13560,"ĠClear":13561,"ĠCandid":13562,"ĠClement":13563,"ĠCatherine":13564,"ĠCAT":13565,"elih":13566,"acon":13567,"acrit":13568,"ĠMas":13569,"ĠMits":13570,"ĠMales":13571,"ĠMunicip":13572,"ĠMCC":13573,"ĠMoment":13574,"ĠIb":13575,"ĠIber":13576,"Ġgam":13577,"Ġgay":13578,"Ġgills":13579,"olving":13580,"olulu":13581,"tery":13582,"imination":13583,"ctic":13584,"iths":13585,"ĠHold":13586,"ĠHars":13587,"ĠHadd":13588,"heric":13589,"utors":13590,"ĠPil":13591,"ĠPra":13592,"ĠPric":13593,"ĠProp":13594,"ĠRaton":13595,"Ġconif":13596,"Ġconception":13597,"ĠWonder":13598,"andhi":13599,"ĠNature":13600,"ĠNumber":13601,"ĠGri":13602,"ĠGree":13603,"ĠGandhi":13604,"ĠLem":13605,"ĠLabyrinth":13606,"avis":13607,"ĠJai":13608,"Ġrice":13609,"ĠOri":13610,"apy":13611,"ante":13612,"anti":13613,"quis":13614,"quir":13615,"ĠâĢĺ":13616,"Ġye":13617,"ĠKend":13618,"Ġleather":13619,"ova":13620,"ĠStay":13621,"geant":13622,"osts":13623,"ellor":13624,"ĠChamber":13625,"Ġcompiled":13626,"Ġarcher":13627,"ogle":13628,"ĠVH":13629,"ĠViaduct":13630,"Ġrecruit":13631,"ĠThames":13632,"areth":13633,"Ġscales":13634,"Ġteaches":13635,"Ġupgr":13636,"Ġencom":13637,"acea":13638,"ensa":13639,"ĠRecon":13640,"ĠSeas":13641,"Ġfever":13642,"ĠArama":13643,"ugg":13644,"Ġcoloured":13645,"Ġfilmm":13646,"Ġendemic":13647,"Ġpecki":13648,"Ġregained":13649,"Ġassign":13650,"Ġassured":13651,"Ġspecially":13652,"ĠNewark":13653,"ĠNewcastle":13654,"ĠAmericas":13655,"Ġquake":13656,"obonelli":13657,"Ġgraves":13658,"Ġepit":13659,"Ġsynd":13660,"otherapy":13661,"Ġblame":13662,"annadh":13663,"Ġempty":13664,"Ġ171":13665,"Ġsignature":13666,"Ġterrible":13667,"Ġdiscour":13668,"ĠZhang":13669,"ĠZrÃŃ":13670,"Ġinfilt":13671,"Ġwarrant":13672,"ĠConnie":13673,"Ġinscribed":13674,"uclear":13675,"ucalypt":13676,"Ġnorthwestern":13677,"ĠPlensa":13678,"Ġ135":13679,"Ġguy":13680,"ĠColony":13681,"Ġsouthwestern":13682,"Ġmarble":13683,"Ġpossessions":13684,"ĠAndr":13685,"elta":13686,"Ġviewing":13687,"Ġissuing":13688,"ĠPradesh":13689,"Ġtrademark":13690,"Ġmyel":13691,"Ġcrimes":13692,"Ġbasement":13693,"Ġlowered":13694,"ĠPeriod":13695,"Ġ260":13696,"Ġstatute":13697,"Ġsolve":13698,"ĠAssist":13699,"Ġintroduce":13700,"Ġtourism":13701,"Ġprototype":13702,"Ġvillagers":13703,"ĠGlasgow":13704,"Ġsteambo":13705,"Ġsurvives":13706,"Ġrocky":13707,"Ġpredator":13708,"Ġfrontier":13709,"Ġassociations":13710,"ĠSupport":13711,"grim":13712,"Ġaveraging":13713,"Ġsuperst":13714,"Ġ1883":13715,"Ġhymn":13716,"ĠGameSp":13717,"Ġwidow":13718,"stituted":13719,"ĠCommando":13720,"ĠMedway":13721,"Ġfortifications":13722,"Ġpractical":13723,"Ġ1876":13724,"ĠCapcom":13725,"Ġviolacea":13726,"Ġhonest":13727,"araoh":13728,"ĠBrowns":13729,"Ġzero":13730,"Ġloose":13731,"Ġdiscusses":13732,"Ġ1837":13733,"ĠNotting":13734,"Ġdissent":13735,"Ġoccupies":13736,"ĠPrepar":13737,"Ġcruzi":13738,"enesis":13739,"Ġcalm":13740,"ĠAppro":13741,"Ġensued":13742,"ĠMetacrit":13743,"Ġaccessible":13744,"Ġcelebrity":13745,"Ġsilk":13746,"Ġsilent":13747,"Ġanalyzed":13748,"inental":13749,"Ġopted":13750,"ĠPittsburgh":13751,"ĠPitcairn":13752,"Ġjudged":13753,"Ġparking":13754,"limited":13755,"Ġincorrect":13756,"Ġinternet":13757,"ĠLiSA":13758,"Ġdrummer":13759,"ĠWildlife":13760,"Ġgrandson":13761,"Ġchemotherapy":13762,"ĠJosce":13763,"ĠSchm":13764,"ĠFantuzz":13765,"Ġwildlife":13766,"Ġprisoner":13767,"Ġmuseums":13768,"ĠChapter":13769,"ĠTrip":13770,"ĠTrials":13771,"Ġcollecting":13772,"Ġturret":13773,"Ġdressing":13774,"ĠPozz":13775,"ĠLarge":13776,"Ġdefinitely":13777,"Ġcomparable":13778,"ĠJeffrey":13779,"ĠCrowns":13780,"ĠMicrosoft":13781,"ĠEssex":13782,"ĠSusan":13783,"Ġoverlap":13784,"Ġdecreased":13785,"Ġbowlers":13786,"Ġfluid":13787,"ĠBroadcast":13788,"Ġdisturbed":13789,"ĠLowland":13790,"Ġrubble":13791,"ĠHuguen":13792,"Ġpalace":13793,"Ġpredecessors":13794,"Ġexpectations":13795,"Ġkingship":13796,"Ġconsequences":13797,"Ġvolunteer":13798,"ĠMarcus":13799,"ĠFeldman":13800,"Ġoutfit":13801,"ĠSavannah":13802,"Ġconquest":13803,"Ġsongwriting":13804,"ĠCooksey":13805,"ĠHunter":13806,"ĠStoppani":13807,"Ġreprinted":13808,"ĠYugoslav":13809,"Ġgardens":13810,"Ġsediment":13811,"Ġprolific":13812,"Ġdelegates":13813,"Ġpoisoning":13814,"Ġtackle":13815,"Ġcomedian":13816,"Ġinnovative":13817,"Ġcongregation":13818,"Ġnursery":13819,"ĠPowers":13820,"Ġparasites":13821,"ĠPublishing":13822,"Ġfossil":13823,"ĠNonetheless":13824,"Ġadaptations":13825,"Ġexplicitly":13826,"ĠPierre":13827,"Ġaerodromes":13828,"ĠLiterary":13829,"Ġrevenge":13830,"rhiz":13831,"ĠFriedrich":13832,"ĠJagannadh":13833,"Ġadequate":13834,"Ġentertaining":13835,"Ġdiscontinued":13836,"Ġgrammar":13837,"ĠAdriatic":13838,"Ġcontemporaries":13839,"ĠConstantinople":13840,"corrhiz":13841,"Ġreassigned":13842,"ĠCrystal":13843,"Ġstroke":13844,"ĠFletcher":13845,"Ġinconsist":13846,"Shara":13847,"ĠSaginaw":13848,"ĠSclerod":13849,"ĠSometimes":13850,"elihood":13851,"ĠMitsuda":13852,"ĠHarsha":13853,"ĠPrice":13854,"ĠGreece":13855,"Ġencompass":13856,"ĠAramaic":13857,"Ġpeckii":13858,"ĠZrÃŃnyi":13859,"ĠMetacritic":13860,"ĠFantuzzi":13861,"ĠPozzobonelli":13862,"LC":13863,"MC":13864,"iens":13865,"iating":13866,"iants":13867,"lon":13868,"lio":13869,"oons":13870,"raine":13871,"tron":13872,"ya":13873,"Ġ*":13874,"Ġu":13875,"Ġ~":13876,"Ġtag":13877,"Ġtiny":13878,"Ġtube":13879,"Ġoct":13880,"Ġfunk":13881,"Ġfab":13882,"Ġfib":13883,"enh":13884,"isd":13885,"esque":13886,"Ġbinary":13887,"Ġbapt":13888,"Ġborough":13889,"Ġbiblical":13890,"anim":13891,"anth":13892,"alo":13893,"Ġtool":13894,"Ġtough":13895,"Ġmock":13896,"Ġdiversity":13897,"Ġdrought":13898,"leki":13899,"ĠTar":13900,"ĠToy":13901,"ĠTests":13902,"ĠTimb":13903,"Ġrework":13904,"ĠSu":13905,"ĠSel":13906,"ĠSiber":13907,"Ġlakes":13908,"omon":13909,"ompe":13910,"Ġnests":13911,"ĠCu":13912,"ĠCore":13913,"ĠChes":13914,"Ġbeaches":13915,"ĠMann":13916,"ĠMÄģ":13917,"Ġgate":13918,"Ġgaming":13919,"ĠBach":13920,"imon":13921,"immer":13922,"ĠHi":13923,"ĠHÆ°Æ¡ng":13924,"ĠPel":13925,"ĠPompe":13926,"ĠRand":13927,"ĠRub":13928,"ĠRoll":13929,"ĠRanger":13930,"ĠFine":13931,"ĠFoster":13932,"ĠDJ":13933,"ĠDard":13934,"Ġcontend":13935,"emi":13936,"ĠWCW":13937,
[...]
